<unk>	0
<s>	0
</s>	0
▁the	-2.89064
,	-3.00069
▁of	-3.26285
.	-3.29172
▁to	-3.78722
▁and	-3.85753
▁in	-4.08418
▁a	-4.17768
▁is	-4.47821
▁that	-4.53523
s	-4.82879
▁for	-4.98456
▁be	-5.08263
▁as	-5.11007
▁it	-5.12685
▁by	-5.20174
▁The	-5.20563
▁“	-5.22074
-	-5.22627
▁not	-5.27262
▁was	-5.31065
▁on	-5.40795
’	-5.44426
▁are	-5.46193
▁with	-5.47549
▁or	-5.49541
▁	-5.53574
▁which	-5.55272
▁this	-5.56617
▁from	-5.69779
▁his	-5.72064
▁have	-5.74436
▁an	-5.76141
:	-5.77636
▁at	-5.84675
▁their	-5.85149
▁he	-5.86114
▁would	-5.87619
▁(	-5.8772
▁all	-5.9282
;	-5.92948
▁they	-5.93231
”	-6.00752
▁one	-6.06161
▁will	-6.11746
▁were	-6.12367
▁more	-6.14157
▁but	-6.14257
▁has	-6.15431
▁had	-6.15873
▁we	-6.17555
—	-6.20261
▁its	-6.2288
▁no	-6.2333
▁only	-6.23522
▁In	-6.23999
▁I	-6.24577
▁money	-6.25942
▁It	-6.26858
▁can	-6.27338
▁other	-6.29158
▁who	-6.36702
▁than	-6.40615
▁been	-6.4452
▁any	-6.53876
▁there	-6.54063
▁so	-6.54446
▁if	-6.54987
▁government	-6.58369
▁But	-6.59021
.”	-6.60037
▁these	-6.62069
▁them	-6.63175
▁such	-6.64082
)	-6.71019
▁what	-6.71578
▁economic	-6.72054
▁into	-6.73406
▁market	-6.74528
▁must	-6.75062
▁time	-6.78692
▁people	-6.79565
▁may	-6.80052
▁out	-6.82123
▁could	-6.82241
▁do	-6.84082
▁our	-6.84232
▁This	-6.84442
▁A	-6.86221
▁production	-6.87136
▁when	-6.87232
?	-6.89097
,”	-6.89234
▁about	-6.91254
▁p	-6.92754
▁goods	-6.93569
▁also	-6.9431
▁even	-6.94408
▁some	-6.95136
▁most	-6.95236
ing	-6.99378
▁value	-6.99989
▁price	-7.00118
▁those	-7.00119
▁capital	-7.01886
▁prices	-7.05387
▁because	-7.05489
▁state	-7.05781
▁then	-7.06482
▁between	-7.07229
▁should	-7.08028
▁new	-7.08091
▁same	-7.08619
▁He	-7.12014
▁If	-7.12536
▁own	-7.13345
▁up	-7.13558
▁first	-7.1447
▁system	-7.16188
▁way	-7.1778
▁man	-7.17945
▁very	-7.19054
▁over	-7.19402
▁two	-7.20317
▁power	-7.20697
▁free	-7.2084
▁fact	-7.20842
▁theory	-7.21057
▁you	-7.22184
▁interest	-7.22197
▁does	-7.23161
▁made	-7.24281
▁against	-7.24486
▁world	-7.25497
t	-7.26468
▁him	-7.28419
▁.	-7.28473
▁much	-7.28918
▁many	-7.31006
▁make	-7.31745
▁gold	-7.32068
▁means	-7.34328
▁labor	-7.35179
▁New	-7.35483
▁under	-7.36849
▁us	-7.37048
▁exchange	-7.37218
▁They	-7.3905
▁well	-7.39422
e	-7.40005
▁war	-7.4066
▁social	-7.40748
▁without	-7.4106
▁And	-7.41862
▁good	-7.41891
▁now	-7.41991
▁use	-7.42381
▁being	-7.42672
▁great	-7.44009
▁did	-7.4404
▁cannot	-7.45547
▁years	-7.45699
▁demand	-7.45718
▁case	-7.4621
▁American	-7.46324
▁work	-7.46391
▁each	-7.46705
▁As	-7.47076
▁For	-7.47509
▁every	-7.47615
▁economy	-7.47628
▁less	-7.47899
▁public	-7.48051
▁part	-7.48941
▁upon	-7.49142
▁my	-7.50101
▁pp	-7.50637
▁men	-7.51104
▁Mises	-7.51194
▁order	-7.51202
▁political	-7.51295
▁business	-7.52362
the	-7.53014
▁point	-7.53347
▁There	-7.53378
▁long	-7.5384
▁rate	-7.53963
▁property	-7.54262
▁how	-7.54747
ed	-7.54878
▁through	-7.55435
▁We	-7.55933
▁human	-7.57746
▁individual	-7.58342
'	-7.58661
▁increase	-7.59135
▁society	-7.59168
▁country	-7.59343
▁another	-7.59504
▁law	-7.59512
▁see	-7.60508
▁different	-7.60904
▁York	-7.61156
▁State	-7.62431
▁course	-7.63521
▁after	-7.63552
▁bank	-7.64442
▁always	-7.64641
▁policy	-7.65297
▁life	-7.65317
▁supply	-7.65893
▁her	-7.66952
▁far	-7.67489
▁action	-7.67557
▁like	-7.67793
▁general	-7.68158
▁still	-7.682
▁private	-7.68351
▁before	-7.68545
▁never	-7.6893
▁where	-7.69468
▁present	-7.69716
▁however	-7.70228
▁possible	-7.71828
▁right	-7.73305
a	-7.73653
▁trade	-7.73776
▁credit	-7.74101
▁banks	-7.74473
▁might	-7.74548
▁‘	-7.74747
▁monetary	-7.7607
▁while	-7.76161
▁problem	-7.76352
▁States	-7.76399
▁say	-7.7807
▁both	-7.78539
▁take	-7.79875
▁too	-7.79961
▁since	-7.80398
▁income	-7.81313
▁United	-7.81619
▁future	-7.81949
▁itself	-7.82097
).	-7.83011
▁place	-7.83222
▁just	-7.83412
▁important	-7.8477
▁therefore	-7.85046
▁result	-7.86058
ly	-7.8607
▁said	-7.86097
▁real	-7.87437
▁question	-7.88439
▁certain	-7.89758
▁foreign	-7.89854
▁land	-7.90684
▁view	-7.91096
d	-7.91326
▁conditions	-7.91479
▁rates	-7.92241
▁become	-7.92401
▁themselves	-7.92735
▁process	-7.93154
▁end	-7.93166
▁economics	-7.93173
▁things	-7.93215
▁others	-7.93955
▁used	-7.94049
▁whole	-7.94083
▁true	-7.9409
▁given	-7.9412
▁When	-7.94311
The	-7.9433
n	-7.94544
▁history	-7.94575
▁whether	-7.96545
▁rather	-7.9724
▁To	-7.97705
▁What	-7.9803
▁example	-7.98071
▁countries	-7.98262
▁inflation	-7.98437
▁during	-7.98592
▁me	-7.98646
▁nature	-7.98897
▁German	-7.99064
in	-7.99972
▁large	-8.00517
▁higher	-8.00555
▁year	-8.01044
▁On	-8.01184
▁later	-8.02287
▁necessary	-8.02445
▁pay	-8.03195
▁hand	-8.03223
▁form	-8.03422
▁among	-8.04072
▁amount	-8.04787
▁sense	-8.05024
S	-8.05084
▁standard	-8.05587
▁de	-8.0565
▁himself	-8.05685
▁control	-8.06087
▁nothing	-8.06125
▁natural	-8.07674
▁reason	-8.08087
▁need	-8.08218
and	-8.08655
]	-8.0881
▁change	-8.08858
▁know	-8.08904
▁little	-8.09155
▁further	-8.09236
),	-8.09546
▁particular	-8.09569
▁tax	-8.10256
▁better	-8.10347
▁get	-8.10468
▁down	-8.10509
▁high	-8.10994
▁Thus	-8.11256
▁least	-8.11259
▁again	-8.11594
▁period	-8.11656
▁thus	-8.11982
▁thought	-8.12385
▁come	-8.1365
▁few	-8.14254
▁able	-8.1429
▁last	-8.14429
▁wage	-8.1451
▁here	-8.14595
▁national	-8.15071
▁called	-8.15374
▁old	-8.15386
▁1	-8.1637
▁freedom	-8.16377
▁day	-8.16981
▁consumers	-8.17268
▁Economic	-8.17681
▁number	-8.18137
▁find	-8.18522
▁various	-8.1867
▁something	-8.18725
▁per	-8.18958
▁put	-8.19023
▁effect	-8.19236
▁position	-8.19516
▁go	-8.19618
▁short	-8.19649
▁she	-8.19664
▁best	-8.1981
▁already	-8.20846
▁total	-8.20994
▁terms	-8.21191
▁either	-8.21264
▁percent	-8.21347
▁rise	-8.21538
▁greater	-8.21918
▁industry	-8.22062
▁back	-8.22796
▁War	-8.22812
▁person	-8.22818
▁currency	-8.23514
▁One	-8.23738
▁services	-8.2387
▁give	-8.23884
▁wages	-8.24822
▁idea	-8.25395
▁within	-8.25558
▁rights	-8.25692
▁ever	-8.25887
▁principle	-8.25921
▁found	-8.25948
▁merely	-8.26378
▁economists	-8.26771
▁Austrian	-8.2693
▁[	-8.27055
▁factors	-8.2788
▁force	-8.28166
▁three	-8.28221
▁laws	-8.28281
▁set	-8.28289
▁knowledge	-8.28381
▁costs	-8.28543
▁central	-8.29007
▁changes	-8.2967
▁individuals	-8.29725
▁cost	-8.29895
▁want	-8.29903
▁self	-8.30114
▁small	-8.30646
▁product	-8.30904
▁above	-8.30978
▁That	-8.31157
▁thing	-8.31198
▁investment	-8.31328
▁British	-8.31476
▁paper	-8.31547
▁often	-8.31599
▁book	-8.31741
▁why	-8.31891
▁almost	-8.3207
▁though	-8.32208
▁Rothbard	-8.32346
▁common	-8.32517
▁level	-8.32608
▁profit	-8.32618
▁banking	-8.32629
▁B	-8.32856
▁simply	-8.33282
▁quantity	-8.33418
▁wealth	-8.33501
er	-8.33744
or	-8.33757
▁consumption	-8.33879
▁Germany	-8.34053
▁increased	-8.3412
▁once	-8.34182
▁until	-8.34238
▁century	-8.34779
▁John	-8.34937
▁These	-8.34957
▁enough	-8.35777
▁University	-8.3604
▁modern	-8.36376
▁matter	-8.36389
p	-8.3643
▁workers	-8.36666
▁analysis	-8.37205
▁2	-8.37364
▁No	-8.37557
▁think	-8.377
▁socialism	-8.37961
▁act	-8.38107
▁—	-8.3852
▁states	-8.39045
▁England	-8.39166
▁your	-8.39184
▁Bank	-8.39687
▁international	-8.40457
▁problems	-8.40511
▁kind	-8.41373
▁class	-8.41668
▁became	-8.41854
▁cause	-8.41947
▁stock	-8.42067
▁competition	-8.42204
▁resources	-8.4227
▁U	-8.42284
▁yet	-8.42338
▁off	-8.42475
▁longer	-8.42627
▁America	-8.42689
▁Economics	-8.42837
▁At	-8.43099
▁whose	-8.43278
▁situation	-8.43316
▁left	-8.43481
▁Mr	-8.43937
▁group	-8.43974
▁expansion	-8.4416
▁shall	-8.4437
▁interests	-8.44412
▁subject	-8.44663
▁lower	-8.44827
▁clear	-8.45474
▁making	-8.45481
▁"	-8.45843
▁All	-8.46115
▁toward	-8.46212
▁second	-8.46356
▁ideas	-8.46632
▁nation	-8.46964
▁taken	-8.47152
▁full	-8.47206
▁mind	-8.47214
▁came	-8.47254
!	-8.47562
▁Press	-8.47629
▁today	-8.47864
▁makes	-8.49304
▁really	-8.50007
▁liberty	-8.50451
▁non	-8.50623
–	-8.5105
▁early	-8.51807
▁Congress	-8.52228
▁development	-8.52637
▁produce	-8.5407
▁However	-8.54231
▁having	-8.54278
▁considered	-8.54776
▁science	-8.54835
▁fall	-8.54851
▁done	-8.54928
▁argument	-8.55316
▁Europe	-8.55325
▁available	-8.55358
▁away	-8.55742
▁Federal	-8.55977
▁Government	-8.56146
▁profits	-8.56256
▁notes	-8.56531
▁products	-8.56702
▁quite	-8.56818
▁brought	-8.56954
▁based	-8.57448
▁Even	-8.57499
▁M	-8.57569
▁members	-8.57577
▁monopoly	-8.57613
▁issue	-8.5782
y	-8.57892
▁living	-8.58072
▁support	-8.58291
▁words	-8.58454
▁population	-8.58465
▁nor	-8.58553
▁times	-8.58585
▁indeed	-8.58686
▁especially	-8.58969
▁legal	-8.58984
▁employment	-8.59647
▁equal	-8.59696
▁influence	-8.60354
▁actions	-8.60357
▁extent	-8.60398
to	-8.61195
▁special	-8.61368
▁believe	-8.61382
▁began	-8.61383
▁French	-8.61711
▁return	-8.61787
▁von	-8.6181
▁account	-8.61879
▁existence	-8.62248
▁keep	-8.62329
▁seems	-8.62431
▁seen	-8.63302
▁labour	-8.63621
▁utility	-8.6365
▁regard	-8.63715
▁Yet	-8.63777
i	-8.63906
▁turn	-8.63941
▁else	-8.64197
▁call	-8.64322
▁taxes	-8.64331
▁anything	-8.64826
▁His	-8.65672
▁After	-8.65714
▁rule	-8.65936
▁forces	-8.66001
▁paid	-8.66058
▁wants	-8.66374
▁productive	-8.66418
▁bring	-8.66568
▁Ibid	-8.66671
▁So	-8.66785
▁school	-8.67005
▁experience	-8.67269
▁socialist	-8.67495
A	-8.67606
▁produced	-8.67629
▁An	-8.67814
▁according	-8.67987
▁doctrine	-8.68055
▁commodities	-8.68083
▁due	-8.68116
▁several	-8.68301
▁following	-8.68512
▁past	-8.68686
▁See	-8.68887
I	-8.69038
▁France	-8.6922
▁buy	-8.69404
▁Theory	-8.69815
▁groups	-8.69835
New	-8.69844
▁movement	-8.69846
▁consumer	-8.69895
▁commodity	-8.70457
▁Hayek	-8.70509
▁service	-8.70564
▁becomes	-8.707
▁i	-8.70778
▁moral	-8.70872
▁President	-8.70884
▁soon	-8.70988
▁took	-8.71043
▁3	-8.71525
▁effects	-8.71546
▁policies	-8.71552
▁unit	-8.71898
▁deposits	-8.72087
▁basis	-8.72445
▁opinion	-8.72653
▁Reserve	-8.727
▁instead	-8.72835
▁known	-8.73102
▁material	-8.73183
▁home	-8.73225
▁World	-8.73644
▁Keynes	-8.73655
▁J	-8.73676
▁impossible	-8.7426
▁run	-8.74314
▁nations	-8.74384
▁Marx	-8.74505
▁concept	-8.74663
▁actually	-8.7475
▁party	-8.74947
▁C	-8.75123
▁held	-8.75499
▁single	-8.75605
▁cash	-8.75686
▁D	-8.75714
▁values	-8.75717
▁purpose	-8.75748
▁cases	-8.76213
▁million	-8.76525
▁historical	-8.76561
as	-8.76684
▁method	-8.76946
▁importance	-8.76948
▁personal	-8.77288
▁military	-8.77386
▁going	-8.77391
▁difference	-8.78317
▁term	-8.78403
▁equilibrium	-8.78778
▁etc	-8.78826
▁went	-8.7892
▁governments	-8.7973
▁S	-8.79747
▁marginal	-8.80132
▁By	-8.80151
▁English	-8.80242
▁latter	-8.80349
▁plan	-8.80514
▁capitalism	-8.80527
▁consider	-8.80662
▁loans	-8.80673
▁With	-8.80763
▁side	-8.81254
▁led	-8.81426
▁structure	-8.81564
▁everyone	-8.81669
▁debt	-8.81882
▁determined	-8.81927
/	-8.82051
▁lead	-8.82074
▁financial	-8.82432
▁next	-8.82467
▁needs	-8.82546
▁provide	-8.82552
▁precisely	-8.83035
▁purchasing	-8.83239
▁attempt	-8.83294
▁F	-8.83379
▁mean	-8.83442
▁truth	-8.83567
▁Since	-8.83675
▁perhaps	-8.83675
▁dollars	-8.83771
▁principles	-8.83871
▁help	-8.83906
es	-8.84198
▁original	-8.84392
▁difficult	-8.84418
▁generally	-8.85121
▁current	-8.85166
▁average	-8.85182
▁silver	-8.85256
▁low	-8.85344
▁established	-8.85474
▁answer	-8.85536
▁community	-8.85555
▁direct	-8.85696
▁Money	-8.85699
▁working	-8.85783
▁results	-8.85793
▁role	-8.86044
r	-8.86172
▁division	-8.86228
▁similar	-8.86535
▁Smith	-8.86606
▁let	-8.86681
▁firm	-8.86699
▁Because	-8.86957
▁alone	-8.87271
▁Now	-8.87315
▁majority	-8.87479
g	-8.87495
▁H	-8.87706
▁affairs	-8.87732
▁deal	-8.87818
▁consequences	-8.87853
▁...	-8.87862
▁methods	-8.8793
▁peace	-8.88065
▁concerned	-8.88167
▁family	-8.88181
▁N	-8.88189
▁loss	-8.88667
▁hands	-8.89
▁growth	-8.89178
▁Roosevelt	-8.89451
▁show	-8.8949
th	-8.89495
▁function	-8.89769
▁forced	-8.89808
▁whatever	-8.90164
▁around	-8.90374
▁W	-8.90378
▁created	-8.90414
▁London	-8.9059
▁needed	-8.90725
▁Britain	-8.90804
▁poor	-8.91025
▁markets	-8.91063
▁clearly	-8.91152
▁instance	-8.91325
▁am	-8.91331
▁entire	-8.91353
▁provided	-8.91379
▁completely	-8.91469
▁Great	-8.9162
▁character	-8.91626
▁necessarily	-8.91686
▁Economy	-8.917
▁whom	-8.91712
▁wrote	-8.91822
▁children	-8.91958
▁required	-8.92246
▁welfare	-8.92367
▁While	-8.92526
▁days	-8.92528
▁dollar	-8.92569
▁ed	-8.92781
▁funds	-8.92967
"	-8.92969
▁entrepreneurs	-8.93134
▁physical	-8.93144
is	-8.93297
▁former	-8.93472
▁developed	-8.935
▁productivity	-8.93568
▁entirely	-8.9361
▁claim	-8.93643
▁federal	-8.93797
▁complete	-8.93858
▁actual	-8.93861
▁together	-8.93956
▁exist	-8.94046
▁E	-8.94273
▁citizens	-8.94313
▁authority	-8.94375
▁unemployment	-8.94394
▁balance	-8.94606
▁fundamental	-8.9466
▁beyond	-8.9474
▁practice	-8.94981
▁National	-8.95104
▁name	-8.95141
▁major	-8.95257
▁specific	-8.95296
▁rest	-8.95388
▁particularly	-8.95442
▁ends	-8.95695
▁activities	-8.95705
▁ownership	-8.95766
▁discussion	-8.95888
▁limited	-8.96274
▁increasing	-8.96329
▁degree	-8.96481
▁final	-8.96629
▁activity	-8.96739
m	-8.96804
?”	-8.96921
▁relative	-8.97046
▁open	-8.97433
▁4	-8.97472
▁Journal	-8.97494
▁choice	-8.97558
▁payments	-8.97599
▁sell	-8.97622
▁study	-8.97762
▁factor	-8.97764
▁existing	-8.97764
ism	-8.98073
▁field	-8.98138
▁certainly	-8.98368
▁fixed	-8.98434
▁progress	-8.98454
▁respect	-8.98512
▁half	-8.98612
▁relations	-8.98754
▁contrary	-8.98985
▁look	-8.99015
▁finally	-8.99053
▁hold	-8.99133
▁savings	-8.99184
▁Professor	-8.99232
▁anti	-8.99281
▁age	-8.99601
that	-8.99655
▁From	-8.99705
▁William	-8.99742
▁word	-9.00038
▁published	-9.00168
▁main	-9.00249
▁organization	-9.00254
▁intellectual	-9.00416
▁expected	-9.00542
▁likely	-9.00614
al	-9.00632
▁spending	-9.00928
▁P	-9.01052
▁How	-9.01162
▁liberal	-9.01163
.)	-9.01285
▁line	-9.01593
▁producers	-9.01602
▁libertarian	-9.01643
▁simple	-9.01707
▁beginning	-9.01759
▁neither	-9.01766
▁decision	-9.01893
▁events	-9.02021
▁understand	-9.02062
▁European	-9.02109
▁condition	-9.02528
▁union	-9.02805
▁industrial	-9.03083
▁highly	-9.03087
▁understanding	-9.0334
▁cent	-9.03473
▁benefit	-9.03552
▁Constitution	-9.03756
▁additional	-9.03827
▁remain	-9.03912
▁Such	-9.03935
▁Washington	-9.0394
▁persons	-9.04042
▁doing	-9.04202
▁assume	-9.04451
▁Let	-9.04587
▁philosophy	-9.04739
▁10	-9.04768
▁four	-9.04917
▁conduct	-9.05016
re	-9.05081
▁directly	-9.05118
▁volume	-9.0527
▁saving	-9.05461
▁continued	-9.05475
▁seem	-9.05511
ness	-9.05573
▁facts	-9.05643
▁along	-9.05789
▁essential	-9.05991
▁probably	-9.0605
▁wanted	-9.06116
▁relation	-9.06192
▁calculation	-9.06218
▁domestic	-9.06241
▁prevent	-9.06363
▁measure	-9.06373
▁Of	-9.06437
▁parties	-9.06487
▁everything	-9.06542
▁increases	-9.06563
▁5	-9.06615
▁wrong	-9.06696
▁commercial	-9.06728
▁food	-9.06758
▁un	-9.06773
▁advantage	-9.06849
▁History	-9.06979
▁task	-9.07067
▁attention	-9.07128
▁Here	-9.07166
▁Then	-9.07195
▁comes	-9.07336
▁institutions	-9.0735
▁strong	-9.0747
▁measures	-9.07494
▁output	-9.07521
▁live	-9.07655
▁causes	-9.07702
▁reasons	-9.08156
▁enterprise	-9.08248
▁popular	-9.08263
▁otherwise	-9.08339
▁circumstances	-9.08382
▁industries	-9.08444
▁says	-9.08541
▁late	-9.08563
▁explanation	-9.08662
▁billion	-9.08821
▁employed	-9.08842
▁usually	-9.08899
▁works	-9.08938
▁program	-9.08957
▁favor	-9.09025
▁II	-9.09105
▁information	-9.09452
▁received	-9.09462
▁involved	-9.09507
▁circulation	-9.09663
▁body	-9.09665
▁moment	-9.09777
▁reserves	-9.09902
C	-9.10144
▁president	-9.10151
▁continue	-9.10158
b	-9.10182
▁independent	-9.10357
▁bad	-9.10391
▁tried	-9.10482
▁firms	-9.10517
▁third	-9.1057
▁powers	-9.1061
▁including	-9.10637
▁takes	-9.10823
▁try	-9.10954
▁justice	-9.11064
▁Ludwig	-9.11215
▁satisfaction	-9.11242
的	-9.1125
▁saw	-9.11534
▁George	-9.11775
▁fully	-9.11872
ers	-9.1202
▁House	-9.12172
▁area	-9.12195
▁worth	-9.12222
▁although	-9.12358
▁reality	-9.12466
▁economist	-9.1262
▁young	-9.12629
▁effort	-9.12636
▁house	-9.12669
▁anyone	-9.12696
▁asked	-9.12716
▁company	-9.12739
▁R	-9.12869
▁desire	-9.1292
▁caused	-9.13069
▁attack	-9.13126
▁failure	-9.13168
▁Law	-9.13283
▁taking	-9.13287
▁step	-9.13299
▁Man	-9.1334
▁Review	-9.13465
▁crisis	-9.13522
▁explain	-9.13528
▁obvious	-9.13543
▁boom	-9.13681
▁appear	-9.13683
▁owners	-9.13701
▁taxation	-9.13749
▁chapter	-9.13956
▁statement	-9.14194
▁women	-9.14265
▁create	-9.1429
▁sort	-9.14306
▁depression	-9.14565
▁approach	-9.1457
▁tendency	-9.1458
▁security	-9.14595
▁gain	-9.14628
▁thinking	-9.14635
▁Only	-9.14748
▁city	-9.14794
▁South	-9.14935
▁ways	-9.15004
▁Some	-9.15064
▁allowed	-9.15409
▁payment	-9.15481
▁earlier	-9.15523
▁type	-9.15543
▁reserve	-9.15616
▁hard	-9.15635
▁assumption	-9.16082
▁mass	-9.16215
▁owner	-9.16424
it	-9.16451
▁General	-9.16575
▁lost	-9.16582
▁leading	-9.16631
▁School	-9.16892
▁recent	-9.1694
▁raise	-9.1696
▁success	-9.16982
▁note	-9.16999
▁contrast	-9.17117
▁behavior	-9.17159
▁sciences	-9.17207
▁capitalist	-9.17209
▁classes	-9.17304
▁knew	-9.17769
▁gave	-9.17818
▁doubt	-9.18106
▁First	-9.18163
▁correct	-9.18322
▁re	-9.18349
▁immediately	-9.18403
▁Act	-9.18498
▁share	-9.18545
▁tend	-9.18701
▁death	-9.18853
▁Although	-9.18931
▁G	-9.19315
▁follows	-9.19368
▁got	-9.19536
▁office	-9.19867
▁phenomena	-9.19868
▁outside	-9.19889
▁leaders	-9.19897
▁below	-9.20329
▁theories	-9.20385
▁points	-9.20456
▁manner	-9.20516
▁protection	-9.2052
▁easily	-9.20612
▁democracy	-9.20618
▁face	-9.20678
▁God	-9.21049
▁ago	-9.21095
▁Chicago	-9.21127
▁proportion	-9.21371
▁direction	-9.21404
▁read	-9.21501
▁intervention	-9.21552
▁five	-9.21565
▁forms	-9.21623
an	-9.21644
▁Not	-9.21713
▁pressure	-9.21741
▁local	-9.21869
▁meaning	-9.22064
c	-9.2209
▁addition	-9.22143
▁contract	-9.2218
▁maintain	-9.22203
▁defense	-9.2226
▁basic	-9.22261
▁article	-9.22491
▁mere	-9.22578
▁et	-9.22607
▁claims	-9.22608
▁thereby	-9.22673
of	-9.22769
▁sum	-9.22804
▁goal	-9.22867
▁Liberty	-9.23024
▁Henry	-9.23058
▁ultimate	-9.23084
▁evidence	-9.2316
▁views	-9.23222
▁big	-9.23265
▁throughout	-9.23438
▁ten	-9.23532
▁unions	-9.23587
▁greatest	-9.23732
▁Political	-9.23861
▁entrepreneur	-9.23869
▁quality	-9.23976
o	-9.24024
▁purposes	-9.24046
▁absolute	-9.24238
▁definite	-9.24383
▁conflict	-9.24491
▁decided	-9.24534
▁cycle	-9.2457
▁goes	-9.24616
▁Institute	-9.24717
▁told	-9.24808
▁rules	-9.24825
▁accept	-9.24907
▁larger	-9.24907
▁job	-9.24929
▁L	-9.25125
▁plans	-9.25194
▁purchase	-9.25205
▁units	-9.25217
▁benefits	-9.25298
▁sure	-9.25349
▁violence	-9.25383
▁except	-9.25649
▁hundred	-9.25654
▁solution	-9.25719
▁operation	-9.25767
▁sometimes	-9.25795
▁classical	-9.25803
▁shown	-9.25976
en	-9.26179
▁loan	-9.26291
▁acts	-9.2655
▁follow	-9.26711
▁sold	-9.26789
▁You	-9.2683
▁Why	-9.26914
▁someone	-9.2718
▁relatively	-9.27307
▁serve	-9.27332
▁Japanese	-9.27367
▁Fed	-9.27391
▁member	-9.27463
▁losses	-9.27515
▁head	-9.27539
▁James	-9.27569
▁using	-9.27602
▁distribution	-9.27621
▁opportunity	-9.2767
▁efforts	-9.27855
on	-9.28148
▁scientific	-9.28257
▁light	-9.28428
▁aid	-9.28431
▁opposition	-9.28495
▁Revolution	-9.28576
▁willing	-9.28585
▁realize	-9.2891
▁reduce	-9.29002
▁practical	-9.29159
▁Russia	-9.29179
▁theoretical	-9.29183
▁materials	-9.29239
▁rich	-9.29277
▁rent	-9.29313
▁reduced	-9.29348
▁duty	-9.29416
▁added	-9.29546
▁close	-9.29898
▁T	-9.30003
▁conclusion	-9.30009
▁written	-9.30145
▁easy	-9.30168
▁immediate	-9.3017
▁don	-9.30395
▁gives	-9.30578
▁Social	-9.30594
▁demands	-9.3077
▁objective	-9.30808
▁turned	-9.30842
▁data	-9.30914
▁determine	-9.30965
▁voluntary	-9.31034
▁research	-9.31065
▁subjective	-9.3107
▁consequence	-9.31428
▁lack	-9.31477
▁education	-9.31687
▁students	-9.31705
▁failed	-9.31705
▁ability	-9.31862
▁applied	-9.3187
▁questions	-9.31891
▁source	-9.31895
▁serious	-9.31924
▁sufficient	-9.31952
▁Murray	-9.32268
▁kept	-9.3228
▁6	-9.32354
▁hardly	-9.32553
▁remains	-9.32614
▁offered	-9.3281
▁possibility	-9.32891
▁West	-9.33089
▁quickly	-9.33104
▁issues	-9.33106
▁reached	-9.33129
▁Under	-9.33144
▁previous	-9.33239
▁bill	-9.33253
▁media	-9.33305
▁processes	-9.33412
▁followed	-9.33433
▁shows	-9.33473
▁decisions	-9.3351
▁planning	-9.3368
▁language	-9.33694
▁supposed	-9.33854
▁water	-9.33948
▁Indeed	-9.34159
▁wish	-9.34162
▁hope	-9.3437
▁net	-9.34438
▁largely	-9.34647
▁Secretary	-9.34944
▁cooperation	-9.34976
.1	-9.35069
▁effective	-9.35148
▁agreement	-9.35149
▁evil	-9.35185
▁assets	-9.35196
which	-9.35199
▁civilization	-9.35232
▁raised	-9.35431
▁appears	-9.35501
▁believed	-9.35538
▁Their	-9.35585
▁la	-9.35604
▁ground	-9.35747
▁ought	-9.35911
▁avoid	-9.3603
▁distinction	-9.36049
▁books	-9.36109
▁My	-9.36135
▁der	-9.36141
▁useful	-9.36279
▁powerful	-9.36464
▁inflationary	-9.36506
▁Western	-9.36602
▁transactions	-9.36752
▁ask	-9.36757
▁Our	-9.36763
▁proper	-9.36811
▁error	-9.36837
▁police	-9.36839
▁Menger	-9.36991
▁object	-9.37051
▁Japan	-9.37087
▁lives	-9.37102
▁Robert	-9.37162
▁regarded	-9.37354
▁administration	-9.37369
▁definition	-9.37445
▁Moreover	-9.3746
▁und	-9.37504
▁Many	-9.37547
▁pointed	-9.37613
▁passed	-9.37689
▁parts	-9.37946
▁7	-9.37983
▁depends	-9.37987
▁stage	-9.38075
▁acting	-9.38281
▁expense	-9.38451
▁offer	-9.38508
▁months	-9.38615
▁nearly	-9.38648
▁uses	-9.38692
▁Company	-9.38891
▁Every	-9.39071
▁speak	-9.39099
▁concerning	-9.39161
▁spirit	-9.39397
▁City	-9.39426
▁Hence	-9.39557
▁Thomas	-9.39588
▁leave	-9.3964
▁North	-9.39781
▁successful	-9.39794
▁ideal	-9.39828
▁Socialism	-9.39831
▁vote	-9.39977
▁accepted	-9.4044
▁companies	-9.40486
▁constant	-9.40528
▁&	-9.40753
▁meant	-9.40786
▁alternative	-9.40794
▁risk	-9.40906
▁move	-9.40943
▁assumed	-9.40958
▁stand	-9.41091
▁seemed	-9.41175
▁begin	-9.41261
▁judgment	-9.41312
▁sound	-9.41509
▁obtain	-9.4161
▁Soviet	-9.41807
▁December	-9.41905
▁medium	-9.42024
▁logical	-9.42033
▁felt	-9.42084
▁opposed	-9.42087
▁twenty	-9.42277
▁institution	-9.42321
▁pure	-9.42422
▁Human	-9.42624
▁areas	-9.42664
▁receive	-9.42675
▁necessity	-9.42728
▁expressed	-9.42896
▁revolution	-9.42964
▁author	-9.43086
▁trying	-9.43137
man	-9.43368
▁choose	-9.43385
▁notion	-9.43397
▁carried	-9.43438
▁play	-9.43488
▁proposed	-9.43502
▁During	-9.43528
▁radical	-9.43606
▁perfect	-9.43651
▁religious	-9.43677
▁Department	-9.43691
▁relationship	-9.43707
▁hence	-9.43746
▁controls	-9.43857
▁adopted	-9.43863
▁decline	-9.43955
▁legislation	-9.4401
▁exists	-9.44261
▁differences	-9.44309
▁mankind	-9.44329
▁oil	-9.44341
▁phenomenon	-9.44411
▁equally	-9.44416
▁smaller	-9.44454
market	-9.44511
▁selling	-9.44548
▁ready	-9.44614
▁nineteenth	-9.44776
▁matters	-9.44787
▁millions	-9.44851
▁May	-9.45076
▁politics	-9.45216
▁100	-9.45262
term	-9.45264
▁explained	-9.45322
▁Americans	-9.45477
▁purely	-9.45503
▁establish	-9.45681
▁changed	-9.45743
▁scale	-9.45862
▁masses	-9.45917
▁remained	-9.45942
▁unless	-9.46105
▁described	-9.46146
▁stop	-9.46277
▁sent	-9.46295
▁writers	-9.46346
▁June	-9.46455
▁connection	-9.46507
▁preference	-9.46541
▁building	-9.46568
▁operations	-9.4657
▁surplus	-9.46718
▁allow	-9.4676
▁worker	-9.46809
▁competitive	-9.46836
▁Massachusetts	-9.46862
。	-9.4708
▁bonds	-9.4711
▁reasoning	-9.4711
▁cut	-9.4732
▁responsible	-9.47432
Bawerk	-9.47443
▁Action	-9.47494
▁care	-9.47546
▁struggle	-9.47701
▁tell	-9.47727
▁8	-9.47794
▁raw	-9.47942
▁compared	-9.48124
▁20	-9.48199
▁specie	-9.48222
▁democratic	-9.4854
▁efficient	-9.48592
▁attempts	-9.48607
▁Market	-9.48767
▁incomes	-9.48847
▁giving	-9.48934
▁chief	-9.4908
▁official	-9.49283
▁producing	-9.49339
▁understood	-9.4956
▁Böhm	-9.49656
▁getting	-9.49693
▁advance	-9.49722
▁save	-9.49783
▁absence	-9.49857
▁Union	-9.49879
▁convention	-9.49883
▁buying	-9.49891
▁minimum	-9.50106
▁exactly	-9.50185
▁woman	-9.50228
▁Cf	-9.50277
▁rational	-9.50411
1	-9.50541
▁requires	-9.50704
▁leads	-9.50843
▁apply	-9.50925
E	-9.51108
▁prosperity	-9.51519
▁spend	-9.51868
▁Furthermore	-9.51883
▁kinds	-9.52103
▁fear	-9.52113
▁spent	-9.5216
▁expect	-9.52183
for	-9.52401
▁Society	-9.52548
ist	-9.52557
▁March	-9.52578
▁Virginia	-9.52877
▁post	-9.52948
▁permanent	-9.52983
▁ratio	-9.53035
▁International	-9.53045
▁appeared	-9.5305
▁size	-9.53073
▁charge	-9.5313
▁consideration	-9.53293
▁recognize	-9.53434
▁meet	-9.53647
▁lines	-9.53685
▁recognized	-9.53736
▁realized	-9.53767
▁sale	-9.53824
▁organized	-9.54107
▁coins	-9.54142
▁belief	-9.5427
▁achieve	-9.54331
▁tradition	-9.54419
▁vol	-9.54492
▁November	-9.54508
▁insurance	-9.54546
▁behind	-9.54619
▁saying	-9.5477
▁establishment	-9.54799
▁universal	-9.54925
P	-9.55159
called	-9.55241
▁capacity	-9.55392
▁liberalism	-9.5545
▁growing	-9.55462
....	-9.55638
▁considerable	-9.55757
▁hours	-9.55973
▁Party	-9.56042
▁equality	-9.56081
▁limits	-9.56138
▁model	-9.56321
▁des	-9.56574
day	-9.56602
▁concern	-9.56625
▁friends	-9.5663
▁six	-9.56636
▁significant	-9.56677
▁met	-9.56681
▁declared	-9.56761
▁sales	-9.56899
▁limit	-9.56951
▁literature	-9.57041
▁9	-9.57122
us	-9.57159
▁politicians	-9.57234
▁ultimately	-9.57296
▁arguments	-9.57304
▁army	-9.57344
▁worse	-9.57628
at	-9.57635
▁granted	-9.57672
▁king	-9.57721
▁separate	-9.57822
▁figures	-9.58025
▁imports	-9.58073
▁occur	-9.58091
▁deposit	-9.58364
▁Dr	-9.58379
▁highest	-9.58442
▁potential	-9.58447
▁authorities	-9.58525
▁criticism	-9.58534
▁series	-9.58587
▁father	-9.58596
▁opposite	-9.58687
▁Most	-9.58757
▁court	-9.5883
▁happen	-9.58884
▁essentially	-9.5889
R	-9.58901
▁included	-9.59017
▁construction	-9.59023
▁speech	-9.59246
▁inevitable	-9.59492
▁reduction	-9.59607
▁Committee	-9.59659
▁capitalists	-9.59737
▁air	-9.59757
▁press	-9.59772
▁prove	-9.59808
▁strike	-9.5983
▁merchants	-9.59908
▁virtually	-9.60005
▁pre	-9.60042
▁rising	-9.60205
▁outcome	-9.60247
▁significance	-9.60259
▁Republican	-9.60281
▁Monetary	-9.60284
▁Those	-9.60474
▁systems	-9.60533
▁standards	-9.60574
▁July	-9.60577
▁external	-9.60643
M	-9.60648
▁securities	-9.6067
▁letter	-9.60737
▁Treasury	-9.6077
▁Therefore	-9.60837
▁governmental	-9.60855
able	-9.6094
▁imposed	-9.60993
▁reform	-9.61038
▁abroad	-9.61102
▁co	-9.61132
▁January	-9.61367
▁built	-9.61394
▁schools	-9.61472
▁Rockefeller	-9.61488
▁coming	-9.61513
▁defined	-9.61525
▁status	-9.61529
▁elements	-9.61552
▁Instead	-9.61594
▁15	-9.61643
l	-9.61738
▁responsibility	-9.61904
▁Free	-9.62005
▁lose	-9.62139
▁thousand	-9.62141
▁prepared	-9.6224
▁start	-9.62307
▁ourselves	-9.62445
▁East	-9.62448
▁issued	-9.62494
▁officials	-9.62555
▁yield	-9.62619
▁attitude	-9.62833
▁towards	-9.62877
▁Hitler	-9.63042
▁complex	-9.63286
▁aim	-9.63377
▁famous	-9.63384
▁fellow	-9.63459
▁town	-9.63509
▁knows	-9.63577
▁revenue	-9.63642
▁fail	-9.63667
▁happened	-9.63677
▁coercion	-9.63678
▁previously	-9.63713
▁require	-9.63731
▁exports	-9.63732
▁agreed	-9.63832
▁Banking	-9.63855
▁agree	-9.63919
▁According	-9.64046
▁efficiency	-9.64096
▁fight	-9.64152
▁protect	-9.64154
D	-9.64216
▁meeting	-9.64333
▁child	-9.6444
▁Board	-9.6445
▁bankers	-9.64566
▁steel	-9.64713
▁friend	-9.64807
▁decades	-9.64922
▁quantities	-9.64926
▁Charles	-9.64938
▁bound	-9.6499
▁customers	-9.65025
▁stated	-9.65097
▁creation	-9.65317
▁conception	-9.65346
▁Co	-9.6535
▁difficulties	-9.65353
▁Central	-9.65353
▁content	-9.65386
▁numerous	-9.65418
▁commerce	-9.65459
▁articles	-9.655
▁investments	-9.65537
▁achieved	-9.65565
▁Its	-9.65635
▁learn	-9.6564
▁road	-9.65708
▁top	-9.65747
▁entrepreneurial	-9.65751
▁eyes	-9.65765
▁reference	-9.65805
▁Or	-9.65841
▁August	-9.66136
Ibid	-9.66203
▁interested	-9.66256
▁People	-9.66288
▁advanced	-9.6636
▁places	-9.66378
▁vast	-9.66426
▁Richard	-9.66473
▁finance	-9.6653
▁sought	-9.66562
▁iron	-9.66564
▁equivalent	-9.66569
▁religion	-9.66605
▁element	-9.66693
▁noted	-9.66784
▁none	-9.6679
▁presented	-9.66864
▁danger	-9.6689
▁eventually	-9.67002
▁worked	-9.67077
▁room	-9.67139
▁movements	-9.67213
▁functions	-9.67527
▁October	-9.67558
▁positive	-9.67676
▁gone	-9.67681
▁Power	-9.67776
▁maintained	-9.6784
▁civil	-9.67867
▁expression	-9.68027
▁September	-9.68034
▁weight	-9.68086
▁story	-9.68096
▁centuries	-9.68228
▁decide	-9.6824
▁dealing	-9.68297
▁doctrines	-9.68305
▁placed	-9.68324
▁feel	-9.68486
▁race	-9.68511
▁greatly	-9.68552
▁Paul	-9.68581
run	-9.68644
▁wars	-9.68697
▁talk	-9.68722
▁record	-9.6877
▁pro	-9.68785
.2	-9.68878
▁learned	-9.68906
▁machine	-9.68909
▁event	-9.68955
▁valuable	-9.6904
▁derived	-9.69056
▁tends	-9.69176
▁Morgan	-9.69254
▁Austria	-9.69376
▁threat	-9.69427
▁evolution	-9.69446
▁ones	-9.69606
B	-9.6964
▁Another	-9.69676
▁started	-9.69757
▁crime	-9.69778
▁writing	-9.69812
▁Capital	-9.69991
▁e	-9.70019
▁Once	-9.70051
▁bought	-9.70117
▁internal	-9.70198
▁love	-9.7047
▁appropriate	-9.70555
▁application	-9.70589
▁add	-9.70711
▁currencies	-9.70745
▁1,	-9.71136
▁constantly	-9.71172
▁improvement	-9.71285
▁report	-9.71404
▁conservative	-9.71433
▁Paris	-9.71441
▁argued	-9.71524
▁expenditures	-9.71537
▁edition	-9.71803
▁bills	-9.71881
▁exchanges	-9.71881
▁stages	-9.71889
▁enormous	-9.72029
▁owned	-9.72109
▁cities	-9.72115
▁include	-9.72131
▁crucial	-9.72141
▁develop	-9.7219
▁Each	-9.72302
▁Court	-9.7241
▁Trade	-9.72424
▁characteristic	-9.7248
▁Vol	-9.72554
▁St	-9.72556
▁Adam	-9.72606
▁laissez	-9.72689
▁regarding	-9.72693
▁middle	-9.72725
▁excess	-9.72727
▁writings	-9.72918
▁She	-9.72926
▁chance	-9.72959
▁collective	-9.73016
▁car	-9.73065
▁mentioned	-9.73131
▁April	-9.73161
▁tariff	-9.73164
▁Italy	-9.73178
▁ethical	-9.73276
▁confidence	-9.73303
▁authors	-9.73361
▁wheat	-9.73409
▁implies	-9.7348
▁student	-9.7354
▁desires	-9.73547
▁farmers	-9.73552
▁technical	-9.73641
▁proved	-9.73642
▁mother	-9.73659
▁shift	-9.73707
▁gains	-9.73762
▁earth	-9.73843
▁pass	-9.73866
▁occurred	-9.73944
▁treatment	-9.74009
▁carry	-9.74014
▁Wilson	-9.74017
▁Democratic	-9.74049
ve	-9.7422
▁capable	-9.74222
It	-9.74262
▁everybody	-9.74302
▁logic	-9.74314
▁forth	-9.74348
▁alleged	-9.74453
▁employer	-9.74497
▁enter	-9.74501
▁duties	-9.74568
▁K	-9.7461
▁budget	-9.74681
▁employees	-9.74702
▁12	-9.74743
ity	-9.74771
▁suppose	-9.74795
▁Foreign	-9.74797
▁Russian	-9.74818
▁provides	-9.7492
▁cit	-9.75087
▁lies	-9.75268
▁somewhat	-9.75381
▁seek	-9.75403
▁periods	-9.75613
by	-9.75657
▁Finally	-9.75744
▁discussed	-9.75779
▁looked	-9.75931
▁jobs	-9.75955
▁Before	-9.75984
▁normal	-9.76049
2	-9.76099
▁advantages	-9.76138
▁false	-9.76196
▁coin	-9.76212
▁fell	-9.76261
▁rapidly	-9.76317
▁V	-9.76378
▁figure	-9.76498
▁wishes	-9.76513
▁refused	-9.76868
▁traditional	-9.77059
▁arbitrary	-9.77065
▁China	-9.77152
▁daily	-9.77177
▁obtained	-9.77202
▁opportunities	-9.77369
▁Germans	-9.77447
▁management	-9.77475
In	-9.77503
not	-9.77685
▁considerations	-9.7774
...	-9.77835
▁moved	-9.77942
▁directed	-9.78047
▁empirical	-9.78049
▁White	-9.78057
▁System	-9.78148
."	-9.78291
▁exercise	-9.78316
▁burden	-9.78343
▁enterprises	-9.78355
▁poverty	-9.78633
▁drive	-9.78664
▁flow	-9.78693
▁types	-9.78729
▁producer	-9.78833
▁possibly	-9.78834
▁profitable	-9.7884
▁difficulty	-9.78908
▁regulation	-9.78942
▁depend	-9.79098
▁courts	-9.79257
”—	-9.79287
▁holding	-9.79316
▁satisfy	-9.79339
▁base	-9.79451
▁scarce	-9.79471
▁David	-9.79485
▁committee	-9.79498
▁paying	-9.79558
▁orders	-9.79665
▁faith	-9.7968
▁title	-9.79925
▁drawn	-9.80045
▁*	-9.80121
▁extreme	-9.8014
▁Second	-9.80179
▁Keynesian	-9.80436
▁reach	-9.80438
▁brings	-9.80539
▁Policy	-9.80749
▁Mill	-9.80754
▁annual	-9.80761
▁export	-9.80775
▁equipment	-9.80833
▁frequently	-9.8089
▁February	-9.80969
▁slavery	-9.81023
▁deficit	-9.81092
▁calls	-9.81093
▁didn	-9.81208
▁privilege	-9.81214
▁perfectly	-9.81267
▁expenditure	-9.81295
▁Pennsylvania	-9.81336
▁bear	-9.81359
▁railroad	-9.8138
▁secure	-9.814
▁restrictions	-9.81492
London	-9.81519
▁technological	-9.81676
▁scarcity	-9.81685
▁designed	-9.81734
▁judgments	-9.8177
▁requirements	-9.81771
▁evident	-9.81785
▁arise	-9.81874
▁agents	-9.81921
▁Libertarian	-9.82044
▁interesting	-9.82053
▁scheme	-9.82123
▁check	-9.82164
▁Marshall	-9.82296
▁interpretation	-9.82305
▁Lord	-9.82406
▁increasingly	-9.82424
▁trouble	-9.82517
if	-9.82554
▁agricultural	-9.82598
▁won	-9.82658
▁goals	-9.82682
▁Banks	-9.82726
▁affect	-9.82854
▁v	-9.82937
▁maximum	-9.83057
▁interference	-9.83079
▁Business	-9.83101
▁Ricardo	-9.83109
▁contribution	-9.83114
▁progressive	-9.83127
▁section	-9.83134
▁proposal	-9.83155
▁critical	-9.83196
▁Boston	-9.83236
▁regime	-9.83282
▁minds	-9.83293
▁privileges	-9.83437
▁aggregate	-9.8356
▁expand	-9.83566
▁changing	-9.83592
▁employers	-9.83855
▁More	-9.83859
▁destruction	-9.83967
▁forward	-9.83995
▁numbers	-9.84
▁near	-9.84056
▁superior	-9.84058
▁happens	-9.84151
money	-9.84238
▁Both	-9.84337
▁tools	-9.84371
▁minority	-9.84425
▁dangerous	-9.84563
▁balances	-9.84732
▁represented	-9.84734
▁op	-9.8474
▁date	-9.84796
st	-9.84813
▁attain	-9.84912
▁11	-9.84927
▁suggested	-9.84973
faire	-9.85066
▁message	-9.85095
▁response	-9.85139
▁aware	-9.85157
▁practically	-9.85268
▁lands	-9.85434
▁employ	-9.85479
▁generation	-9.85486
▁consistent	-9.85513
▁leader	-9.85643
▁extremely	-9.85672
▁1920	-9.85677
▁election	-9.85687
▁subjects	-9.85699
▁transfer	-9.85715
▁stable	-9.85794
▁Jefferson	-9.85804
▁namely	-9.85814
▁unable	-9.85816
▁despite	-9.85861
▁obviously	-9.85886
▁Nor	-9.86006
▁consists	-9.86035
▁contracts	-9.86047
▁earn	-9.86097
▁O	-9.86214
▁constitutional	-9.86277
▁spite	-9.86284
▁spread	-9.86375
▁judge	-9.86383
▁invested	-9.86398
J	-9.86585
▁break	-9.8659
▁culture	-9.86616
▁parents	-9.86617
▁businessmen	-9.86676
▁essence	-9.86768
▁13	-9.86782
▁territory	-9.86984
▁energy	-9.8699
▁looking	-9.87062
▁truly	-9.87079
▁acquired	-9.87156
▁refer	-9.87179
▁conclusions	-9.87286
▁formed	-9.87297
▁served	-9.87324
▁existed	-9.87426
▁negative	-9.87591
▁branches	-9.87617
▁ex	-9.87626
▁speaking	-9.87691
▁apart	-9.87756
▁shares	-9.87821
▁origin	-9.87827
▁keeping	-9.8786
▁write	-9.87911
▁week	-9.88023
▁naturally	-9.88026
▁debts	-9.88069
▁curve	-9.88081
▁Is	-9.88162
u	-9.88187
▁25	-9.8819
▁valid	-9.88206
▁chosen	-9.88389
▁happiness	-9.88509
▁strength	-9.88533
▁proposition	-9.88655
▁piece	-9.88658
▁discovered	-9.88726
▁formation	-9.88742
▁19	-9.88778
▁determination	-9.88883
▁picture	-9.88905
▁Joseph	-9.8896
▁length	-9.88969
▁amounts	-9.89039
▁1.	-9.89043
▁Adams	-9.89101
▁accumulation	-9.89102
▁build	-9.89104
▁night	-9.89213
▁Christian	-9.89277
▁revolutionary	-9.89478
▁assumptions	-9.8951
ic	-9.89593
un	-9.89632
▁concepts	-9.89641
▁compulsory	-9.89765
▁enable	-9.89833
▁permitted	-9.89848
▁heavy	-9.89854
▁improve	-9.89943
▁Public	-9.90007
L	-9.9003
▁falling	-9.90114
▁30	-9.902
▁vital	-9.90225
▁everywhere	-9.90225
▁socialists	-9.90251
▁enjoy	-9.90318
▁Peter	-9.90494
▁Senate	-9.90987
▁fiat	-9.91
▁50	-9.91007
▁communism	-9.91064
▁raising	-9.91112
▁Church	-9.91204
▁thousands	-9.9122
▁command	-9.91234
▁King	-9.91249
▁acquire	-9.91296
he	-9.91313
▁Catholic	-9.91377
▁16	-9.91433
▁heart	-9.91452
▁becoming	-9.91453
▁consequently	-9.91508
▁exclusively	-9.9152
▁objects	-9.91569
▁environment	-9.91581
▁possession	-9.91679
▁aspect	-9.91716
▁resulting	-9.91746
▁levels	-9.91826
▁test	-9.9183
▁principal	-9.92016
▁machinery	-9.92056
▁fiduciary	-9.921
economic	-9.92125
▁prefer	-9.92126
▁colonies	-9.92189
▁Hoover	-9.92287
all	-9.92322
▁peaceful	-9.92326
▁preferences	-9.92337
T	-9.92602
▁corresponding	-9.92654
ation	-9.92655
▁active	-9.92789
▁son	-9.92804
▁observed	-9.92862
▁feeling	-9.92881
▁familiar	-9.92978
▁stocks	-9.93054
▁recently	-9.93155
▁treated	-9.93159
▁14	-9.93266
▁enemy	-9.93322
▁rose	-9.93411
▁supported	-9.9344
▁reader	-9.93454
▁art	-9.93521
▁fractional	-9.93533
▁wife	-9.93553
▁Carolina	-9.93598
▁Communist	-9.93637
▁portion	-9.93645
▁health	-9.93667
▁Gold	-9.93675
▁buyers	-9.93683
▁related	-9.93727
▁campaign	-9.93785
▁farm	-9.93893
▁branch	-9.94054
▁historian	-9.94076
▁intended	-9.94084
▁stability	-9.94125
▁hour	-9.94158
▁proof	-9.94164
▁whereas	-9.94176
▁engaged	-9.94281
▁concrete	-9.94348
▁destroy	-9.94378
▁mark	-9.94432
▁–	-9.9446
▁(2)	-9.94488
▁Association	-9.9454
▁Without	-9.94558
▁aspects	-9.94592
F	-9.94651
▁desired	-9.94666
free	-9.9478
▁intellectuals	-9.94917
▁Chapter	-9.95132
▁Labor	-9.95162
▁virtue	-9.9518
▁valuation	-9.95191
▁involves	-9.95204
▁deflation	-9.95274
▁widely	-9.95283
▁apparent	-9.95363
▁aggression	-9.95365
▁admit	-9.95417
▁range	-9.95457
no	-9.95465
▁ideology	-9.95595
▁debate	-9.95644
▁committed	-9.95644
le	-9.95717
▁mechanism	-9.9572
▁estate	-9.95733
▁suffer	-9.95798
▁Credit	-9.95837
▁emphasis	-9.95868
▁demanded	-9.95887
▁relevant	-9.95934
one	-9.95962
▁across	-9.96075
▁sphere	-9.96149
▁pound	-9.9618
▁US	-9.96211
but	-9.96249
▁game	-9.96316
▁se	-9.9632
▁usual	-9.96336
▁1930	-9.96352
▁grant	-9.96361
▁d	-9.96384
▁(1)	-9.96408
▁devoted	-9.96471
▁deny	-9.9652
▁inherent	-9.96569
ian	-9.96575
▁thesis	-9.96596
▁dependent	-9.96654
▁technology	-9.96709
▁doesn	-9.96759
▁Street	-9.96796
▁genuine	-9.96812
▁ruling	-9.96846
▁victory	-9.96947
▁primary	-9.96949
▁Any	-9.97007
▁affected	-9.97295
▁expectations	-9.973
▁finds	-9.97522
▁essay	-9.97577
.3	-9.97583
▁fund	-9.97658
▁historians	-9.97811
▁board	-9.97813
▁Science	-9.97825
▁primitive	-9.97883
▁prohibition	-9.97995
▁statements	-9.98047
▁justified	-9.98083
▁mutual	-9.9809
▁incentive	-9.98166
▁advocates	-9.98176
▁associated	-9.98226
▁absolutely	-9.98261
▁Interest	-9.98284
▁agriculture	-9.98419
▁accounts	-9.98505
▁apparently	-9.98513
▁uncertainty	-9.98621
▁sector	-9.98637
▁discount	-9.98645
W	-9.98692
▁born	-9.98787
▁troops	-9.9893
▁passage	-9.99014
▁altogether	-9.99058
▁sacrifice	-9.99167
▁association	-9.99224
▁competitors	-9.99233
▁teacher	-9.99272
▁holds	-9.99272
(	-9.9942
▁invest	-9.99455
▁represent	-9.99474
▁Sir	-9.99516
▁Perhaps	-9.9957
▁Freedom	-9.99584
▁indirect	-9.99615
▁month	-9.99637
▁die	-9.99694
▁temporary	-9.99876
▁reading	-9.99883
▁Also	-10.0002
▁Deal	-10.0011
▁drop	-10.0013
▁Fisher	-10.0016
▁huge	-10.0017
▁regulations	-10.0034
▁distinguished	-10.0045
be	-10.0052
▁decrease	-10.0055
We	-10.0063
▁path	-10.0063
▁exact	-10.0071
▁strictly	-10.008
▁lay	-10.0082
▁transaction	-10.0094
▁showed	-10.0102
time	-10.0108
▁pattern	-10.0115
▁properly	-10.012
▁framework	-10.0127
▁provision	-10.0134
▁succeeded	-10.0137
up	-10.0152
▁railroads	-10.0153
▁permit	-10.0155
▁independence	-10.0156
▁impose	-10.0157
▁18	-10.0163
▁exception	-10.0166
▁collapse	-10.0167
▁adjustment	-10.0168
▁store	-10.0171
▁planned	-10.0177
▁writer	-10.0179
being	-10.0183
▁fire	-10.0186
▁foundation	-10.0188
▁argue	-10.0197
▁primarily	-10.0199
▁resistance	-10.02
▁De	-10.0204
▁speculation	-10.0213
ists	-10.0218
▁happy	-10.0226
▁detail	-10.0227
▁seriously	-10.0232
▁lot	-10.0233
▁partly	-10.0243
▁Vienna	-10.0246
▁discover	-10.0247
▁Suppose	-10.0251
▁grounds	-10.0252
▁mental	-10.0253
▁recession	-10.0265
▁slave	-10.027
▁substitute	-10.0277
▁sources	-10.0277
ll	-10.0279
▁era	-10.0282
▁adopt	-10.0296
▁played	-10.0301
▁relief	-10.0308
▁convinced	-10.0308
▁scope	-10.0317
▁Say	-10.0318
▁black	-10.0323
less	-10.033
▁reaction	-10.0332
▁executive	-10.0337
▁THE	-10.0339
▁citizen	-10.0342
▁Council	-10.0354
▁plant	-10.0358
▁confusion	-10.0363
▁errors	-10.0368
▁consume	-10.0368
▁secret	-10.0373
▁freely	-10.0376
▁beings	-10.0377
▁proceeds	-10.0383
▁space	-10.0386
▁introduced	-10.0391
▁heard	-10.0396
▁succeed	-10.0396
we	-10.0408
▁typical	-10.041
▁2,	-10.0411
▁western	-10.0416
▁older	-10.0416
▁sake	-10.0416
▁defend	-10.0425
▁key	-10.0428
▁17	-10.0431
f	-10.0445
▁returns	-10.0452
▁gets	-10.0453
▁draw	-10.0459
▁helped	-10.046
▁Empire	-10.0464
▁Times	-10.0484
▁severe	-10.0496
▁referred	-10.0501
▁ancient	-10.0517
▁fiscal	-10.0517
▁arms	-10.0519
▁absurd	-10.0527
▁ordinary	-10.0533
▁surely	-10.0536
▁artificial	-10.054
▁variety	-10.0543
▁lived	-10.0544
▁Standard	-10.0544
”;	-10.0551
▁purchases	-10.0555
▁admitted	-10.0561
▁preceding	-10.0574
▁programs	-10.0576
▁aims	-10.0579
▁statistics	-10.0583
▁explains	-10.0588
▁denied	-10.059
▁scarcely	-10.0595
▁agency	-10.0596
▁Italian	-10.0603
▁trust	-10.0605
▁peoples	-10.0608
▁societies	-10.0612
▁search	-10.0613
▁exploitation	-10.0631
▁depreciation	-10.0639
▁40	-10.0653
▁fluctuations	-10.0658
▁replaced	-10.0663
▁plants	-10.0667
▁Other	-10.0667
▁controlled	-10.067
▁comparison	-10.0672
est	-10.0679
▁coercive	-10.069
▁imagine	-10.0701
▁en	-10.0705
▁2.	-10.0707
▁soil	-10.0718
▁examples	-10.0729
▁bringing	-10.0746
▁project	-10.0748
▁closely	-10.0749
):	-10.0749
▁impact	-10.0751
▁projects	-10.0755
▁myself	-10.0758
men	-10.0761
▁creating	-10.0761
▁insight	-10.0762
▁excessive	-10.0772
▁academic	-10.0781
▁corporations	-10.079
▁violent	-10.0793
▁contemporary	-10.0795
▁render	-10.08
▁La	-10.0804
▁Studies	-10.0811
▁cents	-10.0819
See	-10.0821
▁brief	-10.0824
▁rejected	-10.0836
▁destroyed	-10.0839
▁machines	-10.0842
▁implications	-10.0846
▁index	-10.0846
▁mathematical	-10.0853
▁praxeology	-10.0857
▁providing	-10.0861
nd	-10.0868
▁critics	-10.088
▁Spanish	-10.0883
▁accordance	-10.0888
▁remember	-10.0894
▁Nations	-10.0896
▁extended	-10.0903
▁elsewhere	-10.0904
▁Depression	-10.0913
▁liberals	-10.0917
war	-10.0923
▁combination	-10.0924
▁gross	-10.0924
▁Civil	-10.093
▁earnings	-10.093
▁cover	-10.0938
▁master	-10.0938
▁satisfied	-10.0944
▁supplies	-10.0949
▁grow	-10.0951
▁Administration	-10.0959
▁resort	-10.0965
▁animals	-10.0971
▁reasonable	-10.0972
▁gradually	-10.0972
▁founded	-10.0972
▁eighteenth	-10.0977
▁l	-10.0979
century	-10.0981
k	-10.0987
▁unique	-10.0988
▁identical	-10.1
­	-10.1003
▁continually	-10.1005
▁white	-10.1012
▁ideological	-10.1014
▁produces	-10.1014
▁subsistence	-10.1016
▁massive	-10.1017
▁Commission	-10.1017
▁wealthy	-10.102
▁eager	-10.1027
▁economically	-10.1028
▁connected	-10.1028
▁originally	-10.103
▁families	-10.1031
▁houses	-10.1034
▁ethics	-10.1048
▁c	-10.1054
▁housing	-10.1054
▁precious	-10.1059
▁Roman	-10.106
▁managed	-10.107
▁mainly	-10.1078
▁demonstrated	-10.1079
▁constitute	-10.1089
▁recognition	-10.1093
▁stood	-10.1093
▁Hull	-10.1093
▁inevitably	-10.1099
▁Marxian	-10.1102
▁procedure	-10.1103
um	-10.1104
▁Schumpeter	-10.1107
▁church	-10.1109
▁fit	-10.1112
▁remaining	-10.1114
▁battle	-10.1122
▁vice	-10.1127
▁strongly	-10.1131
▁operate	-10.1138
▁justification	-10.1138
▁rulers	-10.114
▁mid	-10.1153
▁returned	-10.1155
–1	-10.1163
▁solely	-10.1163
▁applies	-10.1166
▁practices	-10.1167
▁legitimate	-10.1167
▁falls	-10.1168
▁League	-10.1171
▁Spain	-10.1188
▁height	-10.1189
▁resource	-10.12
▁contributions	-10.1204
▁fair	-10.1204
▁Karl	-10.1208
▁suggest	-10.1214
▁towns	-10.1221
▁distinct	-10.1224
▁writes	-10.1227
▁calling	-10.1241
▁concerns	-10.1242
▁factory	-10.1248
▁thirty	-10.1251
▁settlement	-10.1252
▁creates	-10.1258
▁divided	-10.1258
▁begins	-10.1259
▁par	-10.126
▁aside	-10.1262
▁pleasure	-10.127
▁favorable	-10.1271
▁died	-10.1274
▁arrived	-10.1277
▁armed	-10.1277
▁propaganda	-10.1286
▁prevailing	-10.1291
▁prevented	-10.1294
3	-10.1297
▁Where	-10.1317
▁officers	-10.1322
▁faced	-10.1331
▁Lincoln	-10.1332
▁items	-10.1334
▁relationships	-10.1341
▁Prices	-10.1346
▁saved	-10.135
▁preserve	-10.1352
▁———.	-10.1354
▁slaves	-10.1363
▁studies	-10.1371
▁uniform	-10.1374
▁psychological	-10.1376
▁ended	-10.1382
▁intelligence	-10.1389
▁cheap	-10.139
▁feature	-10.1392
▁theorists	-10.1395
▁priori	-10.1397
▁Philadelphia	-10.1398
are	-10.1404
▁formal	-10.1414
▁desirable	-10.1423
▁substantial	-10.1426
with	-10.1429
▁Whether	-10.143
▁appearance	-10.1431
▁list	-10.1461
▁——.	-10.1462
▁apparatus	-10.1475
▁elected	-10.1484
▁perform	-10.1485
▁farmer	-10.1489
▁professor	-10.1495
▁gained	-10.1495
▁Two	-10.1507
▁suddenly	-10.1513
rs	-10.1526
▁engage	-10.1527
▁promote	-10.1531
▁prior	-10.1542
▁(“	-10.1549
▁Berlin	-10.155
▁represents	-10.155
▁n	-10.155
▁criminal	-10.1554
▁fighting	-10.1556
▁setting	-10.1565
▁instrument	-10.1566
▁governor	-10.1567
▁taught	-10.157
▁conflicts	-10.1572
▁import	-10.1573
▁wide	-10.1575
▁running	-10.1576
▁Old	-10.1578
▁appointed	-10.1579
▁=	-10.1589
▁effectively	-10.1607
▁isolated	-10.1611
▁laid	-10.1612
▁merchant	-10.1626
▁Harbor	-10.1639
▁category	-10.164
▁competing	-10.1643
▁plus	-10.1647
▁investors	-10.1664
▁agencies	-10.1669
▁bread	-10.1669
▁wholly	-10.1671
▁Republic	-10.1678
▁continues	-10.168
▁Nevertheless	-10.1687
▁exchanged	-10.1699
▁nationalism	-10.1703
▁harm	-10.1712
▁offers	-10.1719
▁narrow	-10.172
▁double	-10.1728
▁tariffs	-10.1733
▁whenever	-10.1738
social	-10.1741
▁newly	-10.1741
G	-10.1742
▁metal	-10.1745
▁front	-10.1749
▁seven	-10.1757
▁trend	-10.1757
▁totally	-10.1774
▁interventionism	-10.1774
▁maintenance	-10.1778
▁strict	-10.1795
▁combined	-10.1797
▁lending	-10.1799
▁borrowing	-10.1801
▁corporate	-10.1803
H	-10.1805
▁describe	-10.1808
▁advocate	-10.1808
▁appeal	-10.1809
▁abstract	-10.1811
▁distinguish	-10.1815
▁animal	-10.1819
▁Today	-10.182
▁critique	-10.1824
▁entitled	-10.1831
de	-10.1832
▁Right	-10.1832
▁fifty	-10.1844
▁earned	-10.1846
▁Just	-10.1847
▁leaving	-10.1862
▁X	-10.1873
!”	-10.1877
▁table	-10.1889
▁pages	-10.1892
▁solve	-10.1895
▁Governor	-10.1897
▁Neither	-10.1898
▁Pearl	-10.1898
ff	-10.1901
▁moving	-10.1906
▁Democrats	-10.1908
▁express	-10.1915
▁lend	-10.1917
▁mention	-10.1921
▁thinks	-10.1921
▁3.	-10.1924
▁Republicans	-10.1926
▁rapid	-10.193
▁deep	-10.193
▁grew	-10.194
▁Rather	-10.1952
▁peculiar	-10.1954
▁proposals	-10.1974
Y	-10.1977
▁regular	-10.1979
▁Principles	-10.1982
▁attempted	-10.1984
▁probability	-10.1989
do	-10.1993
▁Friedman	-10.2009
▁possess	-10.2018
▁implied	-10.202
▁indispensable	-10.202
▁valuations	-10.2035
interest	-10.2037
▁Currency	-10.204
▁wisdom	-10.2045
▁operating	-10.2047
▁satisfactory	-10.205
▁justify	-10.2054
▁Like	-10.2057
▁sellers	-10.2063
▁morality	-10.2067
▁Jones	-10.207
▁specifically	-10.2071
▁claimed	-10.2075
▁entered	-10.2089
▁dominant	-10.2094
▁ill	-10.2096
▁conclude	-10.2103
▁removed	-10.2109
▁occurs	-10.2112
▁Though	-10.2112
▁grain	-10.2114
▁mode	-10.2115
▁institutional	-10.2123
▁actor	-10.2125
▁zero	-10.2125
▁worst	-10.2126
▁sign	-10.2127
▁sets	-10.213
▁cotton	-10.2133
▁discuss	-10.2133
▁refers	-10.2161
▁abandoned	-10.2172
▁influenced	-10.2188
▁determines	-10.2196
▁fine	-10.2215
▁counter	-10.2215
▁observation	-10.2216
▁objection	-10.222
▁promise	-10.2224
▁differ	-10.2224
▁economies	-10.2224
▁career	-10.2225
▁perspective	-10.2226
▁arises	-10.223
▁Left	-10.2243
▁afford	-10.2262
▁taxpayers	-10.2263
▁proceed	-10.2263
▁description	-10.2264
▁spring	-10.2266
▁twentieth	-10.227
▁introduction	-10.2275
”)	-10.2277
▁safe	-10.2277
▁professional	-10.2289
▁phrase	-10.2293
▁win	-10.2294
▁determining	-10.2301
.4	-10.2304
▁restrict	-10.2306
▁blame	-10.2315
▁occasion	-10.2319
▁prominent	-10.2328
▁conference	-10.2335
▁Nature	-10.2346
▁hear	-10.235
▁supplied	-10.2358
▁trading	-10.2359
▁husband	-10.236
▁acceptance	-10.2367
▁Island	-10.2371
▁Office	-10.2375
▁continuing	-10.2376
▁remarkable	-10.2377
▁seller	-10.2383
▁Wall	-10.2383
▁Austrians	-10.2386
▁choices	-10.2388
▁eight	-10.2406
▁neutral	-10.2419
▁seeking	-10.2421
▁settled	-10.2424
▁evils	-10.2428
▁expanded	-10.2429
▁organizations	-10.2432
▁leadership	-10.2434
.5	-10.2435
▁putting	-10.2437
▁initial	-10.2449
▁correctly	-10.2458
▁believes	-10.246
▁exclusive	-10.2469
▁nevertheless	-10.2478
▁disposal	-10.2478
▁escape	-10.2479
▁measured	-10.2492
▁Frank	-10.2493
▁adequate	-10.2496
▁behalf	-10.2496
▁libertarians	-10.2499
▁outstanding	-10.25
▁Navy	-10.2504
▁send	-10.2508
▁Price	-10.2511
▁enemies	-10.2512
▁businesses	-10.2514
▁fields	-10.2523
▁dealt	-10.2532
▁shortage	-10.2535
▁context	-10.2541
▁features	-10.2541
▁investigation	-10.2541
▁restricted	-10.2543
▁suffered	-10.2543
▁discrimination	-10.2547
▁politically	-10.2547
▁coal	-10.2552
▁III	-10.2553
▁Edward	-10.2561
▁eliminate	-10.2564
▁India	-10.2567
▁Middle	-10.2569
▁praxeological	-10.2573
▁discipline	-10.2573
▁Exchange	-10.2581
▁discovery	-10.2592
▁statistical	-10.2593
▁shape	-10.2597
ization	-10.2603
▁rests	-10.2607
▁Assembly	-10.2608
▁urged	-10.261
▁motives	-10.2617
▁insisted	-10.2625
ally	-10.2629
▁roads	-10.2632
▁Historical	-10.2638
year	-10.264
▁summer	-10.2648
▁attained	-10.2655
▁Walter	-10.2655
ment	-10.2655
▁starting	-10.2658
▁communist	-10.2673
▁subsidies	-10.268
▁Cambridge	-10.2686
▁serves	-10.2691
▁beneficial	-10.2694
▁preferred	-10.2695
▁Report	-10.2695
▁representatives	-10.2698
▁Bastiat	-10.27
▁regards	-10.2704
▁marked	-10.2704
▁marks	-10.2712
▁corporation	-10.2714
▁heavily	-10.2719
▁extension	-10.2733
▁agent	-10.2738
▁ignorance	-10.2739
▁stay	-10.2745
▁contraction	-10.2747
▁businessman	-10.2749
▁categories	-10.2752
▁deficits	-10.2753
▁Hamilton	-10.2758
▁decade	-10.2759
N	-10.2769
▁disappear	-10.2771
▁excellent	-10.278
▁immense	-10.2782
▁buyer	-10.2784
▁Senator	-10.2786
▁metals	-10.2787
▁performance	-10.2793
▁mistake	-10.2796
▁dead	-10.2799
▁college	-10.2799
making	-10.2806
il	-10.2808
▁involve	-10.2808
▁indicated	-10.2808
▁Industrial	-10.2812
This	-10.2812
▁reported	-10.2821
▁allocation	-10.2826
▁attacked	-10.2828
▁logically	-10.2829
▁restriction	-10.283
▁center	-10.2834
▁sole	-10.2839
▁Marxism	-10.2849
▁imply	-10.2856
▁conscious	-10.2859
▁waste	-10.2863
▁Macmillan	-10.2866
▁standing	-10.2868
▁legislature	-10.288
out	-10.2882
▁doctor	-10.2887
▁positions	-10.2898
▁extra	-10.2903
▁reducing	-10.2906
▁valued	-10.2906
▁Louis	-10.2917
▁sufficiently	-10.2923
▁sharp	-10.2924
▁Re	-10.2927
▁Madison	-10.2927
▁entry	-10.2928
▁holdings	-10.2942
▁representative	-10.2943
U	-10.2946
▁abolition	-10.2959
▁realm	-10.2967
▁accomplished	-10.297
▁Modern	-10.297
▁stands	-10.2976
▁Army	-10.2979
▁bit	-10.2984
▁qualities	-10.2987
▁que	-10.2995
▁estimate	-10.3006
ized	-10.3018
▁Again	-10.3021
▁favored	-10.3025
▁percentage	-10.3025
▁transportation	-10.3034
▁commonly	-10.3035
▁Foundation	-10.3037
▁reply	-10.3038
▁cultural	-10.3041
▁suffering	-10.3044
▁deals	-10.3078
▁concluded	-10.3078
▁immigration	-10.3083
▁sees	-10.3085
▁colony	-10.3102
▁Hoppe	-10.311
▁OF	-10.3111
▁consumed	-10.3114
▁Rome	-10.3115
▁Value	-10.3115
price	-10.3118
▁Bill	-10.3123
▁weak	-10.3124
▁successfully	-10.3125
▁pays	-10.3129
▁soldiers	-10.3129
▁grave	-10.3132
▁notice	-10.3136
▁influential	-10.3136
▁propositions	-10.3141
value	-10.3142
▁bond	-10.3156
If	-10.3161
▁compensation	-10.3164
▁sovereignty	-10.3173
▁receipts	-10.3179
▁waiting	-10.3188
▁supreme	-10.3188
▁motive	-10.3191
▁nobody	-10.3193
▁resulted	-10.3197
▁Commerce	-10.3198
▁easier	-10.3205
▁Hazlitt	-10.3213
▁weeks	-10.3218
▁quoted	-10.3232
▁blood	-10.3233
▁creditors	-10.3256
▁Essays	-10.3267
▁Jr	-10.3268
▁Carl	-10.328
▁charges	-10.3283
▁expensive	-10.3289
▁indirectly	-10.329
▁voting	-10.3297
▁banker	-10.33
▁obligation	-10.33
▁feelings	-10.3302
▁widespread	-10.3309
);	-10.3311
▁focus	-10.3316
▁replace	-10.3316
▁code	-10.3316
K	-10.3325
▁$1	-10.3326
▁characterized	-10.334
▁revealed	-10.3348
▁join	-10.3349
▁fashion	-10.3356
▁finished	-10.3358
▁director	-10.3362
▁opponents	-10.3371
▁delivered	-10.3375
▁21	-10.3379
▁crises	-10.338
▁Who	-10.3385
▁street	-10.3387
▁enjoyed	-10.3388
▁extensive	-10.3391
▁Pacific	-10.3394
▁Production	-10.3395
▁Johnson	-10.3396
▁expanding	-10.3404
te	-10.3405
▁overall	-10.3405
▁y	-10.3412
▁continuous	-10.3419
▁regardless	-10.3422
▁constitution	-10.3423
▁obligations	-10.3424
▁includes	-10.3435
.6	-10.3437
▁draft	-10.3437
▁tyranny	-10.3437
▁manufacturers	-10.3446
▁agreements	-10.3452
▁demonstrate	-10.3453
▁defeat	-10.3455
▁turns	-10.3455
rate	-10.3456
▁examine	-10.3457
▁Morris	-10.3457
▁manufacturing	-10.3465
▁traffic	-10.3466
▁Socialist	-10.3469
▁24	-10.3469
▁Among	-10.3474
▁nominal	-10.3481
▁Stalin	-10.3483
▁spiritual	-10.3483
▁fails	-10.3484
▁Dutch	-10.3486
▁Ohio	-10.3486
▁consent	-10.3487
▁guarantee	-10.3487
▁remote	-10.3489
▁remedy	-10.3493
▁unknown	-10.3501
▁subsequent	-10.3504
▁static	-10.3505
▁somehow	-10.3518
▁refuse	-10.3525
▁joint	-10.3541
▁barter	-10.3544
▁Do	-10.3555
▁teaching	-10.3556
▁eminent	-10.3557
▁horse	-10.356
▁invasion	-10.3565
▁empire	-10.3565
see	-10.3566
▁recovery	-10.3573
▁joined	-10.3585
▁instruments	-10.359
▁pursue	-10.359
▁Minister	-10.3593
▁Unfortunately	-10.3594
▁constitutes	-10.3601
▁pricing	-10.3602
▁compete	-10.3605
▁California	-10.3608
▁maintaining	-10.3614
▁inter	-10.3618
O	-10.3628
▁achievement	-10.3637
▁factories	-10.3637
▁broad	-10.3641
▁Nazi	-10.3641
▁considering	-10.3644
▁voluntarily	-10.3652
▁brilliant	-10.3655
▁substitutes	-10.3656
▁steps	-10.3661
▁asking	-10.367
▁puts	-10.3672
▁charged	-10.3674
▁22	-10.3678
▁compelled	-10.368
▁minor	-10.368
▁criterion	-10.368
▁le	-10.368
▁weapons	-10.3683
What	-10.3684
▁detailed	-10.3687
▁considers	-10.3687
▁enforcement	-10.3697
▁Fund	-10.3702
▁Kirzner	-10.3704
▁3,	-10.3717
▁idle	-10.3723
▁ships	-10.3724
▁Van	-10.373
▁Eastern	-10.3739
▁enforce	-10.3748
▁Hans	-10.3748
▁door	-10.3752
▁access	-10.3753
▁department	-10.3755
▁examination	-10.3756
▁rank	-10.3757
▁accordingly	-10.3759
▁completed	-10.3761
▁validity	-10.3768
▁performed	-10.3789
izing	-10.3803
▁sides	-10.3806
▁remarks	-10.3808
▁cartel	-10.3811
▁careful	-10.3813
▁liquidity	-10.3816
▁arrangement	-10.3835
▁23	-10.3847
▁tender	-10.385
▁accumulated	-10.3867
▁realization	-10.3868
▁filled	-10.3877
▁sovereign	-10.3881
▁wait	-10.3885
▁expenses	-10.3887
▁driven	-10.3887
▁assert	-10.3888
▁participants	-10.3895
ion	-10.3896
▁confused	-10.3901
▁marriage	-10.3903
▁Despite	-10.3908
▁version	-10.3911
▁26	-10.3915
▁experiment	-10.3915
like	-10.3922
▁passing	-10.3927
▁fairly	-10.3927
▁schemes	-10.3929
▁names	-10.393
▁remove	-10.3936
▁abandon	-10.394
▁sooner	-10.3942
▁medical	-10.3945
▁causal	-10.3949
▁news	-10.3949
▁estimated	-10.3949
▁begun	-10.395
▁protective	-10.3954
▁emergence	-10.396
▁Marxist	-10.3968
▁rendered	-10.3974
▁sugar	-10.3975
▁supporters	-10.3981
▁delegates	-10.3986
▁revenues	-10.3987
▁observe	-10.3987
▁systematic	-10.3989
▁precise	-10.3993
ur	-10.3994
▁threatened	-10.4006
▁opinions	-10.4007
▁Democracy	-10.4008
▁illegal	-10.4008
▁deeply	-10.4024
▁philosophers	-10.4024
4	-10.4025
▁closed	-10.4026
▁Ambassador	-10.4027
▁victim	-10.403
▁pursuit	-10.403
▁4.	-10.4031
▁occupation	-10.4037
▁region	-10.4043
▁species	-10.4046
▁device	-10.406
ry	-10.4063
▁assumes	-10.4065
▁suggests	-10.4072
▁anticipated	-10.4075
▁Franklin	-10.408
▁tasks	-10.4087
▁Lenin	-10.4091
▁repeated	-10.4096
▁followers	-10.4097
▁requirement	-10.4107
▁stopped	-10.411
▁morning	-10.411
▁moreover	-10.411
▁pounds	-10.4113
▁cheaper	-10.412
▁carrying	-10.4129
▁Similarly	-10.4133
▁birth	-10.4133
▁aggressive	-10.4137
▁collection	-10.4153
▁publication	-10.4153
▁interventionist	-10.4168
▁margin	-10.4168
▁leaves	-10.417
▁Chinese	-10.4172
▁vain	-10.4174
▁carefully	-10.4174
▁Parliament	-10.4178
▁printing	-10.4185
▁Wieser	-10.4195
▁tells	-10.4198
▁Die	-10.4198
▁reflect	-10.42
▁f	-10.4202
natural	-10.4202
▁learning	-10.4214
▁slow	-10.4214
▁unlimited	-10.4217
▁attacks	-10.4221
▁comparatively	-10.4227
▁contained	-10.4229
▁Lu	-10.423
▁dispute	-10.4241
▁urgent	-10.4244
▁Africa	-10.4258
▁lowering	-10.4259
▁viewed	-10.4273
▁decisive	-10.4274
▁spoke	-10.4275
▁mine	-10.4276
▁characteristics	-10.4276
▁moderate	-10.4281
▁impression	-10.4283
▁urban	-10.4287
▁philosophical	-10.4292
▁bureaucrats	-10.4295
▁strange	-10.4296
▁quantitative	-10.4299
▁Connecticut	-10.4309
▁contributed	-10.4312
▁inferior	-10.4318
▁sea	-10.4323
▁extend	-10.4332
▁sums	-10.4333
▁ignored	-10.4335
▁lie	-10.4338
▁Men	-10.434
▁contradiction	-10.435
ar	-10.4361
▁phase	-10.4362
▁underlying	-10.4363
▁arrive	-10.4365
▁ounces	-10.4366
▁Still	-10.437
▁fallacy	-10.4371
▁27	-10.4374
▁credits	-10.4376
▁allows	-10.4378
▁Jersey	-10.4378
▁bulk	-10.4384
▁tries	-10.4387
▁showing	-10.439
▁conceived	-10.4391
▁compare	-10.4397
▁provisions	-10.4406
▁useless	-10.441
▁chaos	-10.4411
▁speculative	-10.4411
z	-10.4421
▁murder	-10.4423
▁Plan	-10.4428
▁+	-10.4432
▁fought	-10.4433
▁ordered	-10.4439
▁totalitarian	-10.4441
▁Oxford	-10.4443
▁voice	-10.4454
▁votes	-10.4455
▁complicated	-10.4456
known	-10.4471
▁Supreme	-10.4473
▁named	-10.4475
▁page	-10.4482
▁speculators	-10.4484
▁grasp	-10.4489
▁Politics	-10.4491
▁royal	-10.4492
▁influences	-10.4494
▁training	-10.4495
▁establishing	-10.4498
▁b	-10.4499
▁laborers	-10.4503
▁harmony	-10.4504
▁boy	-10.451
▁managers	-10.4522
▁purchased	-10.4523
▁unemployed	-10.4528
▁hundreds	-10.4537
▁Buchanan	-10.4537
▁reverse	-10.4548
so	-10.455
▁experienced	-10.4565
▁forget	-10.4566
▁incentives	-10.4567
▁review	-10.4574
▁reject	-10.4576
▁upper	-10.4582
▁broken	-10.4586
▁ignore	-10.4588
▁forever	-10.4589
▁trial	-10.4592
▁readers	-10.4593
▁corn	-10.4594
▁milk	-10.4606
h	-10.4607
▁encourage	-10.4611
▁receiving	-10.4615
▁judges	-10.4615
▁adjust	-10.4617
▁capitalistic	-10.4623
▁voted	-10.4625
▁dynamic	-10.4634
▁emphasized	-10.4635
▁round	-10.4635
▁pieces	-10.4644
▁fraud	-10.4648
▁regions	-10.4651
▁(18	-10.4657
▁transition	-10.4667
▁alter	-10.467
▁fewer	-10.467
state	-10.4676
▁Oil	-10.468
▁turning	-10.468
▁Herbert	-10.468
é	-10.4687
▁aimed	-10.469
▁hire	-10.4693
▁pain	-10.4696
▁imperialism	-10.4705
▁artificially	-10.4708
▁presence	-10.471
For	-10.4711
▁generations	-10.4713
▁rents	-10.4713
▁intention	-10.4714
▁substance	-10.472
▁voters	-10.4723
▁protected	-10.4724
▁advice	-10.4726
▁explicitly	-10.473
▁considerably	-10.4735
▁Y	-10.4741
在	-10.4741
age	-10.4742
▁redeem	-10.4745
▁bureaucracy	-10.4751
▁Liberalism	-10.4753
ies	-10.4758
▁overcome	-10.4761
▁vision	-10.4763
▁forgotten	-10.4764
▁clause	-10.4769
▁honest	-10.4772
▁liabilities	-10.4775
.7	-10.4775
▁largest	-10.4782
▁t	-10.4787
▁creative	-10.4789
▁slowly	-10.4795
▁arrangements	-10.4797
▁Truman	-10.4808
▁text	-10.4811
▁consciousness	-10.4812
▁scientists	-10.4816
▁Indians	-10.482
▁Martin	-10.4825
▁privileged	-10.4825
▁Capitalism	-10.4828
▁attainment	-10.4833
law	-10.4834
▁sudden	-10.4835
▁Private	-10.4836
▁probable	-10.4841
▁Harvard	-10.4841
▁eye	-10.4848
▁rare	-10.4854
▁insist	-10.4856
▁wished	-10.4856
▁runs	-10.4861
▁warned	-10.4868
▁objections	-10.487
▁assigned	-10.4871
▁contribute	-10.4872
reserve	-10.4882
▁Consequently	-10.4889
▁conquest	-10.4892
▁durable	-10.4899
land	-10.4909
▁Nothing	-10.491
▁scene	-10.4925
▁Part	-10.4933
5	-10.4935
▁readily	-10.4938
five	-10.494
▁ship	-10.4942
▁redemption	-10.4946
▁advances	-10.4947
▁stronger	-10.4948
▁m	-10.4954
▁adds	-10.4956
▁monopolistic	-10.4956
ir	-10.4967
▁leisure	-10.4968
▁enforced	-10.4971
▁colonial	-10.4972
▁Bureau	-10.498
▁respective	-10.4985
▁Churchill	-10.4989
▁issuing	-10.4993
▁promises	-10.4993
▁unchanged	-10.4996
▁treaty	-10.4998
▁Inflation	-10.5002
▁4,	-10.5004
▁striking	-10.501
▁improved	-10.502
▁controversy	-10.5021
▁wise	-10.5022
▁permanently	-10.5022
ary	-10.5025
▁humanity	-10.5032
▁borrow	-10.5033
▁possibilities	-10.5037
▁Southern	-10.5037
▁formula	-10.5041
▁treat	-10.5042
▁comprehensive	-10.5043
▁simultaneously	-10.5047
▁punishment	-10.505
▁premium	-10.5051
▁undoubtedly	-10.5055
▁clothing	-10.506
▁opened	-10.5061
,"	-10.5067
▁imported	-10.507
▁intent	-10.5075
▁wonder	-10.5085
▁details	-10.5091
▁Indian	-10.5095
▁Friedrich	-10.5098
▁supposedly	-10.51
▁tool	-10.5101
▁cease	-10.5105
▁Research	-10.5112
▁safety	-10.5114
▁feudal	-10.5115
▁motion	-10.5126
▁suitable	-10.513
▁circulating	-10.5131
▁assistance	-10.5132
▁ibid	-10.5137
▁finding	-10.5137
▁fate	-10.5137
▁accounting	-10.5141
▁assuming	-10.5143
even	-10.5144
am	-10.5151
▁statism	-10.5156
▁developing	-10.5159
▁bargaining	-10.5173
▁meat	-10.5175
▁cycles	-10.5176
▁fish	-10.518
▁indicate	-10.5181
▁Ethics	-10.5185
▁naval	-10.5188
▁statist	-10.5191
▁ounce	-10.5191
▁brother	-10.5194
▁Education	-10.5196
▁60	-10.5199
such	-10.5204
▁35	-10.5205
American	-10.5205
▁Far	-10.5206
▁Ford	-10.5208
▁abundance	-10.5214
▁emerge	-10.5216
▁retain	-10.5221
▁driving	-10.5223
▁inhabitants	-10.5237
▁compulsion	-10.5239
▁Quarterly	-10.5239
▁29	-10.524
Chicago	-10.5242
▁hoped	-10.5251
▁sight	-10.5265
▁Figure	-10.5273
▁fast	-10.5286
▁contains	-10.5291
▁killed	-10.5294
▁Samuel	-10.5299
▁Mrs	-10.5311
▁talking	-10.5311
▁receives	-10.5316
▁Clark	-10.5318
▁guide	-10.5318
government	-10.5325
▁concentration	-10.5325
▁announced	-10.5325
▁feet	-10.5327
x	-10.5334
▁28	-10.5334
▁streets	-10.5335
▁legally	-10.5342
▁upward	-10.535
▁nine	-10.535
▁conceive	-10.5361
com	-10.5368
Mises	-10.5385
▁vague	-10.5388
▁asserted	-10.539
▁typically	-10.5391
was	-10.5396
class	-10.5396
▁red	-10.5405
▁define	-10.5405
▁serving	-10.5406
▁advocated	-10.5406
▁Jackson	-10.5409
▁improvements	-10.541
▁associations	-10.5418
▁ruled	-10.5426
▁obliged	-10.5428
▁titles	-10.543
▁fallen	-10.5444
▁covered	-10.5454
▁Justice	-10.5455
▁seeks	-10.5456
▁sharply	-10.5458
▁schedule	-10.5459
▁newspaper	-10.546
▁barriers	-10.5463
▁ahead	-10.5464
▁Mass	-10.5466
▁ran	-10.5466
▁strategy	-10.5471
▁redistribution	-10.5472
▁confined	-10.5472
▁universe	-10.5473
有	-10.5477
▁girl	-10.5479
▁unhampered	-10.5479
▁distributed	-10.5482
▁reflected	-10.5485
▁staff	-10.5491
▁victims	-10.5495
▁university	-10.5496
▁causing	-10.5497
▁imaginary	-10.5498
▁damage	-10.5509
scale	-10.5509
▁discussions	-10.5511
On	-10.5516
▁allowing	-10.5516
▁regulate	-10.5519
▁universally	-10.5524
▁individualism	-10.5525
▁circle	-10.5532
▁Un	-10.5535
▁warfare	-10.5535
▁5,	-10.5537
▁quarter	-10.5542
▁unfortunate	-10.5554
▁achievements	-10.5558
▁technique	-10.5558
▁forty	-10.556
▁challenge	-10.5571
▁sentiment	-10.5581
▁Federalists	-10.5583
▁ad	-10.5589
▁unfortunately	-10.5589
▁tendencies	-10.5593
▁adoption	-10.5593
▁80	-10.5598
▁plain	-10.5599
▁reports	-10.5602
▁secretary	-10.5602
▁anybody	-10.5603
▁warning	-10.5606
▁alike	-10.5607
▁estimates	-10.5608
▁surprise	-10.5616
▁Third	-10.5617
▁ranks	-10.5618
▁representation	-10.5631
▁attached	-10.5631
▁oppose	-10.5635
You	-10.5636
▁monarchy	-10.5646
▁politician	-10.5647
▁informed	-10.5658
▁comparative	-10.5661
▁chap	-10.5662
▁conceivable	-10.5663
▁grown	-10.5664
▁induce	-10.5667
▁borrowed	-10.5669
▁hypothetical	-10.567
▁broke	-10.5673
▁automatically	-10.5682
▁Weber	-10.5684
是	-10.5687
▁losing	-10.5689
▁legislative	-10.569
▁drug	-10.5699
▁assertion	-10.5701
▁chapters	-10.5702
▁territories	-10.5708
▁Canada	-10.5708
▁surprising	-10.5714
▁manufacture	-10.5721
▁disaster	-10.5726
▁Benjamin	-10.5727
▁seeing	-10.573
▁pretty	-10.5734
▁answered	-10.5736
▁fourth	-10.5741
▁thoroughly	-10.5745
▁ff	-10.5748
▁preservation	-10.5748
▁intelligent	-10.5749
▁terminology	-10.5752
▁Alexander	-10.5762
▁equation	-10.5764
▁inequality	-10.5766
▁thoughts	-10.5769
▁1929	-10.577
▁seemingly	-10.5771
os	-10.5772
▁rarely	-10.5774
▁secondary	-10.5775
▁cited	-10.5778
▁minister	-10.5781
▁stress	-10.5783
ter	-10.5796
.9	-10.5796
▁surface	-10.5799
▁Books	-10.5801
▁teachings	-10.5806
▁Arthur	-10.5807
▁belong	-10.5808
ling	-10.5809
▁conservatives	-10.5811
▁approval	-10.5815
▁raises	-10.5817
▁cure	-10.5818
▁alternatives	-10.582
ize	-10.582
▁shoes	-10.5825
▁address	-10.5833
from	-10.5842
▁elite	-10.5845
▁Can	-10.5846
▁ages	-10.5855
▁interpreted	-10.5863
.8	-10.5868
▁reputation	-10.5871
▁governed	-10.5873
▁respects	-10.5874
▁accident	-10.5874
el	-10.5877
▁(3)	-10.5881
▁prevail	-10.5885
▁Robbins	-10.5888
▁count	-10.5888
▁sorts	-10.5889
▁translation	-10.5889
▁Life	-10.5898
▁monopolist	-10.59
▁temporarily	-10.5907
▁guided	-10.591
old	-10.5923
▁corruption	-10.5925
▁slightly	-10.5926
▁guilty	-10.5934
▁bubble	-10.5936
▁instances	-10.594
▁interfere	-10.5941
▁invariably	-10.5941
▁County	-10.5942
▁newspapers	-10.5942
▁looks	-10.5944
▁customs	-10.5948
▁prospect	-10.5951
▁endeavors	-10.5953
▁philosopher	-10.5954
▁asset	-10.5962
▁neglected	-10.5965
▁honor	-10.5975
rd	-10.5981
▁editor	-10.5983
▁accomplish	-10.5989
▁Ala	-10.5997
▁lowest	-10.5998
▁Brown	-10.6001
▁§	-10.6003
▁possessed	-10.6004
▁profession	-10.6006
▁Bush	-10.6006
7	-10.6007
▁checks	-10.6015
▁calculations	-10.6017
▁Thought	-10.6018
▁foreigners	-10.6023
▁fruits	-10.6034
▁certainty	-10.6035
▁Salerno	-10.6047
▁restore	-10.6048
▁accompanied	-10.6052
▁encouraged	-10.6055
▁sub	-10.6055
▁induced	-10.6056
▁push	-10.6056
▁uncertain	-10.6062
▁rises	-10.6087
▁closer	-10.6093
▁bankruptcy	-10.6097
▁Maryland	-10.6098
▁foundations	-10.6103
▁90	-10.611
ch	-10.6133
▁scholars	-10.6137
▁item	-10.6137
▁inner	-10.6143
▁mathematics	-10.6145
▁style	-10.6155
▁mines	-10.6155
▁transformed	-10.6156
▁plays	-10.6156
▁commission	-10.6159
▁till	-10.6159
▁transferred	-10.6162
▁Clinton	-10.6162
▁elections	-10.6164
me	-10.6164
▁anxious	-10.6168
▁variations	-10.6168
▁Le	-10.6174
▁employee	-10.6178
▁destructive	-10.6183
▁rely	-10.6187
▁root	-10.6192
▁solved	-10.6197
▁unnecessary	-10.62
▁denounced	-10.62
▁magnitude	-10.6204
▁collectivist	-10.6206
pp	-10.621
▁Order	-10.6214
▁offering	-10.6217
▁risen	-10.622
▁testimony	-10.6227
▁bodies	-10.6228
▁cold	-10.6237
▁hypothesis	-10.6238
▁couple	-10.6239
▁bottom	-10.6247
▁Wealth	-10.6248
▁survive	-10.6257
▁resist	-10.626
▁argues	-10.626
▁couldn	-10.6264
▁teachers	-10.6265
▁eliminated	-10.627
▁Engels	-10.6272
▁steady	-10.6274
▁avoided	-10.6283
▁degrees	-10.6288
▁risks	-10.6298
▁curves	-10.6302
▁skill	-10.6303
▁habit	-10.6306
▁buildings	-10.6312
▁Greek	-10.6318
▁Warren	-10.6322
▁roundabout	-10.6331
▁declare	-10.6333
▁disastrous	-10.6337
▁monopolies	-10.6341
entrepreneurship	-10.6342
▁literary	-10.6342
▁enjoyment	-10.6347
▁miles	-10.6348
▁tended	-10.6353
▁letters	-10.6354
▁conventional	-10.6355
▁profound	-10.6356
▁superiority	-10.636
▁Cleveland	-10.6374
▁partial	-10.638
▁team	-10.6387
ton	-10.6399
▁abolished	-10.6402
▁studied	-10.6407
▁chairman	-10.6408
▁quasi	-10.6408
▁5.	-10.6408
▁grants	-10.641
▁invention	-10.6412
▁lacking	-10.6412
▁copper	-10.6417
▁financed	-10.642
▁curious	-10.6423
▁inside	-10.6426
▁approved	-10.6429
▁del	-10.6431
▁officer	-10.6432
▁quick	-10.6439
▁banknotes	-10.6439
ia	-10.6443
▁Princeton	-10.6448
▁Reich	-10.6464
▁location	-10.6465
▁twice	-10.6474
▁knowing	-10.6475
8	-10.6477
▁Federalist	-10.648
▁boundaries	-10.6483
▁manager	-10.6493
▁promised	-10.6498
▁defeated	-10.65
▁incompatible	-10.6506
▁cars	-10.6511
▁recommended	-10.6516
▁offset	-10.6522
▁du	-10.6531
▁Are	-10.6534
▁eat	-10.6536
▁standpoint	-10.6541
▁Rights	-10.6543
▁consist	-10.6544
▁male	-10.6554
▁married	-10.6555
▁abolish	-10.6556
▁wine	-10.6562
▁pushed	-10.6566
▁experts	-10.6576
right	-10.6582
▁San	-10.6584
▁opening	-10.659
▁utilities	-10.659
▁6,	-10.6599
▁shared	-10.6605
▁für	-10.6609
▁candidate	-10.6617
▁fortune	-10.6622
▁liberties	-10.6629
real	-10.6629
▁experiences	-10.6633
▁presents	-10.664
▁mostly	-10.664
▁debtors	-10.6643
▁situations	-10.6643
▁yields	-10.6647
▁courage	-10.6649
▁music	-10.6655
▁movie	-10.6656
▁Short	-10.6662
▁gift	-10.6663
▁chose	-10.6664
▁propose	-10.6667
▁twelve	-10.6667
▁expectation	-10.6667
▁besides	-10.6676
▁exceed	-10.6682
▁disease	-10.6683
▁suggestion	-10.6686
▁advantageous	-10.6694
▁southern	-10.6695
▁backed	-10.6704
▁inquiry	-10.6706
▁Whatever	-10.671
There	-10.6715
▁idem	-10.6716
▁explaining	-10.6719
▁prohibited	-10.672
good	-10.6724
▁reward	-10.6724
▁granting	-10.6726
▁Asia	-10.6726
▁Finance	-10.6727
▁wool	-10.673
▁northern	-10.6736
▁chain	-10.6736
▁fundamentally	-10.6738
▁conversation	-10.6741
▁methodological	-10.6748
▁7,	-10.6749
▁dream	-10.6759
w	-10.676
▁warehouse	-10.6766
▁illusion	-10.6766
▁rightly	-10.6771
who	-10.6774
▁hit	-10.6774
▁derive	-10.6782
▁proceeded	-10.6783
▁conviction	-10.6785
▁utterly	-10.6787
▁financing	-10.6787
▁pursued	-10.679
▁selected	-10.679
▁rid	-10.6792
▁hopes	-10.68
▁theft	-10.68
▁soul	-10.6813
▁notions	-10.6814
▁College	-10.6826
ive	-10.6827
▁effected	-10.6838
operation	-10.6841
▁Block	-10.6841
▁Jews	-10.6843
▁Book	-10.6844
▁replied	-10.6845
▁contention	-10.6846
▁essays	-10.6847
▁dominated	-10.6847
▁formerly	-10.6848
▁fix	-10.6854
▁coffee	-10.6855
▁explicit	-10.6862
▁armies	-10.6865
▁Further	-10.6865
▁bearing	-10.6868
▁approximately	-10.6868
ra	-10.6872
including	-10.6875
▁speed	-10.6877
▁deliberately	-10.6877
▁acquisition	-10.6887
▁prime	-10.6888
▁Property	-10.6888
▁obstacles	-10.6897
▁fleet	-10.6897
▁$2	-10.69
▁hatred	-10.6905
▁alliance	-10.6905
▁hurt	-10.6912
▁al	-10.6915
▁openly	-10.6916
▁psychology	-10.6917
▁charity	-10.6917
▁chiefly	-10.6919
▁Land	-10.692
▁Poland	-10.6926
▁Harper	-10.6926
▁sterling	-10.6927
▁calculated	-10.6929
▁properties	-10.6935
▁Well	-10.6937
▁printed	-10.6941
▁ratios	-10.6949
▁Time	-10.6953
▁developments	-10.6953
▁31	-10.696
▁compromise	-10.6963
▁merchandise	-10.6965
▁shop	-10.6975
▁protest	-10.6976
▁united	-10.6976
▁collectivism	-10.6986
▁repeatedly	-10.699
▁Georgia	-10.6996
em	-10.7003
▁mistaken	-10.7007
▁daughter	-10.7007
over	-10.7015
▁dark	-10.702
▁Conference	-10.7026
▁Turgot	-10.7027
▁referring	-10.7027
▁Hume	-10.7027
▁rigid	-10.7033
▁Ages	-10.7034
▁complementary	-10.7036
▁shifted	-10.704
▁River	-10.7046
▁camp	-10.7048
▁distant	-10.7058
▁Columbia	-10.7058
▁noble	-10.7058
▁buys	-10.7058
▁fallacies	-10.7066
▁costly	-10.7068
▁promptly	-10.7078
▁stressed	-10.7082
ting	-10.7083
▁perceived	-10.709
▁Crusoe	-10.7098
▁survival	-10.7098
▁presumably	-10.71
there	-10.7103
▁offices	-10.7109
▁illustration	-10.712
▁Rhode	-10.7121
▁judicial	-10.713
▁watch	-10.713
▁submit	-10.7138
▁predict	-10.714
▁violation	-10.7141
▁poorer	-10.7142
▁homes	-10.7144
▁headed	-10.7146
▁centralized	-10.7154
▁assured	-10.7159
▁unity	-10.7177
▁Having	-10.7189
▁likewise	-10.719
▁limitations	-10.7192
▁conscience	-10.7192
▁coordination	-10.7192
▁misleading	-10.7197
▁irrelevant	-10.7199
▁Communism	-10.7204
▁neglect	-10.721
▁adjusted	-10.721
▁customer	-10.7216
▁innocent	-10.722
▁personality	-10.7224
▁bourgeois	-10.7226
▁link	-10.7231
0	-10.7245
▁negotiations	-10.7246
ant	-10.725
▁faster	-10.7254
▁novel	-10.726
▁allegedly	-10.7261
▁wholesale	-10.7271
▁deprived	-10.7296
▁neighbors	-10.7306
▁prestige	-10.7314
▁Given	-10.7314
▁emergency	-10.7319
▁privately	-10.7321
▁constituted	-10.7321
▁dog	-10.7325
▁favorite	-10.7329
▁female	-10.733
▁tremendous	-10.7331
▁intermediate	-10.7338
▁undertaken	-10.7338
▁emerged	-10.7339
▁dictatorship	-10.7352
▁nationalist	-10.7352
▁Will	-10.7356
▁Later	-10.7356
▁sentence	-10.7356
▁Yale	-10.7358
▁lesson	-10.7363
▁socialistic	-10.7369
▁dated	-10.737
▁settle	-10.7375
▁irrational	-10.7377
▁settlers	-10.7378
▁suit	-10.738
▁realistic	-10.7384
▁salaries	-10.7387
▁membership	-10.7388
▁occupied	-10.74
▁design	-10.74
▁cooperative	-10.7402
▁youth	-10.7402
▁1960	-10.7405
▁Protestant	-10.7408
▁unjust	-10.741
ie	-10.741
▁adding	-10.7418
▁Kimmel	-10.7419
▁kings	-10.742
▁translated	-10.7421
▁condemned	-10.7422
▁civilized	-10.7422
▁Post	-10.7423
▁initiative	-10.7423
▁conducted	-10.7426
off	-10.7429
▁background	-10.7434
▁dropped	-10.744
▁grand	-10.744
▁True	-10.7443
▁1970	-10.7449
▁administrative	-10.7451
▁Locke	-10.7453
▁genius	-10.7459
▁elaborate	-10.7464
▁insights	-10.7468
▁arose	-10.7469
▁teach	-10.747
▁steadily	-10.7471
▁Prussian	-10.7473
▁hostile	-10.7483
▁extraordinary	-10.7483
▁Competition	-10.7486
▁manifest	-10.7486
▁Against	-10.7495
▁70	-10.7497
▁bitter	-10.7499
▁reduces	-10.7504
▁reforms	-10.7509
▁lasting	-10.7509
▁innovation	-10.751
▁differently	-10.7517
▁via	-10.7523
▁antitrust	-10.7525
versus	-10.7525
▁wartime	-10.7526
▁declined	-10.7527
▁repeal	-10.7531
▁earning	-10.7535
▁sin	-10.7538
▁Atlantic	-10.754
▁slight	-10.7542
son	-10.7542
▁acted	-10.7559
▁kill	-10.7559
▁measurement	-10.7565
▁describes	-10.7569
▁disregard	-10.7569
▁classic	-10.7571
▁taste	-10.7571
▁injustice	-10.7572
▁implicit	-10.7576
ge	-10.7577
▁erroneous	-10.7585
▁papers	-10.7588
▁universities	-10.7588
▁thinkers	-10.7589
▁advertising	-10.7589
▁household	-10.759
▁unlike	-10.759
▁blind	-10.7593
▁exposition	-10.7595
▁dictator	-10.7596
▁reflection	-10.7606
▁diminishing	-10.7606
▁gradual	-10.7607
▁guaranteed	-10.7607
▁Mussolini	-10.7611
▁Anglo	-10.7612
▁dis	-10.7616
▁resolution	-10.7617
▁domain	-10.7617
▁transformation	-10.7617
▁coinage	-10.7621
▁Kennedy	-10.7622
▁spontaneous	-10.7622
▁o	-10.7623
▁throw	-10.7627
▁mutually	-10.7629
▁radio	-10.7632
▁fraction	-10.7633
▁discussing	-10.7637
▁Christianity	-10.7644
▁Certainly	-10.7645
But	-10.7649
▁definitely	-10.765
▁lesser	-10.7653
▁plenty	-10.7655
▁Classical	-10.7656
▁Big	-10.7659
▁mixed	-10.766
▁variable	-10.7662
▁Economists	-10.7663
▁personally	-10.7664
exchange	-10.7667
▁cast	-10.7667
▁implication	-10.7671
▁borrowers	-10.7672
▁wild	-10.7674
▁presidential	-10.7677
▁prevails	-10.7683
▁identified	-10.7685
▁venture	-10.7689
▁diminished	-10.769
▁45	-10.769
▁Switzerland	-10.7697
▁inclined	-10.7697
▁merit	-10.7701
▁image	-10.7705
▁oppression	-10.7709
▁emphasize	-10.7713
liberal	-10.7716
▁struck	-10.7718
▁mainstream	-10.7721
▁retained	-10.7725
▁selection	-10.7726
▁myth	-10.7728
ier	-10.7729
▁Cantillon	-10.7731
▁gas	-10.7738
▁manufacturer	-10.7749
▁substitution	-10.7751
▁customary	-10.7752
▁surrender	-10.7755
▁stabilization	-10.7765
▁lawyer	-10.7771
▁francs	-10.7771
▁Over	-10.7772
▁comments	-10.7775
▁integration	-10.7776
▁33	-10.778
▁Liberal	-10.7783
▁distance	-10.7783
▁repeat	-10.7792
▁holders	-10.7802
▁Stock	-10.7807
▁territorial	-10.7807
▁hired	-10.781
▁debtor	-10.781
▁triumph	-10.7811
ish	-10.7813
▁Nazis	-10.7815
they	-10.7815
▁owe	-10.7821
▁comment	-10.7822
▁bureaucratic	-10.7823
▁generated	-10.7823
▁fallacious	-10.7828
▁homogeneous	-10.7829
▁partner	-10.783
ler	-10.7836
▁expert	-10.7837
▁actors	-10.7838
▁caught	-10.7839
▁ignorant	-10.7839
▁secured	-10.7849
▁fruit	-10.785
▁limitation	-10.785
▁bullion	-10.7865
▁r	-10.7865
▁regulated	-10.7869
▁independently	-10.787
▁construct	-10.7878
▁Illinois	-10.7883
▁excluded	-10.7885
▁firmly	-10.7886
▁depositors	-10.7886
▁restraint	-10.7889
—“	-10.7902
▁separation	-10.7906
▁tied	-10.7908
▁32	-10.7913
▁harmful	-10.7916
▁Be	-10.792
▁hitherto	-10.7927
▁Latin	-10.7927
▁fault	-10.7934
▁Saint	-10.7939
No	-10.7945
▁preventing	-10.7945
▁involving	-10.7947
▁downward	-10.7948
▁anarchist	-10.7956
▁duration	-10.796
▁Treatise	-10.7962
▁est	-10.7964
▁Don	-10.7966
▁Her	-10.7967
▁sells	-10.7982
▁integrity	-10.7983
public	-10.7986
ities	-10.799
ite	-10.7994
▁Aristotle	-10.7995
▁Harry	-10.7995
▁criticized	-10.7997
▁concludes	-10.8002
▁eds	-10.8004
▁defended	-10.8005
▁Amendment	-10.8005
▁obtaining	-10.8008
▁frequent	-10.8013
▁rival	-10.8014
▁Lee	-10.8015
wing	-10.8022
▁district	-10.8027
▁prosperous	-10.8027
▁overwhelming	-10.8035
▁forcing	-10.8043
▁communities	-10.8049
▁Tucker	-10.8053
▁onto	-10.8053
▁allies	-10.8054
▁taxpayer	-10.806
▁Obviously	-10.8062
▁Auburn	-10.8065
▁parallel	-10.8067
▁collected	-10.8076
▁habits	-10.8077
▁belongs	-10.8082
▁8,	-10.8092
://	-10.8094
▁imposing	-10.8096
▁observations	-10.8102
▁transport	-10.8102
▁exercised	-10.8105
▁con	-10.8112
▁decree	-10.8113
▁inefficient	-10.8117
▁educational	-10.8122
▁libertarianism	-10.8127
▁enthusiasm	-10.8128
▁print	-10.8148
▁Randolph	-10.8151
▁Mark	-10.8156
19	-10.8156
▁orthodox	-10.8158
▁races	-10.8158
can	-10.8161
▁6.	-10.8164
▁specialized	-10.8168
▁virtues	-10.8169
▁dangers	-10.8174
▁literally	-10.8176
▁gap	-10.8177
▁patient	-10.8181
▁Anti	-10.8183
▁fixing	-10.8189
會	-10.8194
▁physics	-10.8199
▁occupations	-10.8203
▁contractual	-10.8207
▁indicates	-10.8213
▁Analysis	-10.8231
▁tobacco	-10.8231
▁despotism	-10.8232
▁attributed	-10.8234
▁disputes	-10.8235
▁certificates	-10.8245
▁split	-10.8254
▁blow	-10.8256
▁drawing	-10.8264
▁pyramid	-10.8266
istic	-10.8267
▁touch	-10.8268
▁strikes	-10.8272
▁acres	-10.8276
▁signed	-10.8278
▁satisfying	-10.8279
▁75	-10.8287
▁attractive	-10.8288
▁choosing	-10.8289
▁vary	-10.8291
▁accurate	-10.8296
co	-10.8301
▁outset	-10.8303
▁partially	-10.8304
▁shot	-10.8306
▁isn	-10.8313
▁Long	-10.8313
▁neoclassical	-10.8313
▁urge	-10.8314
▁gun	-10.8315
▁cutting	-10.8319
▁clients	-10.8325
▁Everyone	-10.8325
▁noticed	-10.8329
▁circles	-10.8335
▁Holland	-10.8336
▁panic	-10.8337
▁lecture	-10.8346
▁composed	-10.8346
▁skills	-10.8351
▁operated	-10.8356
▁circumstance	-10.8359
▁Iraq	-10.8366
▁techniques	-10.837
▁thrown	-10.8373
▁nationalists	-10.8375
▁proportions	-10.8377
▁outright	-10.8378
▁expended	-10.8383
▁el	-10.8387
▁Does	-10.8387
▁embodied	-10.8393
▁Progressive	-10.8396
this	-10.8397
▁functioning	-10.84
▁inspired	-10.8401
new	-10.8407
▁breaking	-10.8408
▁currently	-10.8408
▁sun	-10.8409
▁traders	-10.8412
▁seized	-10.8419
▁custom	-10.842
▁arising	-10.8421
▁failures	-10.8423
He	-10.8424
▁treatise	-10.8429
▁Archive	-10.8431
▁reformers	-10.8432
labor	-10.8432
6	-10.8439
▁abuse	-10.844
investment	-10.8442
▁billions	-10.8442
▁9,	-10.8447
▁travel	-10.8458
ent	-10.8458
▁Should	-10.8462
▁answers	-10.8469
▁weakness	-10.8474
▁liquid	-10.8475
▁Planning	-10.8475
▁wherever	-10.8476
▁frame	-10.8484
▁seventeenth	-10.8488
▁topic	-10.8491
▁fill	-10.8497
▁proportional	-10.8503
▁Israel	-10.8504
▁Knight	-10.8509
▁Peace	-10.8509
▁imagination	-10.8509
▁crowd	-10.851
▁employing	-10.851
▁herself	-10.8511
▁guard	-10.8513
▁fatal	-10.8515
▁abundant	-10.8518
▁Hutt	-10.8518
▁separated	-10.8522
▁confronted	-10.8523
▁broader	-10.8525
▁indifference	-10.8528
▁analogy	-10.8533
▁Spencer	-10.8533
▁36	-10.8536
▁definitions	-10.8539
▁Albert	-10.8542
▁crimes	-10.8551
▁substantially	-10.8552
May	-10.8553
▁convenient	-10.8553
▁IV	-10.8554
▁Philosophy	-10.8557
9	-10.8557
▁physically	-10.8559
▁automobile	-10.856
▁specialization	-10.8561
如	-10.8566
▁retail	-10.8567
▁Michael	-10.8568
▁telling	-10.8571
per	-10.8571
▁audience	-10.8571
▁sociology	-10.8572
national	-10.8574
▁divine	-10.8588
▁helps	-10.8596
ful	-10.8598
▁professors	-10.8599
▁varying	-10.8601
▁chooses	-10.8601
▁equations	-10.8602
▁Age	-10.8615
▁adjustments	-10.8634
▁devote	-10.864
▁latest	-10.8643
▁republic	-10.8643
▁converted	-10.8644
▁withdraw	-10.8644
June	-10.8648
▁stream	-10.8648
▁attempting	-10.8649
▁suspect	-10.8653
▁significantly	-10.8653
▁1933,	-10.866
▁ideals	-10.8662
▁11,	-10.8662
▁wider	-10.8666
▁altered	-10.8671
▁intense	-10.8671
▁consistently	-10.8673
▁Taft	-10.8677
▁seq	-10.8683
ous	-10.8688
▁abilities	-10.869
▁infinite	-10.8691
▁Max	-10.8695
▁Misesian	-10.8696
▁Jewish	-10.8705
▁$4	-10.8705
goods	-10.8708
et	-10.8711
▁planners	-10.8715
▁analyze	-10.8724
▁fifteen	-10.8733
▁$100	-10.8734
▁faculty	-10.8736
▁$3	-10.8738
▁lectures	-10.8741
▁native	-10.8741
▁1914	-10.8742
▁Lachmann	-10.8744
▁ruin	-10.8746
▁global	-10.8746
▁Clearly	-10.8747
▁Catholics	-10.875
▁deeper	-10.8753
▁borrower	-10.8756
▁beliefs	-10.8758
▁yourself	-10.8761
▁recall	-10.8762
▁Affairs	-10.8763
▁1950	-10.8765
▁devices	-10.8765
▁experiments	-10.8767
▁facilities	-10.8771
▁sexual	-10.8771
▁Milton	-10.8773
▁Much	-10.8773
▁furthermore	-10.8774
▁successive	-10.878
▁obey	-10.8786
▁biological	-10.8792
▁reprinted	-10.88
▁proves	-10.8803
▁sit	-10.8809
la	-10.8814
▁bid	-10.8817
▁Robinson	-10.882
▁impossibility	-10.882
▁remark	-10.8822
▁los	-10.8823
▁playing	-10.8825
org	-10.883
20	-10.883
ul	-10.883
▁sex	-10.8832
▁worthy	-10.8834
▁http	-10.8835
▁friendly	-10.8836
▁briefly	-10.884
▁endless	-10.8842
不	-10.8843
▁applying	-10.8845
▁mistakes	-10.8855
▁Would	-10.8856
▁Strong	-10.8857
▁misery	-10.8868
▁contact	-10.8869
▁rebellion	-10.8874
ability	-10.8876
power	-10.8876
▁Prussia	-10.8877
▁200	-10.888
▁Texas	-10.8881
▁identify	-10.8883
▁interventions	-10.8887
▁41	-10.8891
▁undertake	-10.8895
preference	-10.8896
▁parity	-10.8899
more	-10.8899
▁contend	-10.8901
▁disappeared	-10.8902
▁excuse	-10.8908
▁prison	-10.8908
▁Papers	-10.8911
▁neighborhood	-10.8912
▁attract	-10.8913
minded	-10.892
▁straight	-10.8922
▁delay	-10.8922
▁appropriation	-10.8924
▁Steel	-10.8924
▁15,	-10.8927
▁sympathy	-10.8929
▁1933	-10.8932
▁mortgage	-10.8933
▁viz	-10.8937
▁Crown	-10.8942
▁dedicated	-10.8942
▁satisfactions	-10.8946
▁similarly	-10.8946
▁remarked	-10.8947
▁pointing	-10.8947
▁dinner	-10.8948
▁organize	-10.8949
ne	-10.8953
▁Francisco	-10.8954
▁whatsoever	-10.8955
▁comprehend	-10.8956
▁models	-10.8959
▁walk	-10.896
▁Nation	-10.8962
▁sections	-10.8963
▁supporting	-10.8965
▁enabled	-10.8966
▁host	-10.8972
▁les	-10.898
▁praise	-10.8982
▁wouldn	-10.8985
▁combat	-10.8989
▁applicable	-10.8991
▁calculate	-10.8994
▁minutes	-10.8995
▁healthy	-10.8997
▁aristocracy	-10.9004
▁rural	-10.9004
▁spot	-10.9007
▁unfair	-10.9008
capital	-10.9013
▁route	-10.9015
▁Malthus	-10.9015
▁requiring	-10.9015
▁taxed	-10.9017
▁champions	-10.902
▁regularly	-10.9023
▁replacement	-10.9024
▁network	-10.9027
▁records	-10.9035
▁afraid	-10.904
▁reveals	-10.9042
▁ensure	-10.9044
▁keeps	-10.9046
▁guns	-10.9047
▁anywhere	-10.9049
▁instant	-10.9049
▁helping	-10.905
▁———	-10.9051
▁lowered	-10.9051
▁secession	-10.9053
▁stores	-10.9059
▁intentions	-10.9063
▁masters	-10.9065
▁clothes	-10.9065
▁manage	-10.9067
▁acceptable	-10.907
▁permits	-10.9072
▁train	-10.9072
▁declaration	-10.9073
▁eternal	-10.9076
▁radically	-10.9082
▁correspond	-10.9084
▁bargain	-10.9087
▁plunder	-10.9088
▁Continental	-10.9089
▁prospective	-10.909
▁evenly	-10.9091
▁outlook	-10.9092
▁insofar	-10.9092
▁overlooked	-10.9093
▁landed	-10.9095
▁compel	-10.9099
▁countless	-10.9103
▁Statistics	-10.9104
▁Within	-10.9105
▁generate	-10.9107
▁medicine	-10.9112
”?	-10.9119
▁theme	-10.9119
▁37	-10.9119
▁Security	-10.9128
▁nonsense	-10.9128
▁illustrate	-10.9132
▁morally	-10.9137
▁crop	-10.9137
▁alive	-10.914
▁starts	-10.914
▁metallic	-10.9141
▁merits	-10.9144
人	-10.9146
March	-10.9151
▁correspondence	-10.9152
▁ceased	-10.9158
▁luxury	-10.9166
▁Welfare	-10.9169
▁consisted	-10.9172
▁borders	-10.9173
▁MS	-10.9173
▁mechanical	-10.9175
would	-10.9176
▁terrible	-10.9179
▁constructed	-10.9185
▁attend	-10.9188
▁crash	-10.9188
▁Northern	-10.919
▁island	-10.9194
▁controlling	-10.9197
▁village	-10.9199
▁criticisms	-10.9202
▁manufactures	-10.9202
▁cattle	-10.9203
▁exceptions	-10.921
▁34	-10.9213
▁Stark	-10.9217
▁accused	-10.9229
will	-10.9237
▁communication	-10.9239
▁remembered	-10.924
▁Hampshire	-10.9253
▁neighbor	-10.9255
▁postwar	-10.9255
▁launched	-10.9255
▁lender	-10.926
▁badly	-10.9264
▁arts	-10.9265
▁sacrifices	-10.9265
▁speaks	-10.9266
▁drew	-10.9267
▁Jevons	-10.9267
▁county	-10.9268
▁wasn	-10.9272
▁fiction	-10.928
▁inadequate	-10.9281
▁heads	-10.9282
▁insufficient	-10.9287
▁tomorrow	-10.9289
Why	-10.929
ner	-10.9293
▁wear	-10.9299
▁Williams	-10.9303
▁systematically	-10.9305
ine	-10.9306
▁governing	-10.9317
▁option	-10.9325
con	-10.9326
▁charter	-10.9327
▁subjected	-10.9328
[	-10.9333
▁unlikely	-10.9334
▁request	-10.9339
▁entity	-10.9342
▁tree	-10.9342
▁quo	-10.9345
▁roughly	-10.9348
▁cyclical	-10.9359
▁x	-10.9361
▁gifts	-10.9369
▁12,	-10.938
▁richer	-10.938
▁acquiring	-10.9381
▁utilitarian	-10.9381
▁restricting	-10.9386
▁proclaimed	-10.9388
▁Century	-10.9389
▁reveal	-10.939
▁38	-10.9392
▁Haven	-10.9395
ty	-10.9403
just	-10.9403
▁combinations	-10.9412
▁supremacy	-10.9419
▁evening	-10.9422
▁trace	-10.9426
▁peak	-10.9427
▁execution	-10.9436
▁implicitly	-10.9438
▁authoritarian	-10.9438
▁renders	-10.944
▁predicted	-10.944
Cambridge	-10.9444
▁1980	-10.9445
▁loses	-10.9448
▁winter	-10.946
▁quote	-10.9469
ate	-10.9471
▁Anderson	-10.9473
▁$10	-10.948
▁selfish	-10.9487
▁Stuart	-10.9495
▁impulse	-10.9495
▁reflects	-10.9502
▁respectively	-10.9503
▁scientist	-10.9503
▁unprecedented	-10.951
▁IN	-10.951
▁Alfred	-10.9511
▁scales	-10.9512
▁Socialists	-10.9514
▁visit	-10.9516
而	-10.9517
▁usefulness	-10.9517
▁slightest	-10.9523
▁Development	-10.9524
▁solid	-10.9526
▁contain	-10.9532
▁meaningful	-10.9537
▁Surely	-10.9537
▁normally	-10.9538
▁neutrality	-10.9541
▁Woods	-10.9543
led	-10.9544
▁convince	-10.9545
Austrian	-10.9548
▁representing	-10.9548
cost	-10.9549
▁visible	-10.9551
▁propensity	-10.9553
▁liable	-10.9562
▁Irish	-10.9564
▁flat	-10.9569
▁introduce	-10.9572
▁Red	-10.9572
▁penalty	-10.9576
▁achieving	-10.958
▁creditor	-10.9581
▁prevailed	-10.9583
▁Cycle	-10.9588
▁ruler	-10.9588
▁hostility	-10.9588
▁Forum	-10.9588
▁perfection	-10.9592
V	-10.9592
▁clearing	-10.9595
.*	-10.9606
▁core	-10.9614
▁versa	-10.9614
▁expropriation	-10.9615
▁backward	-10.9618
▁statesmen	-10.962
▁consequent	-10.9623
▁trans	-10.9626
▁foremost	-10.9627
▁surprised	-10.9633
our	-10.9641
production	-10.9645
io	-10.9649
▁Communists	-10.9655
▁exert	-10.9661
▁multitude	-10.9667
▁removal	-10.9667
▁Mexico	-10.9668
▁Francis	-10.9668
▁exposed	-10.9669
▁defending	-10.9677
▁hidden	-10.9682
though	-10.9685
▁subsidy	-10.9696
▁trip	-10.9697
▁colleagues	-10.9699
▁interpret	-10.9702
▁secular	-10.9708
▁integrated	-10.9709
▁sat	-10.9715
▁shortly	-10.9715
▁African	-10.9717
▁cartels	-10.9717
▁acknowledged	-10.9723
▁invented	-10.9725
▁hot	-10.973
▁march	-10.9731
▁wonderful	-10.9731
▁convert	-10.9732
▁amendment	-10.9734
▁mining	-10.9737
▁43	-10.9744
▁elementary	-10.9747
▁pace	-10.9752
▁fresh	-10.9754
▁meaningless	-10.9755
▁beautiful	-10.9756
▁amendments	-10.9759
December	-10.976
▁utilization	-10.9762
▁deliberate	-10.9766
▁futile	-10.9773
▁bears	-10.9775
level	-10.9776
▁theorist	-10.9788
v	-10.9792
▁inconsistent	-10.9795
▁incapable	-10.9796
▁attribute	-10.9798
▁recourse	-10.98
▁envy	-10.98
▁sentiments	-10.9801
▁floor	-10.9803
▁Case	-10.9808
▁cloth	-10.9809
▁document	-10.9809
一	-10.9809
為	-10.9812
▁salary	-10.9813
▁militia	-10.9814
▁psychic	-10.9815
▁manufactured	-10.9821
▁Fetter	-10.983
non	-10.983
▁dozen	-10.9833
▁crude	-10.9836
▁concentrated	-10.9843
▁contradictory	-10.9844
▁commit	-10.985
▁accustomed	-10.9856
▁10,	-10.9868
▁evidently	-10.9868
▁7.	-10.9869
▁wood	-10.9869
▁occasionally	-10.987
▁diplomatic	-10.9871
▁doubtful	-10.9874
▁congressional	-10.9881
▁recommend	-10.9882
▁passion	-10.9885
▁convertibility	-10.9885
▁Tax	-10.9885
▁explanations	-10.9885
▁drugs	-10.9893
▁Jay	-10.9895
▁empty	-10.9907
▁somebody	-10.9909
▁42	-10.9912
▁color	-10.9919
▁permission	-10.9921
▁ideologies	-10.9922
▁aiming	-10.993
▁Belgium	-10.9935
▁automatic	-10.9939
ce	-10.9941
▁signs	-10.9945
▁Kentucky	-10.9949
▁composition	-10.9949
▁restraints	-10.9951
▁investigations	-10.9952
▁popularity	-10.9952
▁48	-10.9955
▁decides	-10.9958
▁pamphlet	-10.9961
▁Note	-10.9964
▁moves	-10.9969
vis	-10.9971
▁specified	-10.9976
▁vested	-10.9977
▁somewhere	-10.9982
▁nearer	-10.9983
▁jurisdiction	-10.9985
▁mill	-10.9986
▁inflate	-10.9989
▁Luther	-10.9989
▁prefers	-10.999
▁super	-10.9994
▁egalitarian	-10.9994
▁seldom	-11.0003
▁incurred	-11.0003
▁14,	-11.0003
▁pride	-11.0004
▁cross	-11.0004
na	-11.0008
▁balanced	-11.0008
▁Good	-11.0012
▁racial	-11.0015
▁remuneration	-11.0016
▁Geneva	-11.0021
▁Yes	-11.0027
▁chair	-11.0028
▁exclude	-11.0029
▁rejection	-11.0031
▁province	-11.0033
▁objectives	-11.0037
im	-11.0038
▁1890	-11.0038
▁g	-11.0039
▁methodology	-11.0044
▁Polish	-11.0046
▁multiple	-11.0046
▁butter	-11.0052
▁affects	-11.0054
▁elimination	-11.0058
▁fulfill	-11.006
▁diminish	-11.0071
▁atmosphere	-11.0071
▁Mississippi	-11.0072
▁Until	-11.0073
▁restrictive	-11.0073
has	-11.0076
▁formulation	-11.0077
▁mission	-11.0081
▁Green	-11.0082
▁Allen	-11.0082
▁proletariat	-11.0086
▁49	-11.0087
▁motivated	-11.0087
▁Corporation	-11.0088
▁opponent	-11.0088
▁quotas	-11.0091
▁servants	-11.0094
▁appreciate	-11.0095
▁directors	-11.0098
▁neo	-11.0098
▁Ireland	-11.0099
▁associate	-11.0099
▁midst	-11.01
▁treasury	-11.0101
▁immigrants	-11.0102
tic	-11.0103
▁viewpoint	-11.0104
▁restored	-11.0104
▁maximize	-11.0105
▁severely	-11.0109
▁bigger	-11.0113
▁demonstrates	-11.0115
▁disposition	-11.0117
▁Keynesians	-11.0121
▁peasants	-11.0122
▁quiet	-11.0124
▁perpetual	-11.0125
▁feasible	-11.0127
▁Financial	-11.0128
▁grows	-11.0131
▁assure	-11.0133
▁respond	-11.0134
▁meetings	-11.0134
▁deemed	-11.0143
his	-11.0145
▁bar	-11.0147
▁preserved	-11.0149
▁accepting	-11.0152
evident	-11.0152
▁39	-11.0153
▁weather	-11.0154
income	-11.0154
▁lawyers	-11.0158
▁creed	-11.0158
que	-11.0161
▁laborer	-11.0166
▁trees	-11.0171
▁remind	-11.0173
▁witness	-11.0182
▁premises	-11.0184
▁worry	-11.0186
human	-11.0195
▁cuts	-11.0195
what	-11.0201
▁dividends	-11.0205
▁demonstration	-11.0214
▁attracted	-11.0215
▁continuously	-11.0217
▁Stimson	-11.0223
▁television	-11.0223
▁Through	-11.0224
▁seize	-11.0225
▁capita	-11.0227
▁entering	-11.0228
▁absorbed	-11.0229
▁prince	-11.0231
▁instinct	-11.0231
ri	-11.0232
▁isolation	-11.0236
▁Consider	-11.0237
▁dilemma	-11.0238
▁“[	-11.0241
▁socially	-11.0246
made	-11.0247
▁anticipate	-11.0252
▁promoting	-11.0252
▁Nobody	-11.0255
▁inventions	-11.0256
▁Out	-11.0257
ten	-11.0257
ro	-11.0257
That	-11.0268
▁loose	-11.0274
▁chances	-11.0275
▁Owen	-11.0277
▁Problem	-11.0279
▁Scottish	-11.028
▁Natural	-11.0281
whether	-11.0282
▁owing	-11.0284
▁protecting	-11.0291
▁Controversies	-11.0293
ted	-11.0294
▁Mason	-11.0294
▁located	-11.0295
▁Hegel	-11.0295
▁edited	-11.031
▁basically	-11.0311
▁Russians	-11.0313
▁collect	-11.0315
▁border	-11.0319
▁memory	-11.0322
To	-11.0329
▁faculties	-11.0336
▁intensity	-11.0337
▁examined	-11.0345
▁please	-11.0345
▁nuclear	-11.0352
▁maintains	-11.0355
▁attorney	-11.0356
▁axiom	-11.0357
▁copy	-11.0357
▁linked	-11.0357
▁trades	-11.0358
▁refusal	-11.0364
▁critic	-11.0366
▁younger	-11.0366
▁Reagan	-11.0366
▁distinguishes	-11.0367
▁discounted	-11.0368
▁shifting	-11.0372
▁failing	-11.0374
▁sixty	-11.0379
▁compatible	-11.0379
▁hated	-11.0384
Washington	-11.0395
▁prevents	-11.0396
▁sequence	-11.0398
▁willingness	-11.0399
▁remainder	-11.0407
▁asks	-11.0408
▁possesses	-11.041
▁Mary	-11.0411
▁Actually	-11.0424
▁climate	-11.0427
▁interpersonal	-11.0435
▁riches	-11.0436
▁cf	-11.044
▁shorter	-11.0447
▁65	-11.0448
▁passive	-11.0448
▁appreciation	-11.045
▁Employment	-11.045
▁indefinitely	-11.0457
▁protectionism	-11.0459
▁eastern	-11.0465
▁exploit	-11.0467
▁1940	-11.0469
▁shut	-11.047
▁instruction	-11.047
▁feared	-11.0473
▁farther	-11.0478
▁bankrupt	-11.0479
▁redeemable	-11.0481
▁planes	-11.0482
10	-11.0483
▁historically	-11.0487
▁superficial	-11.0488
▁vols	-11.0491
▁Besides	-11.0496
▁bust	-11.0498
▁differs	-11.0502
▁unusual	-11.0503
www	-11.0506
▁Wisconsin	-11.0507
▁Kingdom	-11.0508
ey	-11.0511
ol	-11.0515
ta	-11.0519
▁devotion	-11.0521
▁endowed	-11.0524
▁founder	-11.0526
How	-11.0529
▁presupposes	-11.0531
▁Paper	-11.0532
▁Meanwhile	-11.0535
▁dismissed	-11.0539
▁eggs	-11.054
▁pour	-11.0541
▁journal	-11.0542
▁rotating	-11.055
▁flexible	-11.0553
▁accord	-11.0556
▁Bentham	-11.0563
▁ancestors	-11.0563
▁imperial	-11.0563
▁Ill	-11.0565
▁medieval	-11.0566
▁jury	-11.0566
▁suffice	-11.0568
▁prohibit	-11.0572
▁horses	-11.0576
▁unsatisfactory	-11.0579
▁utmost	-11.0579
▁velocity	-11.0584
▁lenders	-11.0585
▁weapon	-11.0586
▁virtual	-11.059
▁deprive	-11.059
▁enormously	-11.0593
▁arbitrarily	-11.0594
▁sending	-11.0599
▁presentation	-11.06
▁expedient	-11.06
▁deliver	-11.0601
▁patterns	-11.0602
於	-11.0606
▁liability	-11.0608
▁depending	-11.0613
▁cooperatives	-11.0615
bank	-11.0621
▁FDR	-11.0624
▁baby	-11.0624
▁tastes	-11.0628
▁session	-11.063
▁display	-11.063
▁injury	-11.0631
▁exploited	-11.0631
▁revolt	-11.0631
▁cry	-11.0632
▁absent	-11.0636
▁unused	-11.0637
▁analyzed	-11.0641
▁talked	-11.0643
▁ease	-11.0648
▁alcohol	-11.0652
▁Admiral	-11.0652
▁survey	-11.0653
▁leftist	-11.066
▁restoration	-11.0666
▁shipping	-11.0666
▁equity	-11.067
April	-11.067
originary	-11.0673
▁catch	-11.0675
▁welcome	-11.0678
▁Sherman	-11.068
▁immoral	-11.0681
▁dispose	-11.0685
▁trained	-11.0692
▁contempt	-11.0695
gold	-11.0699
▁radicals	-11.0706
▁taxing	-11.0712
▁jail	-11.0718
18	-11.0721
▁equipped	-11.0727
given	-11.0727
▁46	-11.0728
▁quota	-11.0728
▁govern	-11.073
▁centers	-11.0731
▁stamp	-11.0736
▁brokers	-11.0736
▁owns	-11.0736
▁arm	-11.0738
▁energies	-11.0739
▁Accordingly	-11.074
▁Reprinted	-11.0742
▁deposited	-11.0747
▁directions	-11.0749
ley	-11.075
▁Ricardian	-11.0753
▁Emperor	-11.0754
▁Napoleon	-11.0755
wide	-11.0756
▁champion	-11.0758
September	-11.0758
▁fears	-11.0761
▁assault	-11.0763
▁Freeman	-11.0772
▁acknowledge	-11.0773
▁stimulate	-11.0775
▁destined	-11.0783
▁modest	-11.0786
ial	-11.0789
▁substituted	-11.0794
▁killing	-11.0796
▁handed	-11.0798
▁opposing	-11.0798
▁fortunes	-11.08
▁encounter	-11.0802
▁disturbances	-11.0804
▁Roger	-11.0805
▁revival	-11.0813
▁Early	-11.0815
▁emerges	-11.0818
▁north	-11.0819
▁1990	-11.0821
▁$5	-11.0825
▁suffrage	-11.0828
▁Black	-11.0832
▁sustained	-11.0833
▁west	-11.0834
▁computer	-11.0839
▁farms	-11.0841
▁elastic	-11.0847
ci	-11.0849
▁combine	-11.0849
▁vs	-11.0851
▁approaches	-11.0853
▁procedures	-11.0859
▁demanding	-11.086
▁confirmed	-11.086
▁succession	-11.086
ma	-11.0861
misunderstanding	-11.0864
▁endeavor	-11.0868
mo	-11.0873
▁highway	-11.0885
▁attributes	-11.0886
▁corollary	-11.0887
January	-11.0892
▁perceive	-11.0893
rates	-11.0895
▁prospects	-11.0898
▁sophisticated	-11.0902
▁uniformity	-11.0903
▁incorporated	-11.0904
▁checking	-11.0905
▁river	-11.0906
▁notable	-11.0907
▁incident	-11.0912
▁economical	-11.0919
▁55	-11.0921
▁corresponds	-11.0922
▁pressures	-11.0925
▁Acton	-11.0925
▁counted	-11.0925
▁Z	-11.0928
▁Andrew	-11.0929
▁53	-11.093
▁plausible	-11.0932
▁inheritance	-11.0933
▁loaned	-11.0934
▁theorem	-11.0937
▁Reform	-11.0939
▁Sunday	-11.0942
op	-11.0944
▁hair	-11.0946
▁•	-11.0947
▁pursuing	-11.0947
▁stockholders	-11.095
▁input	-11.0952
▁scholar	-11.0955
▁supplying	-11.0961
▁Greece	-11.0963
▁improving	-11.0964
▁pick	-11.0965
▁accurately	-11.0967
▁behave	-11.097
▁oneself	-11.0978
▁plane	-11.0981
「	-11.0982
▁withdrawn	-11.0986
▁volumes	-11.0987
▁pleasures	-11.0991
▁criteria	-11.0992
▁dramatic	-11.0993
▁Rousseau	-11.0993
▁Lawrence	-11.0995
tax	-11.0997
democratic	-11.0997
▁participate	-11.0999
▁95	-11.0999
▁structures	-11.1
▁mighty	-11.1
▁compensate	-11.1005
political	-11.1006
▁Tory	-11.1015
▁Bismarck	-11.1022
▁McKinley	-11.1023
▁diversity	-11.1023
▁outbreak	-11.1023
▁enters	-11.1028
▁1870	-11.1032
▁contradict	-11.1033
▁wind	-11.1033
have	-11.1037
▁domination	-11.1039
▁Samuelson	-11.1039
▁marketplace	-11.1041
October	-11.1043
▁inability	-11.1048
▁striving	-11.105
▁classification	-11.105
政	-11.105
▁1880	-11.1053
▁Gordon	-11.1053
▁bourgeoisie	-11.1055
▁Rand	-11.1057
▁Norman	-11.1057
.10	-11.1058
▁obstacle	-11.1064
▁attitudes	-11.1066
▁tickets	-11.1067
▁undertaking	-11.1067
▁contemporaries	-11.1068
▁participation	-11.1068
▁destroying	-11.1069
▁Making	-11.107
▁wave	-11.107
seeking	-11.1074
▁lent	-11.1075
▁truths	-11.1076
▁disadvantage	-11.1077
▁admission	-11.1083
▁Wicksell	-11.1084
▁51	-11.109
▁educated	-11.1091
▁initially	-11.1092
▁footnote	-11.1095
▁16,	-11.1095
lo	-11.1096
ors	-11.1098
▁epistemological	-11.1099
▁Swiss	-11.1099
▁halt	-11.1103
only	-11.1103
▁addressed	-11.1107
▁proponents	-11.111
dis	-11.111
▁High	-11.1112
▁thanks	-11.1114
▁Take	-11.1114
▁nobility	-11.1116
November	-11.112
這	-11.1126
▁levied	-11.1128
▁nowadays	-11.1129
▁Your	-11.1129
productive	-11.113
25	-11.1132
▁arguing	-11.1144
▁clean	-11.1145
▁depreciated	-11.1146
▁foregoing	-11.1147
▁walked	-11.115
▁attach	-11.1153
▁tribes	-11.1156
▁operates	-11.1161
▁recognizes	-11.1162
▁1946	-11.1165
▁skilled	-11.1171
時	-11.1172
▁soldier	-11.1174
▁Hopkins	-11.1175
▁districts	-11.1176
▁resolved	-11.1177
▁Income	-11.1178
▁thin	-11.1179
▁attended	-11.1181
▁thorough	-11.1186
▁caste	-11.1188
▁freight	-11.119
▁Crisis	-11.119
▁Study	-11.119
▁target	-11.119
▁presidency	-11.1191
▁released	-11.1193
▁30,	-11.1194
ger	-11.1194
▁temptation	-11.1203
▁sister	-11.1203
▁cultivation	-11.1205
▁square	-11.1216
go	-11.1216
world	-11.1216
▁Chamber	-11.1219
▁drastic	-11.122
▁cabinet	-11.1221
▁observer	-11.1221
▁corrupt	-11.1224
▁geographical	-11.1233
▁ch	-11.1234
▁unequal	-11.1234
relating	-11.1236
▁Delaware	-11.1237
▁Frederick	-11.1237
中	-11.1238
▁criminals	-11.1244
▁nationality	-11.1247
▁Fort	-11.1251
▁angry	-11.1251
line	-11.1252
▁exhausted	-11.1254
▁persuade	-11.1265
▁emotional	-11.1265
▁proprietors	-11.1266
▁chronic	-11.1269
▁Little	-11.127
▁expressions	-11.1279
▁Era	-11.128
▁documents	-11.1281
▁deciding	-11.1282
▁reap	-11.1284
▁impressed	-11.1285
▁file	-11.1288
▁na	-11.1292
▁imagined	-11.1293
▁Treaty	-11.1298
▁Chief	-11.1302
▁winning	-11.1304
▁veto	-11.1307
▁vicious	-11.1312
▁obedience	-11.1314
11	-11.1314
▁formulated	-11.1318
▁organic	-11.1324
▁prepare	-11.1325
▁Years	-11.1326
▁judged	-11.1326
▁Convention	-11.1328
▁stone	-11.1328
▁migration	-11.133
▁absurdity	-11.1331
▁0	-11.1333
▁residents	-11.1336
▁favour	-11.1342
▁orientation	-11.1345
▁150	-11.1346
▁depressions	-11.1346
▁Taylor	-11.1347
▁gathered	-11.1348
▁47	-11.1349
▁promoted	-11.1354
▁accumulate	-11.1355
▁(17	-11.1359
▁Prince	-11.1359
▁Marxists	-11.136
▁decrees	-11.1361
▁consuming	-11.1363
▁landowners	-11.1379
▁hate	-11.138
ex	-11.1381
▁publicly	-11.1383
▁sheer	-11.139
▁permissible	-11.1393
▁Sometimes	-11.1393
▁disequilibrium	-11.1395
▁fulfilled	-11.1398
▁provinces	-11.1404
▁graduate	-11.1405
ance	-11.1406
▁component	-11.1407
▁suspension	-11.1408
▁treaties	-11.1408
▁reasonably	-11.1411
▁traced	-11.1412
▁brain	-11.1414
two	-11.1415
▁prejudice	-11.142
▁window	-11.1422
▁engaging	-11.1423
▁Eugen	-11.1423
▁44	-11.1423
▁Michigan	-11.1424
▁assembly	-11.1424
▁studying	-11.1424
用	-11.1428
▁earners	-11.1432
▁mob	-11.1448
▁languages	-11.1449
▁8.	-11.1452
An	-11.1454
▁Hawaii	-11.1454
▁distress	-11.1454
▁receipt	-11.1455
▁affair	-11.1462
▁complain	-11.1464
▁ample	-11.1465
▁consisting	-11.147
▁mobility	-11.147
▁superfluous	-11.1471
▁workmen	-11.1471
▁Vietnam	-11.1471
▁Senior	-11.1472
▁Irving	-11.1473
▁forecast	-11.1473
▁spoken	-11.1479
▁rivals	-11.1481
▁withdrawal	-11.1487
▁Wagner	-11.1488
▁foot	-11.1488
▁Pareto	-11.1489
▁transform	-11.149
Paris	-11.1494
▁cooperate	-11.1499
▁Railroad	-11.1503
▁Plato	-11.1503
▁Defense	-11.1504
▁reaching	-11.1504
▁conceded	-11.1505
▁shock	-11.1506
▁im	-11.1507
▁instructions	-11.1511
▁continual	-11.1514
▁vehicle	-11.1518
▁efficiently	-11.1522
▁Simon	-11.1523
▁Relations	-11.1524
▁declares	-11.1524
▁flight	-11.1524
▁mysterious	-11.1531
▁navy	-11.1534
▁submitted	-11.1534
▁interaction	-11.1534
▁counties	-11.1534
▁convertible	-11.1538
▁sick	-11.1545
▁asserts	-11.1545
▁Works	-11.1547
▁resorted	-11.1549
▁council	-11.1551
▁placing	-11.1552
▁invited	-11.1552
▁tiny	-11.1553
▁smooth	-11.156
▁Others	-11.1562
▁divide	-11.1563
hand	-11.1565
▁shifts	-11.1574
▁Problems	-11.1576
under	-11.1579
▁foresight	-11.158
▁deflationary	-11.1585
▁persuaded	-11.1585
▁select	-11.1589
▁adopting	-11.1594
▁refute	-11.1595
▁deserves	-11.1599
▁arranged	-11.1601
▁Three	-11.1603
▁busy	-11.1615
▁disposed	-11.162
▁indifferent	-11.162
▁exceptional	-11.1625
▁1941,	-11.1625
▁investigate	-11.1627
▁pretend	-11.1627
except	-11.163
▁Eisenhower	-11.163
▁anyway	-11.1632
▁station	-11.1642
▁obscure	-11.1643
▁regularity	-11.1647
▁ticket	-11.1649
▁claiming	-11.165
▁occupy	-11.1654
▁continent	-11.1663
▁magazine	-11.1664
▁speeches	-11.1669
▁princes	-11.1671
ownership	-11.1674
▁inherently	-11.1675
▁revolutions	-11.1677
▁sensible	-11.1679
▁promotion	-11.1679
▁Q	-11.1684
▁block	-11.1686
because	-11.1687
scientific	-11.1688
▁18,	-11.1692
▁1931	-11.1694
▁salvation	-11.1695
▁stories	-11.1695
▁refrain	-11.1697
▁liked	-11.1701
▁Several	-11.171
▁boss	-11.1711
▁frontier	-11.1712
▁trends	-11.1715
▁desperate	-11.1723
▁Service	-11.1728
▁dependence	-11.1729
▁reign	-11.173
▁1933.	-11.1731
▁Young	-11.1735
▁spends	-11.1736
▁objected	-11.1742
▁textbook	-11.1745
▁qualified	-11.1745
when	-11.1747
▁predictions	-11.1751
▁enthusiastic	-11.1752
▁decreases	-11.1755
▁believing	-11.1759
▁painful	-11.1761
▁52	-11.1763
▁furnished	-11.1764
monetary	-11.1767
Auburn	-11.1769
▁amazing	-11.1772
▁hopeless	-11.1773
▁parliamentary	-11.1776
▁beauty	-11.1776
▁describing	-11.1776
▁AND	-11.1782
▁pains	-11.179
▁allocate	-11.179
▁Florida	-11.1792
▁advocating	-11.1793
▁suppress	-11.1793
出	-11.1796
▁28,	-11.1797
▁Commons	-11.1797
▁drink	-11.18
▁61	-11.18
▁patent	-11.1803
▁untenable	-11.1808
▁abandonment	-11.1809
▁stationary	-11.181
▁comparable	-11.181
▁concessions	-11.181
▁transfers	-11.1812
▁tribe	-11.1812
▁enjoys	-11.1815
▁doctors	-11.1822
▁investing	-11.1824
▁minorities	-11.1825
▁collateral	-11.1826
▁seat	-11.1828
▁Congressional	-11.1828
ber	-11.1833
▁admits	-11.1833
▁reserved	-11.1836
美	-11.1839
▁limiting	-11.184
▁apt	-11.184
▁drove	-11.1841
▁unavoidable	-11.1842
▁breakdown	-11.1843
▁suspicion	-11.1844
▁ocean	-11.1844
▁evaluation	-11.1846
▁helpful	-11.1855
▁license	-11.1858
▁nowhere	-11.1859
▁favors	-11.186
▁Whenever	-11.1861
▁ending	-11.1865
▁feels	-11.1868
▁metaphysical	-11.1876
▁Hill	-11.1884
▁optimal	-11.1885
half	-11.1888
▁unsound	-11.1889
▁worship	-11.189
▁uneasiness	-11.1891
▁seminar	-11.1892
▁exceeds	-11.1892
▁furnish	-11.1892
▁fascism	-11.1892
▁passes	-11.1898
As	-11.1899
▁bias	-11.1901
▁semi	-11.1907
▁arbitration	-11.1907
▁complexity	-11.1909
▁doubtless	-11.191
▁arrested	-11.1911
▁illustrated	-11.1911
▁inputs	-11.1912
▁Had	-11.1917
Boston	-11.1917
demand	-11.1918
▁vigorous	-11.1919
▁mercantilist	-11.1921
▁72	-11.1923
▁Chase	-11.1923
▁notwithstanding	-11.1925
▁Economist	-11.1926
▁originated	-11.1926
▁authorized	-11.1926
▁appointment	-11.1928
▁Inc	-11.1936
▁conditioned	-11.1938
23	-11.1939
▁recipients	-11.194
▁necessities	-11.1941
▁1937.	-11.1947
▁loved	-11.1956
▁multiplied	-11.1956
▁hotel	-11.196
German	-11.1967
▁comfort	-11.1968
▁sleep	-11.1969
▁Bretton	-11.1973
▁Nixon	-11.1974
▁threats	-11.1981
▁insure	-11.1981
▁regional	-11.1982
▁56	-11.1982
▁declining	-11.199
▁exchanging	-11.199
▁Between	-11.1992
▁9.	-11.1992
▁assurance	-11.1995
▁sanctions	-11.1999
▁strive	-11.2007
▁1935.	-11.2008
▁delivery	-11.2008
▁lengthy	-11.2013
▁Whig	-11.2014
▁roots	-11.2015
▁foolish	-11.2018
▁tactics	-11.2021
▁Grove	-11.2023
▁starvation	-11.2024
▁separately	-11.2026
▁communists	-11.2028
▁amounted	-11.2028
▁innovations	-11.2031
▁dry	-11.2031
au	-11.2037
some	-11.2037
▁Industry	-11.2041
▁organism	-11.2047
▁elasticity	-11.2048
▁doubts	-11.2053
▁menace	-11.2054
▁generous	-11.2055
▁passages	-11.2056
▁comparing	-11.2056
▁varied	-11.2057
▁upset	-11.206
▁conform	-11.206
▁kingdom	-11.2063
▁importantly	-11.2065
▁17,	-11.2066
ns	-11.207
▁disintegration	-11.2073
▁Kant	-11.2074
▁refutation	-11.2075
▁affecting	-11.2076
▁aristocratic	-11.2078
▁condemn	-11.2079
▁elaborated	-11.208
February	-11.2084
▁hearing	-11.2085
▁rebels	-11.2088
▁confiscation	-11.209
▁imposition	-11.2091
▁prolonged	-11.2093
▁Der	-11.2095
▁anticipation	-11.2096
▁commitment	-11.2096
▁wall	-11.2096
▁surpluses	-11.21
▁rhetoric	-11.21
▁Was	-11.2101
July	-11.2102
▁21,	-11.2102
▁diminution	-11.2107
▁signal	-11.211
▁Jacob	-11.2113
▁inflated	-11.2116
▁associates	-11.212
.”1	-11.2125
▁conversion	-11.2127
▁à	-11.2127
▁20,	-11.2129
were	-11.2134
▁1932,	-11.2135
▁Labour	-11.2139
▁strategic	-11.2143
▁advancing	-11.2147
▁shelter	-11.2149
▁wing	-11.2152
full	-11.2153
▁discretion	-11.2157
▁summary	-11.2157
▁defining	-11.2159
▁frankly	-11.2159
▁extending	-11.2161
與	-11.2161
▁modes	-11.2164
▁predecessors	-11.2164
▁chemical	-11.2165
▁minute	-11.2174
▁Yeager	-11.2178
▁Governments	-11.2181
der	-11.2183
▁1953	-11.2186
▁suppression	-11.2192
▁candidates	-11.2194
▁solutions	-11.2195
▁enacted	-11.2195
▁messages	-11.2197
▁flows	-11.2201
Princeton	-11.2203
▁Christ	-11.2204
▁robbery	-11.2212
▁churches	-11.2213
▁Were	-11.2215
▁peasant	-11.2216
▁borne	-11.2216
ible	-11.2217
▁respected	-11.2223
▁dare	-11.2224
▁textbooks	-11.2224
▁maturity	-11.2226
▁defects	-11.2231
▁attacking	-11.2231
▁friendship	-11.2232
▁feed	-11.2233
▁parent	-11.2235
▁presently	-11.2236
▁Royal	-11.2237
▁Confederation	-11.2243
▁swept	-11.2243
▁anarchism	-11.2244
▁VI	-11.2253
▁Philip	-11.2253
▁Day	-11.2255
▁environmental	-11.2259
▁agitation	-11.226
dollar	-11.2261
▁encouragement	-11.2261
▁column	-11.2266
▁reaches	-11.2266
▁idleness	-11.2268
▁Common	-11.2275
▁defensive	-11.2275
▁Chamberlain	-11.2277
▁Tocqueville	-11.2278
▁labourers	-11.2282
▁variation	-11.2284
id	-11.2288
▁consciously	-11.229
▁storm	-11.2296
▁contest	-11.2298
wage	-11.23
▁None	-11.2301
▁Table	-11.2303
▁departments	-11.2309
▁scholarly	-11.2315
ü	-11.2321
▁rain	-11.2328
▁Walker	-11.2329
1,	-11.2329
▁estates	-11.2337
▁engine	-11.2338
based	-11.2338
▁modified	-11.2346
▁optimum	-11.2349
▁dress	-11.235
▁67	-11.2352
▁counterfeiting	-11.2353
▁importation	-11.2354
▁suffers	-11.2354
▁doomed	-11.2364
▁Everything	-11.2365
▁expresses	-11.2367
▁adequately	-11.2373
▁safely	-11.2373
▁comparisons	-11.2376
▁71	-11.2376
▁Inquiry	-11.238
▁militarism	-11.2381
▁usage	-11.2383
▁returning	-11.2385
▁25,	-11.2385
▁lying	-11.2392
▁anarchy	-11.2392
▁decreased	-11.2393
▁track	-11.2396
▁Scotland	-11.2398
▁release	-11.2401
▁reactions	-11.2403
▁crops	-11.2403
▁centralization	-11.2404
▁coalition	-11.2406
▁Trust	-11.2406
▁hoarding	-11.2409
August	-11.241
▁fifth	-11.2414
▁navigation	-11.2416
▁injured	-11.2417
▁occasions	-11.2424
union	-11.2426
▁imperfect	-11.2431
▁di	-11.2431
▁joy	-11.2433
▁k	-11.2435
▁dignity	-11.2436
▁bare	-11.244
▁sanction	-11.2444
▁competent	-11.2448
▁Daniel	-11.2451
▁Throughout	-11.2452
▁socialization	-11.2452
▁happening	-11.2452
ig	-11.2453
▁violated	-11.2453
▁listen	-11.2453
▁1922	-11.2453
▁embrace	-11.2455
▁paradigm	-11.2459
▁react	-11.246
▁ice	-11.2462
▁assign	-11.2464
▁bed	-11.2465
▁payable	-11.2466
▁contradictions	-11.2471
▁Publishers	-11.2472
▁mail	-11.2476
▁ministers	-11.2481
▁aided	-11.2488
long	-11.2489
▁Knox	-11.2503
▁Colonel	-11.2504
▁500	-11.2507
▁forming	-11.2508
And	-11.2509
▁perception	-11.2511
Hayek	-11.2514
▁faces	-11.2517
▁guilt	-11.2519
“	-11.2521
▁disturbed	-11.2523
▁elites	-11.2534
▁tribute	-11.254
cf	-11.2543
▁Goods	-11.2551
▁termed	-11.2564
▁reluctant	-11.2569
▁earliest	-11.2572
30	-11.2576
▁prediction	-11.2582
▁ante	-11.2588
▁clarity	-11.259
▁Prohibition	-11.259
▁practiced	-11.2591
▁inherited	-11.2591
▁initiated	-11.2592
▁film	-11.2596
▁worldwide	-11.2599
▁assessment	-11.26
▁Antifederalists	-11.2605
▁facto	-11.2606
ship	-11.2609
way	-11.2609
▁Jean	-11.261
▁Moscow	-11.2612
▁south	-11.2616
-19	-11.2619
let	-11.2622
▁dealers	-11.2623
▁brand	-11.2624
▁fraudulent	-11.2624
house	-11.2624
▁stimulus	-11.2628
▁overthrow	-11.2629
▁employs	-11.263
▁organizing	-11.263
▁29,	-11.2634
▁struggles	-11.2637
ö	-11.2638
especially	-11.2639
▁incorrect	-11.2644
▁schedules	-11.2646
▁disadvantages	-11.2647
▁boys	-11.2653
Nationalökonomie	-11.2656
percent	-11.2657
▁hailed	-11.2664
▁analogous	-11.2668
▁innumerable	-11.2671
▁securing	-11.2679
▁Center	-11.268
▁romantic	-11.2681
▁sixteenth	-11.2681
▁Indies	-11.2682
▁rationally	-11.2684
▁individualist	-11.2684
▁variables	-11.2685
▁Sons	-11.2689
▁faire	-11.2691
▁Bo	-11.2692
▁counts	-11.2693
▁stems	-11.2693
▁nationalization	-11.2694
ating	-11.2695
▁Prime	-11.2695
▁preserving	-11.2698
▁pushing	-11.2699
▁conservatism	-11.2701
▁forbidden	-11.2701
▁discourage	-11.2702
▁reversed	-11.2705
▁manuscript	-11.2707
▁Articles	-11.2713
▁guidance	-11.2715
▁Cato	-11.2721
▁subsidized	-11.2724
▁Constitutional	-11.2725
▁doubled	-11.2726
▁devaluation	-11.2727
▁silence	-11.2729
▁magic	-11.273
▁paradox	-11.2735
▁13,	-11.2736
▁85	-11.2736
▁subsidize	-11.2739
à	-11.2747
▁Powers	-11.2747
▁stick	-11.2749
▁legitimacy	-11.2752
▁coast	-11.2752
▁suspended	-11.2755
▁pseudo	-11.2756
▁refuted	-11.2757
▁telephone	-11.2757
▁violate	-11.2757
▁26,	-11.2758
third	-11.2758
▁1921	-11.2766
▁ultra	-11.277
pe	-11.2774
▁bitterly	-11.2775
▁concentrate	-11.2775
▁preparation	-11.2779
general	-11.2779
▁sustain	-11.2782
▁dealings	-11.2782
▁59	-11.2784
▁farming	-11.2785
▁biggest	-11.2787
▁Leonard	-11.2787
▁penalties	-11.2787
tion	-11.2787
▁carries	-11.2787
▁sacred	-11.2787
▁restrain	-11.2797
▁alert	-11.28
▁64	-11.2802
▁label	-11.2804
▁earns	-11.2807
▁references	-11.2809
▁Index	-11.2824
▁blue	-11.2826
▁grade	-11.2826
▁Very	-11.2829
▁Apart	-11.283
▁Das	-11.2833
▁glance	-11.2833
▁catallactic	-11.2835
▁giant	-11.2836
▁dear	-11.2836
▁Secondly	-11.2839
▁insists	-11.2841
▁Allies	-11.2846
▁denial	-11.2847
▁120	-11.2849
▁benefited	-11.2854
▁fellows	-11.2855
▁develops	-11.2856
▁relevance	-11.2859
▁commonwealth	-11.286
▁urging	-11.2861
▁Lewis	-11.2862
▁possessions	-11.2862
▁economizing	-11.2865
▁58	-11.2868
▁restaurant	-11.287
▁Real	-11.2871
▁Sea	-11.2873
▁freed	-11.2874
▁1896	-11.2876
▁sociological	-11.2876
▁declaring	-11.2877
▁pernicious	-11.2878
▁Walras	-11.2878
▁eating	-11.2882
▁Gen	-11.2882
use	-11.2882
▁conquered	-11.2883
▁Ch	-11.2884
▁exported	-11.2884
▁club	-11.289
▁notably	-11.2891
▁rigorous	-11.2892
▁protectionist	-11.2892
▁availability	-11.2897
▁Tokyo	-11.2897
▁commander	-11.2898
▁meantime	-11.2901
▁bother	-11.2909
▁camps	-11.2912
▁Monopoly	-11.2917
▁proletarian	-11.2918
▁disturbing	-11.292
▁facilitate	-11.2922
▁22,	-11.2924
▁suited	-11.2925
▁paragraph	-11.2926
▁Kansas	-11.2928
▁municipal	-11.2929
▁routine	-11.2929
▁cumulative	-11.2929
▁rough	-11.2932
▁mouth	-11.2932
▁pronounced	-11.2933
▁sounds	-11.2938
▁mis	-11.2938
▁tide	-11.2939
▁thereafter	-11.2943
▁increment	-11.2946
▁reparations	-11.2947
▁disagree	-11.2948
▁eliminating	-11.2951
▁Theodore	-11.2953
▁expects	-11.2959
▁blamed	-11.2961
▁instincts	-11.2963
▁Gustav	-11.2963
▁Al	-11.2963
▁unwilling	-11.2967
▁connections	-11.2968
▁Kelley	-11.2969
▁unprofitable	-11.2969
▁talents	-11.297
▁rewards	-11.297
▁identity	-11.297
▁Wilhelm	-11.2971
▁files	-11.2971
▁coerced	-11.2972
ung	-11.2973
▁shortages	-11.2974
▁relieve	-11.2974
▁54	-11.2975
▁confine	-11.2976
▁manipulation	-11.2981
▁speculator	-11.2982
▁Dis	-11.2982
▁1923	-11.2988
▁19,	-11.2988
▁displayed	-11.2994
▁dates	-11.2994
▁belonging	-11.3
▁fictitious	-11.3006
▁tone	-11.3007
▁Machlup	-11.3007
▁embark	-11.3009
▁weakened	-11.3009
▁99	-11.3013
▁subsequently	-11.3015
▁62	-11.3016
▁drinking	-11.3017
▁editorial	-11.3018
2,	-11.3023
▁Division	-11.3024
▁Joint	-11.3024
▁Utility	-11.3026
▁surrounded	-11.3026
▁imposes	-11.3034
▁Reason	-11.3035
▁1939.	-11.3036
▁indication	-11.3037
▁hiring	-11.3042
▁formidable	-11.3042
▁turnover	-11.3045
▁officially	-11.3047
ä	-11.3048
.12	-11.3056
four	-11.3058
▁analytical	-11.3059
▁resentment	-11.3061
▁Mitchell	-11.3062
▁Nazism	-11.3063
▁threatening	-11.3071
▁Control	-11.3078
資	-11.3081
–9	-11.3082
▁profitability	-11.3083
▁luck	-11.3083
▁partners	-11.3084
▁depended	-11.3085
▁81	-11.3089
▁questioned	-11.3091
▁covering	-11.3092
anti	-11.3097
40	-11.3099
▁overlook	-11.3099
▁Unemployment	-11.31
▁externalities	-11.3101
▁whereby	-11.3101
上	-11.3102
work	-11.3102
–17	-11.3108
▁burdens	-11.3109
▁directing	-11.3111
▁makers	-11.3112
▁Proudhon	-11.3114
.11	-11.3116
▁earthly	-11.3116
▁encouraging	-11.3117
▁Read	-11.3117
▁diverse	-11.3118
li	-11.3118
▁driver	-11.3118
▁27,	-11.312
▁sheet	-11.3121
▁usury	-11.3122
▁reactionary	-11.3126
ard	-11.3129
▁ambition	-11.313
▁77	-11.3132
▁1939	-11.3133
▁1913	-11.3135
-18	-11.3136
▁Almost	-11.3137
▁appropriated	-11.3137
▁match	-11.3141
po	-11.3145
rent	-11.3146
▁harsh	-11.3146
▁bridge	-11.3151
well	-11.3152
private	-11.3152
▁Theorie	-11.3152
▁refusing	-11.3154
▁decentralized	-11.3154
▁Missouri	-11.3155
ad	-11.3155
▁formally	-11.3157
most	-11.3159
▁forest	-11.3163
▁es	-11.317
▁glory	-11.3173
▁unified	-11.3175
▁guarantees	-11.3176
▁24,	-11.3177
▁codes	-11.3179
▁tea	-11.318
▁theoretically	-11.3183
▁subordinate	-11.3185
▁scholarship	-11.3187
▁ardent	-11.3188
家	-11.3192
▁occurring	-11.3192
▁Establishment	-11.3193
▁About	-11.3195
▁Tom	-11.3197
▁1929,	-11.3206
▁si	-11.3207
▁box	-11.3209
▁worried	-11.321
▁sectors	-11.3211
▁Lloyd	-11.3211
▁mountain	-11.3211
▁stuff	-11.3211
▁captured	-11.3213
▁Has	-11.3218
too	-11.322
▁Lange	-11.3223
▁illegitimate	-11.3225
▁deduction	-11.3226
▁Sense	-11.3229
▁ethnic	-11.3232
▁owes	-11.3233
▁apples	-11.3238
▁origins	-11.3245
▁82	-11.3245
▁assistant	-11.3246
▁conspicuous	-11.3248
▁devastating	-11.3248
▁comfortable	-11.3249
▁gambling	-11.325
▁peacetime	-11.3253
▁Pope	-11.3256
▁touched	-11.3257
▁advised	-11.3257
▁criticize	-11.326
以	-11.3264
▁surrounding	-11.3266
▁lacked	-11.3268
ni	-11.3271
▁handle	-11.3277
▁boycott	-11.3287
▁Nock	-11.3288
▁Cooke	-11.329
▁1938.	-11.3294
▁conspiracy	-11.3295
55	-11.3296
▁qua	-11.3297
▁platform	-11.3301
▁unexpected	-11.3301
trade	-11.3302
Spring	-11.3303
▁fun	-11.3304
▁Routledge	-11.3305
▁instructive	-11.3305
▁civilian	-11.3306
▁Section	-11.3307
▁Changes	-11.3317
▁sympathetic	-11.3324
▁Sam	-11.3324
▁empiricism	-11.3325
▁undesirable	-11.3325
▁mentality	-11.3326
▁regulatory	-11.3326
個	-11.3329
▁approached	-11.3332
▁yes	-11.3333
▁rush	-11.3334
order	-11.3334
saving	-11.3342
▁yesterday	-11.3343
▁Road	-11.3344
▁facing	-11.3345
▁colonists	-11.3348
▁infinitely	-11.335
▁occasional	-11.3351
▁1919	-11.3354
▁concede	-11.3356
▁slogan	-11.3359
▁Los	-11.3359
ow	-11.3365
▁Augustus	-11.3366
▁artist	-11.3367
▁lacks	-11.3368
▁recorded	-11.337
▁shops	-11.3379
▁adult	-11.338
▁salt	-11.3381
▁compelling	-11.3381
▁Greenspan	-11.3382
▁intervene	-11.3384
▁utilized	-11.3385
▁theorems	-11.3387
▁enlightened	-11.3387
All	-11.3391
▁approve	-11.3394
▁monthly	-11.3396
ti	-11.3398
▁concession	-11.3398
▁adverse	-11.3399
▁El	-11.3402
▁narrower	-11.3408
had	-11.3409
▁Jim	-11.341
▁ratification	-11.3419
▁conscription	-11.3419
▁optimism	-11.3421
▁Enterprise	-11.3423
▁regulating	-11.3426
▁pleased	-11.3426
50	-11.3429
▁legislators	-11.3434
▁precision	-11.3439
marginal	-11.3439
▁TV	-11.344
▁Röpke	-11.3441
▁absorb	-11.3444
▁premise	-11.3452
▁weekly	-11.3455
▁arrival	-11.3458
▁Investment	-11.3459
▁closing	-11.346
▁68	-11.3462
▁positivism	-11.3464
say	-11.3466
om	-11.3467
how	-11.3472
▁Australia	-11.3473
▁78	-11.3473
When	-11.3475
▁reconstruction	-11.3477
▁reliable	-11.3478
▁Stephen	-11.3479
▁Galt	-11.3479
▁suggestions	-11.3479
▁Fascism	-11.348
▁Ely	-11.3483
▁analyzing	-11.3486
▁users	-11.349
▁successor	-11.3493
我們	-11.3503
▁pool	-11.3508
▁default	-11.3511
▁lessons	-11.3511
▁presidents	-11.3511
▁inappropriate	-11.3514
▁supports	-11.3514
▁oligarchy	-11.3516
▁personnel	-11.3516
▁Calculation	-11.3517
▁fashionable	-11.3518
▁mercantilism	-11.3519
▁offensive	-11.352
▁evolved	-11.352
00	-11.3533
▁humans	-11.3535
▁intellect	-11.3535
▁discoveries	-11.3536
▁bidding	-11.3538
▁marketable	-11.3544
▁inspiration	-11.3546
then	-11.3548
▁season	-11.3549
▁conflicting	-11.3552
▁convenience	-11.3554
▁preparing	-11.3555
▁recognizing	-11.3555
▁accessible	-11.3555
▁odd	-11.3555
ians	-11.3561
▁strengthen	-11.3562
▁talent	-11.357
品	-11.3571
▁band	-11.3573
Hermann	-11.3574
▁(4)	-11.3574
▁Reichsbank	-11.3574
▁celebrated	-11.3576
▁pictures	-11.3578
▁disciples	-11.3579
▁unfavorable	-11.3581
▁investor	-11.3582
▁reductions	-11.3587
▁subtle	-11.3592
▁liquor	-11.3593
▁entities	-11.3594
▁Scott	-11.3595
▁plot	-11.3595
▁Ralph	-11.3595
▁Whoever	-11.3596
▁instability	-11.3602
▁ties	-11.3602
▁magnitudes	-11.3604
▁Baltimore	-11.3604
▁1848	-11.3611
▁purposeful	-11.3613
▁spreading	-11.3615
▁Demand	-11.3616
▁Women	-11.3617
▁Whereas	-11.3619
▁Andrews	-11.3619
________________	-11.3622
▁1932	-11.3631
sided	-11.3632
Ludwig	-11.3633
▁Club	-11.3633
▁measuring	-11.3634
▁barely	-11.3637
▁lots	-11.3646
▁pleasant	-11.365
▁causality	-11.3654
▁prohibitions	-11.3655
▁liquidation	-11.3655
▁Knowledge	-11.3656
▁Which	-11.3656
▁conformity	-11.3656
38	-11.3662
ip	-11.3665
▁Netherlands	-11.3667
▁funding	-11.367
▁rationality	-11.3679
▁engineer	-11.368
▁burning	-11.368
▁accidental	-11.3681
De	-11.3687
▁deserve	-11.3689
business	-11.3692
▁vertical	-11.3693
▁mechanics	-11.3702
pro	-11.3709
ick	-11.3711
▁wanting	-11.3712
Economic	-11.3712
▁insistence	-11.3712
▁testing	-11.3716
▁approaching	-11.3717
▁differential	-11.372
▁grains	-11.3727
▁convincing	-11.3728
▁traditions	-11.373
▁conceptual	-11.373
▁dogma	-11.3731
▁traded	-11.3731
▁continuation	-11.3732
▁promising	-11.3733
▁loyalty	-11.3734
▁assist	-11.3734
inflation	-11.3739
▁compensated	-11.374
banking	-11.375
▁lifetime	-11.375
▁shortcomings	-11.375
thirds	-11.3752
▁wake	-11.3752
▁exclusion	-11.3771
▁spurious	-11.3772
▁cardinal	-11.3773
▁afterwards	-11.3773
▁Jack	-11.3774
-4	-11.3774
▁potentially	-11.3774
▁establishes	-11.3781
▁1936	-11.3783
▁fees	-11.3786
her	-11.3786
▁decreasing	-11.3792
▁tending	-11.3794
pre	-11.3794
▁aggressor	-11.3794
▁worthless	-11.3794
▁green	-11.3797
▁complained	-11.3798
▁expressing	-11.3801
▁terror	-11.3807
▁Wages	-11.3808
▁east	-11.3813
▁pocket	-11.3813
▁exaggerated	-11.3813
33	-11.3813
Re	-11.3814
▁designated	-11.3815
▁utilitarianism	-11.3816
▁convey	-11.3817
▁lag	-11.3818
its	-11.382
▁11.	-11.382
ph	-11.3823
▁resolve	-11.3828
經濟	-11.3829
▁Sweden	-11.3831
although	-11.3834
▁gaining	-11.3837
▁stimulated	-11.3838
▁flood	-11.3838
▁avail	-11.3839
▁quarters	-11.3844
▁ridiculous	-11.3848
▁Hungary	-11.3851
▁rejects	-11.3851
▁Using	-11.3853
▁sur	-11.3853
▁harder	-11.3853
.15	-11.386
▁corner	-11.3861
▁forecasting	-11.3863
▁belonged	-11.3863
▁pull	-11.3865
▁ignores	-11.3871
▁Up	-11.3871
▁cognition	-11.3871
iv	-11.3871
▁folly	-11.3872
▁conventions	-11.3873
▁greed	-11.3874
▁GDP	-11.3874
▁Commercial	-11.3874
▁senses	-11.3876
▁praised	-11.3879
▁reciprocal	-11.3888
▁Iron	-11.3889
▁1830	-11.3892
▁sitting	-11.3894
▁Soon	-11.3897
▁artisans	-11.3897
▁thinker	-11.39
▁yielded	-11.3902
▁asserting	-11.3903
▁23,	-11.3905
▁ambassador	-11.3909
▁advent	-11.3911
▁Chancellor	-11.3912
without	-11.3914
▁Peel	-11.3915
▁Howard	-11.3915
▁proprietor	-11.3915
▁strongest	-11.3916
▁pair	-11.3917
▁likes	-11.3917
ibid	-11.3917
▁Method	-11.3917
▁fed	-11.3918
▁findings	-11.3923
▁brutal	-11.3927
▁73	-11.3929
▁verbal	-11.3931
▁Fortunately	-11.3932
▁Patrick	-11.3933
▁soft	-11.3936
▁disciplines	-11.3936
▁missing	-11.3938
▁stake	-11.3947
▁Work	-11.3948
▁stabilize	-11.395
▁Safford	-11.3952
▁Constant	-11.3954
▁girls	-11.3955
▁[1]	-11.3959
▁publishing	-11.3961
▁engineering	-11.3961
La	-11.3963
capitalist	-11.3965
▁collapsed	-11.3966
▁norms	-11.3968
▁distinctions	-11.3971
▁denies	-11.3973
▁Franz	-11.3973
▁meanwhile	-11.3973
▁permitting	-11.3973
▁stating	-11.3977
▁strengthened	-11.3978
▁Selgin	-11.3978
▁Four	-11.3978
▁franc	-11.3987
▁recommendations	-11.3989
▁Ronald	-11.3995
▁enforcing	-11.3996
▁endorsed	-11.3999
▁naive	-11.4009
ut	-11.4009
responsibilities	-11.4013
▁1932.	-11.4015
ac	-11.4016
▁ventures	-11.402
▁Profit	-11.4023
▁unionism	-11.403
▁publish	-11.4032
▁Louisiana	-11.4033
▁threw	-11.4033
▁Otherwise	-11.4034
▁Unlike	-11.4034
▁Bernard	-11.4035
▁Anyone	-11.4035
▁phone	-11.4038
▁republican	-11.404
▁picked	-11.4044
▁fired	-11.4048
▁trusts	-11.4051
▁simplest	-11.406
▁landlords	-11.4062
▁harvest	-11.4063
▁warm	-11.4065
▁declines	-11.4067
sch	-11.407
▁skin	-11.4072
se	-11.4074
▁Regnery	-11.4076
▁ambitious	-11.4076
▁consistency	-11.4076
▁grounded	-11.4076
▁draws	-11.4076
▁beat	-11.408
▁challenged	-11.4083
▁communal	-11.4083
▁avoiding	-11.4084
▁63	-11.4085
60	-11.4089
▁Per	-11.4091
▁heat	-11.4093
▁stupid	-11.4095
▁convictions	-11.4095
▁57	-11.4098
▁subjectivist	-11.4099
▁Never	-11.41
▁den	-11.4102
17	-11.4103
▁argumentation	-11.4105
▁rescue	-11.4105
▁respectable	-11.4106
▁boat	-11.4109
▁arrange	-11.4114
▁wasteful	-11.4114
▁denying	-11.4115
▁Tories	-11.4118
▁refined	-11.4118
.13	-11.4118
▁vessels	-11.4119
▁ethic	-11.4119
▁apartment	-11.412
reaching	-11.4121
vi	-11.4122
▁sad	-11.4124
▁trivial	-11.4126
▁everyday	-11.4131
▁coherent	-11.4132
▁imperative	-11.4136
▁Meyer	-11.4136
▁autonomy	-11.4138
▁awareness	-11.4142
”),	-11.415
▁expressly	-11.4152
▁74	-11.4154
▁Reconstruction	-11.4158
▁sensitive	-11.4159
▁counsel	-11.416
▁Ron	-11.4161
▁vis	-11.417
▁Notes	-11.4174
▁legislatures	-11.4174
▁likelihood	-11.4177
▁Declaration	-11.4179
▁questionable	-11.418
▁decay	-11.4184
▁instrumental	-11.4188
▁exceeded	-11.4188
▁irregular	-11.4195
▁fortunate	-11.4196
▁channels	-11.4196
ious	-11.4197
▁pledge	-11.4198
▁replacing	-11.4198
▁executed	-11.4201
▁horror	-11.4202
end	-11.4202
other	-11.4203
▁star	-11.4204
▁shocked	-11.4205
▁Conn	-11.4206
▁113	-11.4207
▁drives	-11.421
▁interview	-11.4211
rights	-11.4217
▁proportionate	-11.4218
▁debasement	-11.4219
▁materialism	-11.4219
▁Library	-11.422
▁capture	-11.4221
fashioned	-11.4222
▁stem	-11.4223
▁Antifederalist	-11.4224
▁87	-11.4228
▁eventual	-11.4236
▁disappearance	-11.424
▁equals	-11.424
▁scattered	-11.424
來	-11.4241
▁flag	-11.4242
▁emerging	-11.4243
▁exhibit	-11.4248
where	-11.425
▁Pre	-11.4251
”).	-11.4254
▁kids	-11.4258
▁fateful	-11.426
▁overseas	-11.4261
▁dreams	-11.4261
▁glass	-11.4262
▁Growth	-11.4262
▁refuses	-11.4263
▁intrinsic	-11.4264
▁scenario	-11.4264
da	-11.4272
▁lord	-11.4272
▁Bay	-11.4273
ably	-11.4275
owned	-11.4277
▁numerical	-11.4278
▁Christmas	-11.4282
▁preceded	-11.4283
▁discriminate	-11.4284
▁temporal	-11.4285
▁qui	-11.429
▁competitor	-11.4292
▁Laws	-11.4292
▁debates	-11.4292
credit	-11.4298
▁procure	-11.4299
▁persistent	-11.4299
▁dominance	-11.4303
▁negligible	-11.4303
▁Russell	-11.4303
▁collaboration	-11.4303
▁coincidence	-11.4304
▁Coase	-11.4306
▁warrant	-11.4306
▁episode	-11.4307
▁contracted	-11.4308
▁66	-11.431
▁profoundly	-11.4311
▁doors	-11.4316
▁curtail	-11.4317
▁publications	-11.432
▁forcibly	-11.4324
▁Africans	-11.4324
▁unimportant	-11.4324
▁NRA	-11.4326
classical	-11.4327
▁hospital	-11.4328
▁Hall	-11.4328
▁Essay	-11.4329
▁suppliers	-11.4334
▁rendering	-11.4338
12	-11.4338
▁Ward	-11.4342
▁agenda	-11.4345
▁tragedy	-11.4347
▁railway	-11.4349
▁maybe	-11.4352
▁responded	-11.4353
22	-11.4353
▁distrust	-11.4357
▁allied	-11.436
▁Magazine	-11.4366
▁Harold	-11.4366
▁mercy	-11.4366
▁renewed	-11.4368
▁[2]	-11.4372
▁1982	-11.4376
15	-11.4377
▁Volkswirtschaft	-11.4378
▁despotic	-11.438
▁Se	-11.4381
▁annually	-11.4385
▁illusory	-11.4387
▁Supply	-11.439
▁tenants	-11.4393
▁norm	-11.4394
▁site	-11.4398
▁1936.	-11.44
▁$8	-11.44
▁statesman	-11.4404
▁97	-11.4404
▁nice	-11.4407
▁unpleasant	-11.4408
▁Angeles	-11.4408
sufficient	-11.4409
▁Rent	-11.441
▁motivation	-11.4412
▁fitted	-11.4413
▁Mo	-11.442
▁comply	-11.4421
▁pressing	-11.4424
▁array	-11.4424
▁fruitful	-11.4425
▁rooted	-11.4426
▁Naval	-11.4429
▁tempted	-11.443
▁prescribed	-11.443
▁Use	-11.4431
他	-11.4431
▁favourable	-11.4432
society	-11.4432
▁circulate	-11.4433
▁library	-11.4434
▁electric	-11.4435
▁locations	-11.4435
▁spontaneously	-11.4437
▁generates	-11.4437
gen	-11.4438
▁complaints	-11.4439
▁repair	-11.4443
▁troubles	-11.4446
▁12.	-11.4447
▁Present	-11.445
control	-11.445
▁Nostrand	-11.445
War	-11.4451
▁Democrat	-11.4453
者	-11.4455
▁1931,	-11.4455
▁catastrophe	-11.4456
▁intend	-11.4457
▁Joe	-11.4458
▁founding	-11.4459
▁thrift	-11.4472
▁organs	-11.4472
▁simplicity	-11.4472
▁programme	-11.4472
▁defenders	-11.4473
sh	-11.4473
28	-11.4473
▁Ph	-11.4474
▁Col	-11.4475
▁theology	-11.4477
▁famine	-11.4478
,000	-11.4481
▁pietist	-11.4481
▁characters	-11.4484
▁outcomes	-11.4484
▁focused	-11.4488
▁1928	-11.4491
▁confident	-11.4493
▁calculus	-11.4493
my	-11.4496
▁performing	-11.4506
▁proceedings	-11.4508
▁Bryan	-11.4508
▁Whigs	-11.4509
▁watching	-11.4512
▁Few	-11.4513
born	-11.4514
▁retirement	-11.4516
▁historic	-11.4516
▁dominate	-11.4518
ius	-11.4519
▁Gary	-11.452
▁gratification	-11.4521
下	-11.4523
▁Go	-11.4527
▁160	-11.4528
▁94	-11.4528
」	-11.4532
▁proud	-11.4533
▁victorious	-11.4536
▁Comte	-11.4537
▁Either	-11.4537
den	-11.4538
▁discharge	-11.4539
▁consensus	-11.4539
▁defence	-11.4539
▁savage	-11.454
▁worn	-11.4541
▁Revolutionary	-11.4542
▁experimental	-11.4543
▁owed	-11.4543
▁objectively	-11.455
▁su	-11.4551
▁fee	-11.4554
▁silent	-11.4555
▁epistemology	-11.4558
▁globe	-11.4558
▁shillings	-11.456
▁Unless	-11.4561
▁deviation	-11.4564
!)	-11.4573
ster	-11.4577
▁dubious	-11.4579
▁Maynard	-11.4579
▁retired	-11.4581
monopoly	-11.4582
▁coincide	-11.4582
▁suspend	-11.4584
▁departure	-11.4586
▁Czechoslovakia	-11.4589
▁realizing	-11.459
▁Force	-11.4591
▁indefinite	-11.4592
▁arrest	-11.4593
▁proceeding	-11.4596
▁correspondingly	-11.4597
▁trusted	-11.46
▁Edwin	-11.4601
▁relied	-11.4601
▁Versailles	-11.4602
▁requisite	-11.4603
▁teaches	-11.4604
▁Moral	-11.4605
▁Total	-11.4605
those	-11.4605
▁unproductive	-11.4606
▁fuel	-11.4607
▁wedding	-11.4608
▁1957	-11.461
oriented	-11.4611
2.	-11.4611
▁keen	-11.4619
▁Providence	-11.4623
▁breaks	-11.4624
▁revised	-11.4624
▁$6	-11.4629
▁brothers	-11.4631
▁lasted	-11.4637
▁Following	-11.4645
self	-11.4647
first	-11.4648
▁10.	-11.4649
▁Economica	-11.4658
ated	-11.4664
▁shareholders	-11.4664
One	-11.4664
ence	-11.4666
▁threaten	-11.4666
▁nonetheless	-11.4666
▁invitation	-11.4666
▁player	-11.467
▁prompted	-11.467
▁deductions	-11.467
▁obtains	-11.4672
31	-11.4674
▁ceases	-11.4676
▁watched	-11.4677
▁port	-11.4677
▁inflationist	-11.4681
▁Miller	-11.4683
▁deficiency	-11.4688
▁oppressed	-11.4694
▁individuality	-11.4694
Die	-11.4699
▁capitalization	-11.4699
▁emotions	-11.47
▁servant	-11.47
unconstitutional	-11.4701
▁qu	-11.4702
▁Wage	-11.4706
▁gathering	-11.4708
▁utter	-11.4709
▁physiological	-11.471
▁q	-11.4711
defense	-11.4712
▁incidentally	-11.4712
▁96	-11.4714
▁Due	-11.4716
▁adherents	-11.4726
▁pockets	-11.4731
▁zeal	-11.4731
▁Likewise	-11.4731
▁ignoring	-11.4732
▁devised	-11.4733
▁qualifications	-11.4733
▁petition	-11.4736
▁issuance	-11.4737
▁Naturally	-11.4737
▁mint	-11.4743
aid	-11.4744
▁regimes	-11.4746
47	-11.4747
▁token	-11.4751
▁furniture	-11.4753
▁summed	-11.4754
▁technically	-11.4755
▁savers	-11.4758
▁morals	-11.4759
▁committees	-11.4762
▁hunting	-11.4762
▁proportionately	-11.4766
▁1914,	-11.4767
▁Acts	-11.4767
ations	-11.4768
▁endorse	-11.477
▁hoc	-11.4772
▁sheep	-11.4775
▁enjoying	-11.4775
▁marketing	-11.4776
▁stagnation	-11.4777
▁orderly	-11.4778
▁Taxation	-11.4778
▁inconvertible	-11.4779
▁Did	-11.478
▁eighty	-11.4782
▁encountered	-11.4783
▁disagreement	-11.4784
▁hunter	-11.4785
-3	-11.4791
▁ruthless	-11.4793
▁impressive	-11.4793
▁interpretations	-11.4794
▁Bulletin	-11.4797
freedom	-11.4804
ho	-11.4805
▁distortions	-11.4806
▁Conservative	-11.4806
▁journals	-11.4809
▁suits	-11.481
▁eleven	-11.4818
▁rationale	-11.4819
▁Kramer	-11.4819
▁absolutism	-11.4821
j	-11.4827
▁ne	-11.4827
▁Canadian	-11.4829
down	-11.4838
bad	-11.484
▁prejudices	-11.4843
cut	-11.4843
▁trick	-11.4843
▁Burke	-11.4843
▁patriotism	-11.4843
▁Critique	-11.4844
▁rock	-11.4845
▁quest	-11.4847
▁sweeping	-11.4847
▁multiplier	-11.485
▁effectiveness	-11.4851
▁Czech	-11.4852
▁steam	-11.4852
▁correctness	-11.4853
▁resisted	-11.4854
libertarian	-11.4855
▁card	-11.4855
▁justly	-11.4855
▁prohibiting	-11.4855
▁Introduction	-11.4856
▁thrust	-11.4864
▁Jesus	-11.4865
▁entrusted	-11.4866
▁tests	-11.4867
21	-11.4867
▁Process	-11.4868
▁bright	-11.4869
▁1949	-11.4874
▁1924	-11.4877
▁distinctly	-11.4879
▁Pat	-11.4879
▁tight	-11.4884
▁acquainted	-11.4886
▁preliminary	-11.4886
▁classified	-11.4889
▁entail	-11.489
▁punish	-11.4893
▁alarm	-11.4894
▁quit	-11.4894
▁conceptions	-11.4895
ble	-11.4899
▁Being	-11.4904
▁tie	-11.4906
ud	-11.4907
▁insisting	-11.4908
▁disorder	-11.4909
▁Next	-11.4909
▁tangible	-11.4911
▁creatures	-11.4913
▁multi	-11.4914
▁86	-11.4914
▁guess	-11.4916
▁intimate	-11.4923
▁93	-11.4923
▁1,000	-11.4923
▁hero	-11.4928
▁cruel	-11.4929
▁Logic	-11.4931
▁Ferguson	-11.4931
▁Cassel	-11.4931
▁Oliver	-11.4932
▁movies	-11.4933
▁cake	-11.4937
▁armaments	-11.4938
▁View	-11.494
▁thank	-11.4941
Yes	-11.4942
Mr	-11.4945
▁backing	-11.4947
▁88	-11.4948
▁104	-11.4951
▁Choice	-11.4954
▁innate	-11.4954
▁gentleman	-11.4955
.14	-11.4956
▁continental	-11.4957
▁prize	-11.4961
▁Indiana	-11.4965
▁gods	-11.4968
▁abuses	-11.4971
▁arithmetic	-11.4975
▁flour	-11.4975
▁irreconcilable	-11.4976
▁happily	-11.4976
▁completion	-11.4976
▁treating	-11.4978
▁Sciences	-11.4979
point	-11.4987
now	-11.4987
1.	-11.4991
▁bold	-11.4995
▁Philippines	-11.4996
▁derives	-11.4998
▁Agriculture	-11.4999
▁causation	-11.4999
▁socialized	-11.4999
▁Ex	-11.5
▁predictable	-11.5002
▁1935,	-11.5002
▁prey	-11.5003
▁[3]	-11.5003
▁poured	-11.5006
▁booms	-11.5007
▁visited	-11.5007
▁accepts	-11.5007
▁Puritan	-11.5012
▁vaults	-11.5013
normal	-11.5015
▁imminent	-11.502
▁Dewey	-11.502
▁tacit	-11.5021
▁Sombart	-11.5021
▁desert	-11.5022
▁Progress	-11.5023
▁Gresham	-11.5024
▁outlined	-11.5024
▁glorious	-11.5025
▁Marxians	-11.5026
▁grades	-11.5029
▁conferences	-11.5032
▁repay	-11.5032
▁cheaply	-11.5035
▁admiration	-11.5043
▁intensified	-11.5043
▁confront	-11.5045
▁monopolized	-11.5047
▁tolerate	-11.505
▁catallactics	-11.5051
▁Cold	-11.5052
▁ports	-11.5057
▁simultaneous	-11.5064
.16	-11.5065
▁69	-11.5065
▁seventy	-11.5066
.”2	-11.5067
▁hunger	-11.5067
any	-11.5068
▁deduced	-11.5069
▁300	-11.5069
▁checked	-11.5071
side	-11.5072
▁unrealistic	-11.5075
▁cell	-11.5075
▁levy	-11.5079
*	-11.508
▁revealing	-11.5082
▁Row	-11.5084
▁shoe	-11.5086
▁qualitative	-11.5087
▁91	-11.5088
▁copies	-11.5088
▁Quite	-11.5088
▁evolutionary	-11.509
▁disutility	-11.509
▁motor	-11.509
▁coined	-11.5095
▁1945	-11.51
▁unite	-11.51
▁landlord	-11.5103
▁Jan	-11.5111
▁instructed	-11.5112
▁dull	-11.5114
▁score	-11.5119
▁urgently	-11.5122
▁interval	-11.5123
▁Korea	-11.5128
▁$7	-11.5133
▁hierarchy	-11.5134
▁Thornton	-11.5134
▁fancy	-11.5134
▁beneficiaries	-11.5135
%	-11.5135
▁1850	-11.5141
▁heaven	-11.5141
▁recessions	-11.5143
▁Rev	-11.5143
red	-11.5145
▁quotation	-11.5146
▁Mexican	-11.5146
▁allowance	-11.5146
▁1860	-11.5147
▁31,	-11.5156
▁fascinating	-11.5156
▁offspring	-11.5157
▁whilst	-11.5157
▁postulate	-11.5165
▁mayor	-11.5166
▁smallest	-11.5167
▁mortgages	-11.5167
▁84	-11.5169
▁entails	-11.5169
▁Origins	-11.517
▁frequency	-11.517
▁containing	-11.5173
▁faithful	-11.5175
▁portions	-11.5176
▁complaint	-11.5179
▁gigantic	-11.5179
▁unhappy	-11.5179
▁anger	-11.518
▁voter	-11.5184
▁detrimental	-11.5186
▁suppressed	-11.5187
▁illustrates	-11.5187
▁contended	-11.5189
▁apple	-11.5192
▁militant	-11.5193
EN	-11.5195
14	-11.5196
ise	-11.5197
▁Antifederal	-11.52
▁Edmund	-11.5202
▁examining	-11.5203
▁Independence	-11.5203
▁blacks	-11.5209
▁labourer	-11.5211
▁bent	-11.5214
▁Mar	-11.5219
▁13.	-11.5224
▁tragic	-11.5225
▁pressed	-11.5225
▁bodily	-11.5225
-1	-11.5226
▁weaken	-11.5226
▁pollution	-11.5227
▁imperialist	-11.5228
page	-11.5229
▁mature	-11.5229
▁disturbance	-11.5238
▁defendant	-11.5239
▁regret	-11.5239
▁miracle	-11.5246
▁fantastic	-11.5249
▁mystery	-11.5249
▁inquire	-11.525
▁Chairman	-11.5251
&	-11.5255
▁impair	-11.5256
▁decreed	-11.5258
moral	-11.5261
▁seizure	-11.5261
▁antagonism	-11.5261
▁deadly	-11.5262
▁automobiles	-11.5265
mer	-11.5265
▁macroeconomic	-11.5267
▁101	-11.5269
▁provincial	-11.5271
▁football	-11.5271
▁fluctuating	-11.5274
▁defines	-11.5276
Rothbard	-11.5277
▁Arnold	-11.5295
▁altruism	-11.5297
▁retreat	-11.5303
▁cancer	-11.5303
89	-11.5305
▁broadly	-11.5307
▁rewarded	-11.5307
▁ascribe	-11.5314
▁gratuitous	-11.5315
▁industrious	-11.5315
▁lengthening	-11.532
▁Trotsky	-11.5321
▁proven	-11.5321
▁Demsetz	-11.5322
three	-11.5325
▁counterpart	-11.5325
▁individually	-11.533
▁79	-11.5337
▁functional	-11.5337
▁92	-11.5344
▁appeals	-11.5345
▁Tennessee	-11.5346
▁punished	-11.5346
▁tall	-11.5349
▁theater	-11.5356
und	-11.5358
▁wipe	-11.5359
▁accidents	-11.5359
▁actively	-11.536
les	-11.536
▁singular	-11.5361
▁incomplete	-11.5362
mp	-11.5362
Keynesian	-11.5363
▁irresponsible	-11.5364
▁Hanna	-11.5364
▁Fischer	-11.5364
▁dying	-11.5364
▁ally	-11.5365
▁drastically	-11.5365
▁employments	-11.5365
▁En	-11.5365
▁Garrison	-11.5366
▁Miss	-11.537
equilibrium	-11.5371
▁weaker	-11.5372
tre	-11.5378
fair	-11.5381
▁astonishing	-11.5384
▁elaboration	-11.5388
▁Europeans	-11.5389
▁normative	-11.5391
▁acquires	-11.5393
▁crush	-11.5397
▁ruined	-11.5398
▁alteration	-11.5403
▁Bankers	-11.5406
ping	-11.5411
▁paribus	-11.5411
▁conservation	-11.5413
▁Donald	-11.5413
▁boundary	-11.5413
▁cultivated	-11.5413
▁proposes	-11.5414
▁130	-11.5414
▁contrasted	-11.542
▁concert	-11.5423
▁originate	-11.5423
▁multiply	-11.5425
▁agrees	-11.5426
▁precedent	-11.5427
▁eagerly	-11.5427
-2	-11.5428
▁Duke	-11.5435
▁linguistic	-11.5436
▁Iceland	-11.5437
▁Independent	-11.5438
▁agrarian	-11.5439
▁pen	-11.5441
▁restrained	-11.5441
▁optimistic	-11.5446
48	-11.5448
▁sons	-11.5448
▁distortion	-11.5449
▁1948	-11.545
▁inflating	-11.546
▁1934.	-11.5462
▁charging	-11.5462
▁wasted	-11.5463
▁advancement	-11.5463
▁rationing	-11.5464
▁Non	-11.5467
ries	-11.5469
▁118	-11.5469
▁89	-11.547
ver	-11.5472
▁endure	-11.5472
▁infant	-11.5479
▁Ho	-11.5484
▁anarchists	-11.5485
▁1961	-11.5496
▁calm	-11.5501
▁Cabinet	-11.5505
▁afternoon	-11.5505
determination	-11.5513
▁repayment	-11.5515
Well	-11.5516
▁revision	-11.5518
▁dimensions	-11.5522
▁topics	-11.5524
after	-11.5524
▁determinants	-11.5529
▁players	-11.553
▁burned	-11.5533
▁commands	-11.5535
▁instantly	-11.5536
berg	-11.554
▁fertile	-11.5553
▁monies	-11.5553
▁Buren	-11.5553
ett	-11.5556
ham	-11.5557
▁alien	-11.5559
satisfaction	-11.5561
▁fly	-11.5561
▁insured	-11.5563
▁administered	-11.5563
▁Douglas	-11.557
▁manners	-11.5576
▁119	-11.5578
▁toil	-11.558
▁14.	-11.5582
▁undertakings	-11.5582
▁1918	-11.5583
▁italics	-11.5585
▁flowing	-11.5585
From	-11.5585
▁reminded	-11.5588
▁Quoted	-11.5591
▁outputs	-11.5595
▁smoke	-11.5597
▁Park	-11.5606
▁depositor	-11.5608
▁overwhelmingly	-11.5609
▁insignificant	-11.5611
mongst	-11.5613
▁Ideas	-11.5615
▁beer	-11.5616
▁occurrence	-11.5617
▁armament	-11.5619
▁Phillips	-11.562
▁listed	-11.5622
▁stolen	-11.5627
▁Allied	-11.5628
▁games	-11.5629
▁letting	-11.563
▁equalization	-11.5631
controlled	-11.5632
▁intensive	-11.5635
ED	-11.5637
93	-11.5638
▁confer	-11.5641
▁textile	-11.5641
▁sports	-11.5643
▁Flynn	-11.5648
▁Publishing	-11.5648
▁Cost	-11.5648
▁Manifesto	-11.5648
▁Inter	-11.5649
▁mixture	-11.565
▁Experience	-11.565
▁overvalued	-11.5651
▁Pure	-11.5653
▁pervasive	-11.5654
▁inefficiency	-11.5657
▁bushels	-11.5659
▁anew	-11.5667
▁memorandum	-11.5672
▁dramatically	-11.5673
▁solidarity	-11.5673
▁flaw	-11.5676
57	-11.5676
▁boards	-11.5676
▁Du	-11.5678
▁extends	-11.5678
▁autonomous	-11.5681
▁forests	-11.5681
▁exerted	-11.5682
▁despair	-11.5682
▁Ver	-11.5682
▁delayed	-11.5684
26	-11.5684
▁defect	-11.5686
▁workings	-11.5686
▁1968	-11.5686
▁Fair	-11.5688
43	-11.5689
▁cling	-11.5692
ka	-11.5693
profit	-11.5696
▁confusing	-11.5696
▁adherence	-11.5697
field	-11.5698
▁GNP	-11.57
▁ii	-11.5703
▁Cape	-11.5711
▁divorce	-11.5718
▁conversations	-11.5722
▁Earth	-11.5723
▁plea	-11.5723
ites	-11.5724
▁quietly	-11.5727
▁bureaucrat	-11.5728
▁realities	-11.5729
64	-11.573
▁resorting	-11.5737
ca	-11.5737
▁'	-11.5737
▁Judge	-11.5741
▁golden	-11.5742
▁passions	-11.5743
▁excise	-11.5745
equal	-11.5745
▁Spooner	-11.5747
▁Wicksteed	-11.5747
▁enhanced	-11.5748
3,	-11.5749
▁Holy	-11.5749
80	-11.575
▁Maine	-11.575
▁1937	-11.575
speaking	-11.5756
ever	-11.5759
39	-11.5761
▁symbol	-11.5763
▁cautious	-11.5769
▁tired	-11.577
▁stimulating	-11.5771
▁strain	-11.5772
▁Civilization	-11.5773
▁fulfillment	-11.5773
ative	-11.5775
perhaps	-11.5778
▁minus	-11.5779
8.	-11.5787
▁walking	-11.5787
16	-11.5788
▁genuinely	-11.5788
▁skyscraper	-11.579
▁Nicholas	-11.5793
▁deductive	-11.5795
▁persuasion	-11.5795
▁mentor	-11.5795
▁courses	-11.5812
▁totality	-11.5814
mann	-11.5814
▁Eden	-11.582
▁drain	-11.5821
▁pledged	-11.5822
▁accelerated	-11.5825
▁Ten	-11.5827
nt	-11.5828
▁Quakers	-11.5832
must	-11.5835
▁dismiss	-11.5835
▁magnificent	-11.5839
▁Enlightenment	-11.5842
▁gasoline	-11.5842
▁inspection	-11.5842
▁Gray	-11.5843
▁cheapest	-11.5844
▁gentlemen	-11.5844
▁immaterial	-11.5845
▁accounted	-11.5846
▁Workers	-11.5851
▁survived	-11.5852
cycle	-11.5852
▁margins	-11.5853
Cf	-11.5857
▁102	-11.5857
▁performs	-11.5857
▁sober	-11.586
▁quod	-11.5862
▁Leipzig	-11.5864
▁editions	-11.5865
37	-11.5866
▁hypotheses	-11.5867
▁conferred	-11.5867
▁upswing	-11.5867
▁Egypt	-11.5868
.17	-11.5868
▁Schmoller	-11.5869
ck	-11.5869
▁deem	-11.5869
▁laboratory	-11.5871
common	-11.5872
▁spheres	-11.5877
▁adapted	-11.588
▁maxim	-11.5883
▁mood	-11.5885
▁persist	-11.5888
▁removing	-11.5892
oc	-11.5892
▁Davis	-11.5892
▁ascribed	-11.5895
▁hinder	-11.5896
ned	-11.5897
▁gotten	-11.5899
▁1938	-11.5906
▁inelastic	-11.5907
▁sky	-11.5909
▁patents	-11.5913
▁haven	-11.5914
▁contracting	-11.5915
▁disappears	-11.5916
▁para	-11.5916
▁Galbraith	-11.5917
▁Shaw	-11.5918
▁Mann	-11.5918
▁Klein	-11.5918
▁illness	-11.5919
▁phases	-11.5921
hour	-11.5922
▁elect	-11.5923
▁1936,	-11.5924
▁Sheed	-11.5925
▁possessing	-11.5928
54	-11.5934
▁108	-11.5934
▁client	-11.5935
ze	-11.5936
▁clever	-11.5937
▁continuance	-11.5941
▁presumption	-11.5941
▁Mencken	-11.5942
▁1937,	-11.5944
▁petty	-11.5945
▁heroic	-11.5947
▁closest	-11.5947
▁dissent	-11.5948
▁publicity	-11.5952
▁searching	-11.5958
▁walls	-11.5959
▁recalled	-11.5959
▁1929.	-11.596
▁stayed	-11.596
▁distinctive	-11.5961
▁harbor	-11.5961
▁priest	-11.5962
▁unsuccessful	-11.5962
▁yielding	-11.5962
▁excellence	-11.5965
▁Sozialpolitik	-11.5965
▁Anthony	-11.5967
▁confiscated	-11.5968
▁Everybody	-11.5969
▁cite	-11.5971
▁liberation	-11.5972
▁$10,000	-11.5975
▁axioms	-11.5981
▁ban	-11.5982
▁formulate	-11.5984
▁creature	-11.5985
▁loyal	-11.5989
▁monstrous	-11.5991
▁organizational	-11.5997
▁Open	-11.5997
IN	-11.5997
John	-11.6
ens	-11.6003
sufficiency	-11.6006
▁signals	-11.6008
tro	-11.601
▁comprehension	-11.6017
▁presumed	-11.6017
▁fishing	-11.6017
▁privatization	-11.6017
▁totalitarianism	-11.6019
▁outlawed	-11.6019
▁tract	-11.602
▁minimal	-11.602
▁presenting	-11.6021
▁hearts	-11.6021
▁allocated	-11.6021
▁appreciated	-11.6022
▁strikers	-11.6025
▁bounds	-11.6026
▁83	-11.6031
▁Organization	-11.6037
▁Profits	-11.6038
▁1931.	-11.6039
▁condemnation	-11.6042
▁posed	-11.6043
▁prompt	-11.6043
▁IMF	-11.6043
▁democracies	-11.6044
▁safeguard	-11.6046
▁solving	-11.6047
▁structural	-11.6047
▁117	-11.606
▁correlation	-11.606
▁undermine	-11.606
.20	-11.6061
▁ninety	-11.6066
▁positively	-11.6066
96	-11.6067
▁engineers	-11.6067
socialist	-11.6071
▁End	-11.6076
▁foresee	-11.6077
▁manifested	-11.6077
▁1917	-11.6078
antamount	-11.6079
▁holder	-11.6082
▁una	-11.6083
▁ingenious	-11.6086
▁song	-11.6087
▁fame	-11.6088
▁esp	-11.6088
▁bases	-11.609
▁123	-11.609
▁tables	-11.6093
▁impulses	-11.6093
▁attaining	-11.6093
▁Volume	-11.6094
▁participating	-11.6095
▁observers	-11.6095
▁[4]	-11.6096
▁Bar	-11.6097
▁dealer	-11.6099
standard	-11.6101
▁deaths	-11.6102
▁treats	-11.6104
▁promoters	-11.6105
▁diagram	-11.6109
▁settlements	-11.6114
▁constructive	-11.6116
▁Representatives	-11.6117
▁clerk	-11.6117
9,	-11.6118
▁Truth	-11.6119
▁civilizations	-11.6119
State	-11.6122
▁Keynesianism	-11.6123
▁heirs	-11.6125
back	-11.6129
所	-11.6132
▁drafted	-11.6134
ell	-11.6136
▁ceiling	-11.614
▁125	-11.6141
▁Last	-11.6141
▁zur	-11.6141
70	-11.6141
stock	-11.6144
▁binding	-11.6148
▁steal	-11.6151
▁110	-11.6151
▁15.	-11.6153
▁chains	-11.6156
▁orbit	-11.6156
▁Hart	-11.616
▁lords	-11.6161
▁1941.	-11.6161
▁communicate	-11.6162
▁senior	-11.6165
▁timber	-11.6166
▁Carter	-11.6166
▁foodstuffs	-11.6166
▁calculating	-11.6167
▁spell	-11.6168
▁quotes	-11.6169
▁ERE	-11.6172
bourgeois	-11.6177
▁1941	-11.618
▁Rockwell	-11.6181
▁neighboring	-11.6184
▁exploiting	-11.6185
▁whoever	-11.6186
▁103	-11.6186
▁physician	-11.6188
ology	-11.6189
▁crusade	-11.619
▁monarch	-11.6191
▁intermediary	-11.6191
▁remedies	-11.6191
▁relates	-11.6192
▁horizontal	-11.6193
35	-11.6193
▁coordinated	-11.6197
▁prisoners	-11.6199
▁Code	-11.6206
▁extract	-11.6207
▁destroys	-11.6209
▁Fourier	-11.6211
▁sword	-11.6213
▁inference	-11.6213
▁notorious	-11.6214
▁ordinarily	-11.6216
▁Negro	-11.6217
▁expediency	-11.6217
▁partnership	-11.6217
▁summarized	-11.6218
▁assembled	-11.6219
▁Air	-11.6221
▁discouraged	-11.6222
▁handful	-11.6223
▁hat	-11.623
▁escaped	-11.6231
▁Christians	-11.6232
▁statute	-11.6239
▁Alan	-11.6239
▁appraisal	-11.6239
▁fourteen	-11.6241
▁Nonetheless	-11.6242
▁guiding	-11.6242
▁inescapable	-11.6242
13	-11.6242
▁emphatically	-11.6243
▁Nobel	-11.6243
▁oppressive	-11.6244
▁helpless	-11.6244
▁penny	-11.6246
▁decent	-11.6247
▁fascist	-11.6248
consumption	-11.6252
ny	-11.6255
▁distinguishing	-11.6255
▁1940,	-11.6255
▁cat	-11.6256
▁sentences	-11.6257
dustrialization	-11.6257
▁1951	-11.6264
▁tyrant	-11.6264
▁parliament	-11.6266
▁commissioners	-11.6267
▁resultant	-11.6267
▁biology	-11.6267
▁Valley	-11.6267
▁prewar	-11.627
people	-11.6273
▁crown	-11.6278
▁bus	-11.6278
▁commanders	-11.6283
ren	-11.6291
▁encourages	-11.6292
▁readjustment	-11.6293
▁observing	-11.6293
▁silly	-11.6293
▁announcement	-11.6294
void	-11.6294
▁foster	-11.6301
▁surprisingly	-11.6304
Of	-11.6305
▁ball	-11.6305
since	-11.6312
▁rationalism	-11.6314
▁qualification	-11.6316
▁acute	-11.6317
.18	-11.6318
▁Iowa	-11.6319
▁electricity	-11.6319
▁Manhattan	-11.6319
▁afterward	-11.632
▁desk	-11.632
▁positivist	-11.6321
▁VII	-11.6325
▁mills	-11.6326
▁Otto	-11.6327
▁abstain	-11.6327
low	-11.6328
▁supplement	-11.633
▁111	-11.633
▁clarify	-11.6335
▁admittedly	-11.6337
▁dislike	-11.6339
▁abolishing	-11.6343
▁empirically	-11.6343
▁mountains	-11.6343
▁dissolution	-11.6344
▁infer	-11.6349
▁applications	-11.6349
99	-11.6349
▁1939,	-11.6352
▁sharing	-11.6353
=	-11.6356
▁repealed	-11.6358
ER	-11.6361
▁editors	-11.6362
▁dictate	-11.6364
hr	-11.6365
32	-11.6366
▁harmonious	-11.6369
▁sixteen	-11.6369
▁Representative	-11.637
▁ratified	-11.637
▁Vice	-11.6371
▁Community	-11.6372
▁beginnings	-11.6372
▁invisible	-11.6373
▁Id	-11.6373
post	-11.6373
▁reflecting	-11.6378
▁Ka	-11.6384
▁por	-11.6387
▁hide	-11.6392
▁Perspective	-11.6394
▁barrier	-11.6394
▁TO	-11.6395
▁straightforward	-11.6396
▁obsolete	-11.6397
▁aprioristic	-11.6398
cy	-11.6403
▁adjusting	-11.6405
▁highways	-11.6406
:—	-11.6414
▁scorn	-11.6416
ville	-11.6421
▁unpopular	-11.6421
▁discounts	-11.6422
rational	-11.6423
▁Upon	-11.6424
▁controversial	-11.6424
▁140	-11.6425
▁enlarged	-11.6425
▁varies	-11.6426
▁circulated	-11.6426
▁Costs	-11.643
present	-11.6432
▁waged	-11.6439
▁fool	-11.6444
mon	-11.6445
▁Conceived	-11.6448
▁traits	-11.6448
▁proprietary	-11.6448
▁relate	-11.6449
▁Rise	-11.6449
▁estimation	-11.6449
▁aggravated	-11.645
▁circular	-11.645
▁flexibility	-11.6451
ab	-11.6456
▁recover	-11.6458
61	-11.6461
▁curb	-11.6461
▁burst	-11.6464
▁inflow	-11.6466
▁journey	-11.6469
▁collectively	-11.6474
▁violating	-11.6474
▁Specifically	-11.6474
▁passim	-11.6475
ans	-11.6478
▁Hicks	-11.6478
They	-11.6484
progressive	-11.6486
▁speculations	-11.6486
▁quotations	-11.6486
▁1934,	-11.6497
▁exempt	-11.6498
▁submission	-11.65
▁Belgian	-11.6501
▁Panic	-11.6503
▁100-	-11.6506
▁rental	-11.6511
▁risky	-11.6518
▁Kapital	-11.6519
▁1978)	-11.6519
▁founders	-11.652
▁manifestation	-11.6526
▁viable	-11.6527
▁Popper	-11.6527
▁judging	-11.6528
▁abstinence	-11.653
you	-11.6531
▁accompanying	-11.6532
▁tenets	-11.6532
▁emphasizes	-11.6534
▁seed	-11.6544
Do	-11.6552
▁anxiety	-11.6552
▁Captain	-11.6552
▁misled	-11.6553
▁unstable	-11.6553
▁deeds	-11.6554
▁Timberlake	-11.6554
▁1923,	-11.6555
▁blessings	-11.6555
▁Distribution	-11.6555
▁Positive	-11.6556
▁erected	-11.6556
▁relieved	-11.6562
▁Theories	-11.6563
▁cult	-11.6564
▁Letter	-11.6567
▁bomb	-11.657
▁confess	-11.657
▁arisen	-11.6575
▁1938,	-11.6577
▁inclination	-11.6578
▁incredible	-11.6579
▁contributing	-11.6579
▁Austro	-11.6581
▁battles	-11.6582
▁feudalism	-11.6583
36	-11.6583
76	-11.6584
▁Home	-11.6588
▁gather	-11.6595
▁tough	-11.6596
▁las	-11.6596
ily	-11.6597
▁succeeding	-11.6599
▁ride	-11.6599
▁sway	-11.6601
▁glad	-11.6601
▁unconscious	-11.6603
▁Failure	-11.6605
▁parasitic	-11.6606
▁liquidated	-11.6611
▁options	-11.6611
▁annum	-11.6613
▁invent	-11.6621
▁contributes	-11.6624
3.	-11.6629
▁10,000	-11.6631
▁ceteris	-11.6632
▁preclude	-11.6632
▁autarky	-11.6633
▁Abraham	-11.6634
▁Bible	-11.6635
ik	-11.6636
▁rejecting	-11.6636
▁hampered	-11.6637
▁industrialists	-11.6641
property	-11.6645
▁confirm	-11.6646
▁denounce	-11.6654
▁Building	-11.6658
▁Stanley	-11.6658
▁supervision	-11.6658
▁computation	-11.6658
▁differentiation	-11.6659
▁stopping	-11.6659
▁Haberler	-11.6659
▁bore	-11.666
▁Richter	-11.666
▁Adm	-11.6665
▁Praxeology	-11.6666
▁organ	-11.6675
▁1900	-11.6675
di	-11.6677
49	-11.668
▁Bas	-11.668
▁Halifax	-11.6685
▁interior	-11.6685
▁Edition	-11.6685
▁McCloskey	-11.6685
▁Aldrich	-11.6686
▁excited	-11.6686
▁cartelization	-11.6686
bo	-11.6686
▁ring	-11.6686
▁guild	-11.6687
▁ascertain	-11.6688
▁Euro	-11.6689
▁outward	-11.6689
▁Back	-11.6691
▁accorded	-11.6694
vo	-11.6697
Simon	-11.6698
▁fathers	-11.6708
▁eighteen	-11.671
▁illuminating	-11.6711
▁denouncing	-11.6711
▁dictum	-11.6711
▁influencing	-11.6713
▁dictates	-11.6713
▁egalitarianism	-11.6714
▁[5]	-11.6717
27	-11.6717
▁163	-11.6724
▁cards	-11.6727
▁Rule	-11.673
▁loud	-11.6731
▁entrance	-11.6738
▁destiny	-11.6738
▁resumption	-11.6738
▁unskilled	-11.6738
▁Utopia	-11.6739
▁hegemonic	-11.6739
▁Nozick	-11.6739
▁components	-11.674
▁Daily	-11.674
▁sincere	-11.6741
▁altruistic	-11.6743
pure	-11.6743
▁joining	-11.6746
▁(2	-11.6748
▁suspected	-11.675
▁governors	-11.6752
▁random	-11.6762
▁Indianapolis	-11.6765
▁admirable	-11.6765
▁Vermont	-11.6765
▁demonstrating	-11.6765
▁impoverishment	-11.6765
▁zone	-11.6766
▁publisher	-11.6769
their	-11.6769
▁dared	-11.6771
iness	-11.6772
▁acre	-11.6775
through	-11.6779
▁Class	-11.6782
▁indulge	-11.6788
▁throwing	-11.6791
▁unaware	-11.6791
▁Calhoun	-11.6792
▁prevalent	-11.6792
▁Richardson	-11.6793
▁offense	-11.6794
▁Tullock	-11.6794
ub	-11.6796
▁hyperinflation	-11.6797
supply	-11.6799
▁flourishing	-11.68
▁purchasers	-11.6802
▁131	-11.6802
.25	-11.6802
▁Lo	-11.6803
▁handled	-11.6804
▁mystical	-11.6805
makers	-11.6805
▁115	-11.6808
▁76	-11.6809
▁mild	-11.6812
▁sa	-11.6814
▁hesitate	-11.6815
▁frontiers	-11.6816
▁Mont	-11.6816
▁practicable	-11.6819
▁distribute	-11.682
▁recipient	-11.682
▁inventor	-11.682
▁unto	-11.6821
▁desperately	-11.6825
▁Butler	-11.6825
▁clearer	-11.6831
▁outflow	-11.6838
▁approximate	-11.6842
▁151	-11.6844
▁wicked	-11.6845
▁Kuhn	-11.6848
▁diminishes	-11.6849
42	-11.6849
▁faulty	-11.685
▁tacitly	-11.685
▁preface	-11.6855
▁corrected	-11.6855
▁stance	-11.6858
▁counterfeit	-11.6862
ator	-11.6867
▁afforded	-11.6868
party	-11.6871
▁electoral	-11.6874
▁Friday	-11.6874
▁identification	-11.6874
king	-11.6876
▁depressed	-11.6877
▁tolerated	-11.6877
▁Fathers	-11.6881
▁nationalized	-11.6886
▁aggregates	-11.689
▁crack	-11.6892
lin	-11.6893
▁minimize	-11.6896
▁evaluate	-11.6899
▁renounce	-11.6899
▁satisfactorily	-11.69
▁inform	-11.69
▁centered	-11.6901
▁Taking	-11.6903
▁seeds	-11.6903
▁vigorously	-11.6906
▁$1,000	-11.691
▁disputed	-11.6913
hard	-11.6915
▁1800	-11.6916
▁Wirtschaft	-11.6917
▁shrewd	-11.6922
▁Continent	-11.6922
ft	-11.6923
ification	-11.6926
▁141	-11.6927
▁Executive	-11.6927
▁exercising	-11.6927
▁reluctance	-11.6927
▁Penn	-11.693
▁Population	-11.693
My	-11.693
rich	-11.6934
▁143	-11.6936
▁artistic	-11.6938
▁edge	-11.6938
▁appoint	-11.6939
▁protested	-11.6942
▁channel	-11.6945
ke	-11.6946
▁truck	-11.6953
▁unanimous	-11.6953
▁hint	-11.6954
▁Sennholz	-11.6955
▁petroleum	-11.6955
▁wives	-11.6955
▁deterioration	-11.6955
▁coordinate	-11.6956
▁potatoes	-11.6956
▁tons	-11.6957
▁merger	-11.6961
▁depth	-11.6963
▁gang	-11.6964
▁implement	-11.6969
Summer	-11.697
▁proclaim	-11.697
established	-11.6971
▁Harris	-11.6972
▁Wells	-11.698
▁rested	-11.6981
▁Legal	-11.6982
▁suicide	-11.6982
▁stuck	-11.6982
▁lady	-11.6983
Saxon	-11.6984
▁adults	-11.6986
▁153	-11.6988
▁Article	-11.6989
▁beforehand	-11.699
▁Protection	-11.6992
▁reliance	-11.6996
▁individualistic	-11.6997
▁divert	-11.6998
▁disturb	-11.7
▁park	-11.7
▁planet	-11.7001
▁uniquely	-11.7001
▁patriotic	-11.7002
▁involuntary	-11.7005
▁Individual	-11.7007
▁spare	-11.7008
▁FIGURE	-11.7009
▁contingent	-11.701
45	-11.7011
▁frustrated	-11.7011
▁benevolent	-11.7012
▁Bauer	-11.7012
▁Major	-11.7012
▁invaded	-11.7012
ue	-11.7014
▁civilians	-11.7015
▁distorted	-11.7016
▁Soviets	-11.7016
▁pulled	-11.7017
▁communications	-11.7017
part	-11.7019
▁Individualism	-11.702
▁mess	-11.7021
▁springs	-11.7026
▁180	-11.7029
▁Con	-11.7031
ING	-11.7032
▁confuse	-11.7036
▁hostilities	-11.7037
65	-11.7038
type	-11.7043
▁males	-11.7044
▁speaker	-11.7049
▁finish	-11.705
▁dwell	-11.7053
about	-11.7054
▁modify	-11.7055
▁paradoxical	-11.7061
ak	-11.7061
29	-11.7063
▁1934	-11.7065
▁garden	-11.7065
lic	-11.7065
▁1947	-11.7066
▁cool	-11.7067
▁persecution	-11.7068
▁nomination	-11.7069
▁Point	-11.7071
▁invalid	-11.7076
▁1923.	-11.7076
threat	-11.7081
▁noise	-11.7081
▁expands	-11.7082
▁exercises	-11.7082
▁tale	-11.7083
.19	-11.7088
▁Commonwealth	-11.7092
▁Country	-11.7093
▁involvement	-11.7095
ron	-11.7096
▁interstate	-11.7097
▁honesty	-11.7099
utility	-11.7108
▁redeemed	-11.711
▁uniformly	-11.7111
▁secretly	-11.7113
▁boost	-11.7115
▁Bacon	-11.7117
▁Saturday	-11.712
▁thirteen	-11.712
▁admitting	-11.7121
fold	-11.7123
▁shadow	-11.7125
▁rebel	-11.7125
▁agreeable	-11.7125
46	-11.7127
▁Ma	-11.7135
▁conquer	-11.7135
▁fat	-11.7136
▁109	-11.7139
▁Have	-11.7141
▁cleared	-11.7145
▁spirits	-11.7146
▁allegiance	-11.7148
▁Harcourt	-11.7148
▁shipped	-11.7148
▁sweet	-11.7151
▁embraced	-11.7154
▁Taxes	-11.7154
▁107	-11.716
▁painting	-11.7163
ure	-11.7164
lived	-11.7164
▁suggesting	-11.7165
▁Yugoslavia	-11.7168
▁yard	-11.7171
▁dissatisfaction	-11.7176
▁Kenneth	-11.7177
▁inferiority	-11.7178
car	-11.7179
▁successors	-11.7179
▁plainly	-11.7188
▁postulates	-11.7189
▁Po	-11.719
▁trap	-11.7195
▁filling	-11.7198
.22	-11.7199
▁enact	-11.7202
▁Sumner	-11.7204
▁introducing	-11.7204
▁disappointed	-11.7205
▁expose	-11.7205
▁Fritz	-11.7207
▁munitions	-11.7207
▁postponed	-11.7207
kin	-11.7207
▁inconceivable	-11.7207
▁unanimously	-11.7208
▁vacation	-11.7208
88	-11.7209
▁thereof	-11.7211
▁phrases	-11.722
▁diet	-11.7222
▁specialists	-11.7227
▁cope	-11.7227
▁peacefully	-11.7228
63	-11.7228
▁Munich	-11.7231
▁robbed	-11.7232
▁100,000	-11.7233
▁subjectivism	-11.7235
▁contemplated	-11.7235
▁[6]	-11.7237
▁recommendation	-11.7238
▁105	-11.7239
▁understandable	-11.7242
▁1935	-11.725
▁sites	-11.7257
▁121	-11.7257
▁schooling	-11.7257
▁embargo	-11.7259
▁passionate	-11.7259
▁enhance	-11.7261
▁predominantly	-11.7262
▁Antitrust	-11.7263
▁kitchen	-11.7265
▁metaphor	-11.7265
▁Movement	-11.7265
▁FEE	-11.7265
5.	-11.7272
▁breach	-11.7272
▁Year	-11.7273
school	-11.7277
ile	-11.728
▁ineffective	-11.7286
▁clergy	-11.7287
▁theological	-11.7287
▁Alabama	-11.7288
▁verdict	-11.7288
▁intertemporal	-11.7288
▁stops	-11.7289
ha	-11.7291
▁Amsterdam	-11.7291
▁Wright	-11.7292
▁clash	-11.7301
▁124	-11.7304
▁livres	-11.7306
_	-11.7308
▁hearings	-11.7309
▁outline	-11.731
▁operative	-11.7314
▁lunch	-11.7315
▁loaf	-11.7316
▁impetus	-11.7317
▁impending	-11.7317
▁Wiley	-11.7317
▁affirmative	-11.7318
▁expounded	-11.7318
▁Cycles	-11.7319
▁renewal	-11.7319
▁162	-11.7319
▁Detroit	-11.7319
▁divisions	-11.732
rum	-11.732
▁Food	-11.732
▁succeeds	-11.7322
▁Knies	-11.7323
▁waves	-11.7323
▁discusses	-11.7323
▁1925	-11.7324
▁1986	-11.7327
▁witnessed	-11.7327
▁sink	-11.7329
▁mad	-11.7332
fixing	-11.7334
induced	-11.7335
▁Ed	-11.7337
▁advisers	-11.7337
▁weights	-11.7337
X	-11.7341
▁trader	-11.7342
▁Fleet	-11.7345
▁chemistry	-11.7345
▁committing	-11.7346
▁vastly	-11.7347
▁habitually	-11.7348
▁revived	-11.7348
▁managerial	-11.7348
▁exceedingly	-11.7349
▁delegation	-11.7351
▁hungry	-11.7352
cent	-11.7356
4.	-11.7359
價格	-11.7359
▁400	-11.7363
▁novels	-11.7364
▁nervous	-11.7369
▁protests	-11.737
▁purposive	-11.7371
▁chart	-11.7371
▁user	-11.7374
▁excitement	-11.7374
▁poetry	-11.7374
substitutes	-11.7379
▁aroused	-11.7379
?)	-11.7383
▁handling	-11.7384
▁exporting	-11.7385
▁Myth	-11.7389
▁characterizes	-11.7389
▁1976	-11.739
▁analyses	-11.7394
▁clauses	-11.7397
▁postpone	-11.7398
▁broker	-11.7399
▁rivers	-11.7399
▁nonsensical	-11.7402
▁greatness	-11.7402
▁teeth	-11.7402
▁proposing	-11.7403
▁dividing	-11.7403
▁Molinari	-11.7404
▁Apparently	-11.7404
▁bow	-11.7405
▁majorities	-11.7405
▁discriminatory	-11.741
▁orthodoxy	-11.741
▁abstraction	-11.741
▁legitimately	-11.7422
▁1927	-11.7423
trust	-11.7426
ot	-11.7427
▁Sch	-11.7428
▁irresistible	-11.7431
▁substituting	-11.7431
▁Elgar	-11.7431
▁emigration	-11.7431
▁noteworthy	-11.7431
▁remarkably	-11.7431
▁mercantile	-11.7433
▁Compare	-11.7433
▁1926	-11.7433
ee	-11.7433
▁PPM	-11.7435
▁epoch	-11.7436
6.	-11.7437
▁tolerance	-11.7437
▁poet	-11.7439
▁delusion	-11.744
▁doubted	-11.7441
▁leg	-11.7454
▁caution	-11.7456
▁Above	-11.746
▁Attack	-11.746
▁accuracy	-11.746
▁denominator	-11.746
▁displaced	-11.7462
▁instituted	-11.7463
▁curse	-11.7466
▁selfishness	-11.7466
▁legislator	-11.7466
▁households	-11.7471
▁wisely	-11.7473
24	-11.7474
Berlin	-11.7478
higher	-11.748
▁violations	-11.7481
▁Hayekian	-11.7481
▁laying	-11.7483
▁shake	-11.7485
ring	-11.7487
▁Look	-11.7487
▁scrutiny	-11.7488
▁deferred	-11.7488
▁miserable	-11.7489
▁enlarge	-11.7489
▁foreseen	-11.7492
▁centrally	-11.7494
▁17.	-11.7495
▁appealing	-11.7503
Winter	-11.7507
▁155	-11.7508
▁sacrificed	-11.751
▁dance	-11.7513
98	-11.7515
▁beneath	-11.7517
▁varieties	-11.7517
▁rubber	-11.7517
▁Woodrow	-11.7517
▁intact	-11.7517
ire	-11.752
▁Harrison	-11.7521
▁Manchester	-11.7521
▁subordination	-11.7523
ement	-11.7524
▁humanitarian	-11.7524
▁21.	-11.7524
employment	-11.7528
▁emperor	-11.7529
▁duly	-11.7529
▁flourish	-11.7531
90	-11.7536
▁prosper	-11.7538
▁Rate	-11.7541
ere	-11.7542
▁spectacular	-11.7544
▁shaped	-11.7544
▁Orleans	-11.7546
▁Evolution	-11.7549
▁indicating	-11.755
▁constrained	-11.7551
▁reservation	-11.7556
cit	-11.7556
▁diamonds	-11.7557
▁yearly	-11.7563
▁threatens	-11.7566
▁1840	-11.7575
▁146	-11.7575
▁Structure	-11.7575
▁conducive	-11.7575
▁thief	-11.7575
▁integral	-11.7576
▁heterogeneous	-11.7576
▁intolerable	-11.7577
6,	-11.7577
▁confirmation	-11.7577
▁intellectually	-11.7577
▁momentous	-11.7578
material	-11.758
▁poorly	-11.7583
▁250	-11.7584
▁ballot	-11.7584
▁subjection	-11.7585
▁manifests	-11.7589
▁148	-11.759
ug	-11.7596
▁troubled	-11.7601
▁1919,	-11.7603
head	-11.7603
▁beloved	-11.7604
▁intercourse	-11.7605
▁106	-11.7605
▁ha	-11.7607
▁presuppose	-11.7609
▁dimension	-11.7612
▁diverted	-11.7613
while	-11.7621
▁attending	-11.7626
▁quarrel	-11.7627
▁“‘	-11.7628
▁establishments	-11.7629
ah	-11.7631
▁storage	-11.7634
78	-11.7634
▁forthcoming	-11.7635
▁rigidity	-11.7635
▁cherished	-11.7637
▁tribal	-11.764
▁adviser	-11.7643
ions	-11.7644
▁malinvestment	-11.7645
▁utilize	-11.7658
industrial	-11.7659
ments	-11.766
▁repetition	-11.7663
▁beside	-11.7664
▁crippling	-11.7664
▁susceptible	-11.7665
▁materialistic	-11.7665
▁157	-11.7667
each	-11.7667
conservative	-11.7672
▁dividend	-11.7673
Looking	-11.7681
▁adventure	-11.7682
▁narrowly	-11.7682
”:	-11.7683
▁1981)	-11.7687
▁98	-11.7689
▁execute	-11.769
▁influx	-11.7692
▁lottery	-11.7692
▁Cobden	-11.7693
▁Printing	-11.7694
▁Nelson	-11.7694
▁Probably	-11.7695
▁mentions	-11.7696
▁112	-11.7696
▁dictated	-11.7697
0,000	-11.77
▁Car	-11.77
▁friction	-11.7704
▁Count	-11.771
▁152	-11.7714
▁compliance	-11.7722
▁Contrary	-11.7722
▁inventories	-11.7722
▁Jonathan	-11.7724
▁imputation	-11.7725
▁meal	-11.7729
these	-11.7731
▁Regulation	-11.7731
▁Les	-11.7731
▁dictators	-11.7734
▁128	-11.7736
▁dawn	-11.7737
▁149	-11.7738
▁tested	-11.7739
increasing	-11.7742
▁adapt	-11.7744
▁Tradition	-11.7745
▁discovering	-11.7745
▁differed	-11.7747
▁plentiful	-11.7748
▁pioneer	-11.7748
▁Eventually	-11.7752
▁populace	-11.7752
▁biography	-11.7752
▁Turkey	-11.7752
▁unrestricted	-11.7752
▁Charleston	-11.7754
▁Pigou	-11.7754
▁reproduction	-11.7754
▁unowned	-11.7756
▁institute	-11.7757
▁Liberals	-11.7759
▁veteran	-11.7761
▁Pro	-11.7761
ery	-11.7763
▁waters	-11.7766
General	-11.7771
▁172	-11.7773
▁Generally	-11.7774
▁ensuing	-11.7781
▁Reverend	-11.7781
▁throne	-11.7781
▁traces	-11.7786
▁[7]	-11.7787
▁exertion	-11.7793
▁covers	-11.7793
▁barrel	-11.7795
▁Newton	-11.7801
▁unreasonable	-11.7802
step	-11.7803
▁fanatical	-11.7808
▁shrink	-11.7811
▁continuity	-11.7812
▁Robertson	-11.7814
▁preferable	-11.7815
▁1879	-11.7818
▁silk	-11.7821
)—	-11.7825
legal	-11.7829
▁wearing	-11.7833
▁cow	-11.7834
▁129	-11.7836
▁Change	-11.7837
si	-11.7838
▁spectacle	-11.7841
▁residence	-11.7841
▁grace	-11.7841
▁Schwartz	-11.7842
▁unduly	-11.7843
▁birthday	-11.7844
▁unanimity	-11.7844
pay	-11.7847
▁Me	-11.7848
▁injure	-11.7848
▁145	-11.7849
▁villages	-11.785
▁responses	-11.7851
能	-11.7852
▁attraction	-11.7858
▁122	-11.7858
science	-11.786
.”3	-11.7862
▁parcel	-11.7863
Fall	-11.7864
▁progressively	-11.7868
▁award	-11.787
▁Swedish	-11.7871
▁capacities	-11.7871
▁injurious	-11.7871
▁myriad	-11.7871
▁strata	-11.7871
▁exchangeable	-11.7871
▁repression	-11.7871
▁Brace	-11.7871
▁Norton	-11.7872
▁Albany	-11.7872
▁contrasts	-11.7874
▁Pa	-11.7874
▁missed	-11.7876
▁goodness	-11.7876
▁aspirations	-11.7878
▁1935)	-11.7879
mises	-11.7881
▁Iran	-11.7881
So	-11.7883
▁processing	-11.7883
life	-11.7886
▁1932)	-11.7887
democracy	-11.7891
▁bombing	-11.7892
▁reproach	-11.7894
▁pamphlets	-11.7896
▁perish	-11.7897
▁Pan	-11.7898
▁Grew	-11.7901
▁Gulf	-11.7901
▁philosophic	-11.7901
▁dictatorial	-11.7901
▁warnings	-11.7902
▁Kolko	-11.7902
▁1786	-11.7902
▁132	-11.7906
0.	-11.7907
▁hopelessly	-11.7908
▁grandfather	-11.7908
▁plight	-11.7909
▁franchise	-11.7911
▁journalist	-11.7913
▁156	-11.7916
▁guests	-11.7918
ek	-11.7921
▁Imagine	-11.7931
▁____	-11.7931
▁subsidiary	-11.7932
▁chaotic	-11.7932
▁crazy	-11.7933
▁Arlington	-11.7933
▁retaining	-11.7933
▁1971.	-11.7934
▁unintended	-11.7934
▁Pittsburgh	-11.7935
▁resting	-11.7937
▁inflicted	-11.7937
▁welcomed	-11.7938
.21	-11.7939
asmuch	-11.7942
▁invite	-11.7943
high	-11.7944
▁surrendered	-11.7945
▁nobles	-11.7948
▁barrels	-11.7951
▁1954	-11.7954
▁principally	-11.7956
▁accommodate	-11.7959
▁137	-11.796
▁Insurance	-11.7961
▁beach	-11.7961
Is	-11.7963
▁damages	-11.7965
▁Poor	-11.7966
▁jump	-11.7968
▁1944	-11.7969
▁$20	-11.797
▁Wirtschafts	-11.797
▁Principle	-11.7973
▁Greeks	-11.7973
▁1928,	-11.798
▁135	-11.7981
town	-11.7986
▁Bell	-11.7986
▁170	-11.7988
▁resume	-11.7988
▁heritage	-11.7991
▁judiciary	-11.7991
▁Future	-11.7991
▁Buckley	-11.7992
▁readiness	-11.7993
▁ECB	-11.7993
▁finances	-11.7993
▁VIII	-11.7994
Let	-11.8002
true	-11.8004
▁tear	-11.8006
▁reads	-11.8009
Hudson	-11.8013
Oxford	-11.8013
▁wherein	-11.8013
▁map	-11.8013
.24	-11.8013
▁disciple	-11.8014
Some	-11.8016
▁23.	-11.8017
▁fond	-11.8018
▁stations	-11.802
▁Academy	-11.8022
▁reversal	-11.8022
▁subsidizing	-11.8022
decentralization	-11.8022
▁paradise	-11.8022
▁Carroll	-11.8022
▁leap	-11.8022
▁Warburg	-11.8023
▁lends	-11.8024
▁naked	-11.8024
▁aesthetic	-11.8024
▁Beard	-11.8025
▁Si	-11.8025
▁lo	-11.8027
▁ambitions	-11.803
▁fake	-11.8031
▁proletarians	-11.8033
▁stealing	-11.8033
▁1940.	-11.8034
▁intervals	-11.8037
▁164	-11.8038
▁secondly	-11.8038
▁constraints	-11.8038
▁Mayer	-11.8043
modern	-11.8043
▁1993	-11.8044
▁Cuba	-11.8046
rather	-11.8047
▁1971)	-11.8048
▁arch	-11.8049
▁Ben	-11.8051
may	-11.8052
▁Already	-11.8052
▁disinterested	-11.8052
▁Letters	-11.8054
▁regression	-11.8056
▁embarked	-11.8061
▁Soto	-11.8065
▁richest	-11.8073
▁simpler	-11.8076
▁1945,	-11.8078
▁126	-11.8078
91	-11.808
▁Dreadwind	-11.8083
▁starving	-11.8083
▁concluding	-11.8083
ach	-11.8083
▁intersection	-11.8083
ric	-11.8085
▁$35	-11.8085
▁Beyond	-11.8085
loss	-11.809
▁blocked	-11.8093
than	-11.8093
68	-11.8094
▁stroke	-11.8099
▁Quaker	-11.8099
▁Jacksonian	-11.81
paid	-11.8103
created	-11.8105
breaking	-11.8106
▁Sumter	-11.8114
▁restoring	-11.8114
▁progressing	-11.8115
▁withholding	-11.8115
▁shouldn	-11.8116
▁Critical	-11.8116
▁managing	-11.8117
deposit	-11.8118
44	-11.8121
▁Ayn	-11.8122
▁1956	-11.8123
▁arriving	-11.8127
ga	-11.8129
▁professions	-11.8134
▁IX	-11.814
▁seasonal	-11.8142
▁1894	-11.8142
▁leather	-11.8144
▁Conversely	-11.8145
▁specially	-11.8146
▁Negroes	-11.8146
▁1979	-11.8146
▁Marginal	-11.8146
▁revolutionaries	-11.8148
maker	-11.8149
▁frozen	-11.815
▁stabilizing	-11.815
▁delegate	-11.8154
▁floating	-11.8157
▁exaggeration	-11.8157
▁expedition	-11.8157
▁Queen	-11.8157
▁1971	-11.8161
▁116	-11.8162
▁transforming	-11.8162
▁talks	-11.8162
▁decidedly	-11.8163
▁Wood	-11.8166
Hartley	-11.8166
system	-11.8167
▁pietists	-11.8167
contradictory	-11.8167
volume	-11.8167
▁miss	-11.8167
▁evade	-11.8172
▁conceal	-11.8172
9.	-11.8173
▁Wallace	-11.8175
▁1952	-11.8176
▁voices	-11.8179
▁[8]	-11.8179
▁Comment	-11.818
▁indebtedness	-11.818
▁intuition	-11.8181
▁explore	-11.8185
▁assess	-11.8185
▁emotion	-11.8186
▁prerequisite	-11.8189
▁colleague	-11.8194
▁journalists	-11.8196
should	-11.8198
Money	-11.8198
▁exceeding	-11.82
dy	-11.8201
75	-11.8202
▁Similar	-11.8202
▁marvelous	-11.8202
▁reconcile	-11.8202
▁counteract	-11.8204
▁curiosity	-11.8206
▁defective	-11.8206
▁testified	-11.8207
▁16.	-11.8208
▁Thane	-11.8208
▁Main	-11.8208
▁slump	-11.8208
▁Lionel	-11.8209
▁Statistical	-11.821
▁roles	-11.8212
▁greenbacks	-11.8213
▁artists	-11.8214
▁1949)	-11.8214
▁macro	-11.8216
▁stamped	-11.8217
▁manifestly	-11.8217
▁outlaw	-11.8218
▁(19	-11.8218
▁resolutions	-11.8218
▁esteem	-11.8218
▁impost	-11.8219
▁wonders	-11.8222
▁bull	-11.8223
▁bag	-11.8225
▁shoulders	-11.8227
▁Congressman	-11.8228
ris	-11.8228
▁159	-11.8228
▁w	-11.8231
▁ranked	-11.8233
▁grateful	-11.8233
▁guilds	-11.8236
▁Dodd	-11.8238
▁shooting	-11.8244
▁postal	-11.8249
▁grievances	-11.8249
▁sunk	-11.8251
▁akin	-11.8252
▁adaptation	-11.8253
34	-11.8254
▁114	-11.8255
▁rationalist	-11.8257
▁qualify	-11.8259
▁identifying	-11.8261
▁slaughter	-11.8262
▁1927,	-11.8263
▁definitive	-11.8266
▁unconditional	-11.8267
▁Brazil	-11.8267
▁energetic	-11.8268
▁Consumers	-11.8269
.’”	-11.8269
▁preposterous	-11.8269
▁1927.	-11.827
▁Livingston	-11.8271
▁Stigler	-11.8272
▁nonmonetary	-11.8272
▁Ann	-11.8272
▁overnight	-11.8273
▁counting	-11.8277
▁budgets	-11.8279
▁1962	-11.828
▁enabl	-11.8282
▁revelation	-11.8284
▁constraint	-11.8286
▁scrap	-11.8287
▁Rogers	-11.8288
▁wheel	-11.8291
mi	-11.8296
laws	-11.8296
▁_____________	-11.8299
▁negotiate	-11.8299
mar	-11.8303
▁witnesses	-11.8303
▁ceilings	-11.8304
▁Moore	-11.8305
▁133	-11.8306
66	-11.8307
▁manual	-11.8307
art	-11.8309
▁ensue	-11.831
▁paint	-11.831
可以	-11.8311
ven	-11.8312
56	-11.8312
▁Jane	-11.8314
▁Morgans	-11.8315
▁characterize	-11.8315
▁harmless	-11.8317
▁collecting	-11.832
▁grasped	-11.832
▁lumber	-11.8321
▁weigh	-11.8323
Q	-11.8325
▁Hugh	-11.833
▁hereditary	-11.8331
▁metaphysics	-11.8331
▁precarious	-11.8331
▁snow	-11.8331
▁souls	-11.8331
hu	-11.8332
▁Cannan	-11.8332
▁ambiguous	-11.8332
▁prone	-11.8333
▁interrupted	-11.8333
▁startling	-11.8333
▁Sociology	-11.8334
▁odds	-11.8334
▁Often	-11.8334
▁attaches	-11.8334
▁Geschichte	-11.8335
▁Tribune	-11.8337
▁crushed	-11.8338
▁smile	-11.8342
▁144	-11.8343
▁crushing	-11.8343
▁links	-11.8352
▁cigarettes	-11.8354
▁opera	-11.8357
▁suspicious	-11.836
▁colleges	-11.8361
▁temper	-11.8362
▁endorsement	-11.8364
▁historicism	-11.8364
▁delighted	-11.8367
▁successively	-11.8372
net	-11.8373
▁adhere	-11.8376
▁reporting	-11.8376
▁laugh	-11.8382
▁Art	-11.8393
▁Ministry	-11.8394
▁autumn	-11.8394
▁beneficence	-11.8394
▁discrepancy	-11.8394
▁dissertation	-11.8394
▁facility	-11.8394
▁sustenance	-11.8394
▁diplomacy	-11.8395
▁constituting	-11.8396
▁proving	-11.8397
▁priority	-11.8398
AR	-11.8399
▁reckoned	-11.8399
za	-11.8399
97	-11.8403
▁appearing	-11.8404
,1	-11.8405
▁excesses	-11.8406
▁coupled	-11.8406
▁sins	-11.8408
ical	-11.8409
open	-11.8409
▁dispense	-11.8409
▁jointly	-11.8411
▁Fred	-11.8412
va	-11.8412
▁coat	-11.8413
▁descendants	-11.8414
▁moments	-11.842
▁CHAPTER	-11.8422
100	-11.8425
▁societal	-11.8426
▁XIV	-11.8426
▁forecasts	-11.8426
▁irrespective	-11.8427
▁pessimism	-11.8427
▁1991	-11.8428
▁Poverty	-11.8429
▁142	-11.8429
▁1959	-11.8431
Le	-11.8433
▁flaws	-11.8435
▁modification	-11.8441
▁accomplishment	-11.8443
▁139	-11.8448
▁Grand	-11.8448
▁drift	-11.8449
▁buried	-11.8457
▁relativism	-11.8457
▁Baruch	-11.8457
▁rivalry	-11.8458
▁consult	-11.8459
▁accelerating	-11.846
▁tracts	-11.8463
▁fostered	-11.8464
▁Korean	-11.8465
▁progression	-11.8466
▁pig	-11.8467
▁heap	-11.847
▁maximizing	-11.847
▁violates	-11.8471
▁_____.	-11.8471
rk	-11.8481
▁constructing	-11.8484
▁concomitant	-11.8485
▁ears	-11.8488
▁indebted	-11.8488
▁138	-11.8488
▁Lassalle	-11.8489
▁McGraw	-11.8489
▁Barnes	-11.8489
▁Fox	-11.8489
.23	-11.849
▁grass	-11.8492
▁Military	-11.8492
▁repercussions	-11.8495
▁outgrowth	-11.8495
▁fur	-11.8498
▁1970)	-11.8499
▁oath	-11.8505
▁Protestants	-11.8507
7.	-11.8507
▁classroom	-11.8507
▁assigns	-11.8507
great	-11.8511
▁19.	-11.8512
welfare	-11.8514
▁cup	-11.8515
fer	-11.8516
historical	-11.8516
▁Vi	-11.8517
▁confiscate	-11.8517
▁needless	-11.8518
▁Krupp	-11.8521
▁unpredictable	-11.8521
▁imprisonment	-11.8521
▁Carey	-11.8522
▁luxuries	-11.8522
▁Earl	-11.8522
▁frightened	-11.8522
▁illusions	-11.8522
▁manifestations	-11.8522
▁consolidation	-11.8523
▁heroes	-11.8523
▁inclusion	-11.8525
▁admired	-11.8525
67	-11.8525
▁resigned	-11.8526
▁cream	-11.8526
▁spur	-11.8531
▁trillion	-11.8538
▁fabric	-11.8539
▁Things	-11.8539
both	-11.8543
Z	-11.8545
Vienna	-11.8546
▁dispatch	-11.8546
▁rediscount	-11.8548
val	-11.855
▁treason	-11.8552
▁patients	-11.8553
▁1966)	-11.8553
▁childhood	-11.8554
▁recurring	-11.8554
▁Particularly	-11.8554
▁predatory	-11.8558
▁Geld	-11.8559
▁22.	-11.856
▁differing	-11.8568
▁pretext	-11.857
▁dominion	-11.857
round	-11.857
▁Loan	-11.8571
▁pleases	-11.8574
▁murdered	-11.8575
▁bars	-11.8577
▁organisms	-11.8577
▁pile	-11.8578
▁railways	-11.8578
▁1962)	-11.858
▁speculate	-11.8582
á	-11.8582
▁1820	-11.8585
▁Federation	-11.8585
▁ingenuity	-11.8585
▁Führer	-11.8587
▁negation	-11.8587
▁1953)	-11.8591
▁Berkeley	-11.8593
▁symptoms	-11.8593
ru	-11.86
▁pension	-11.8606
▁resident	-11.8608
▁waited	-11.8608
▁wit	-11.8608
Hill	-11.8611
▁Bratton	-11.8618
▁settling	-11.8618
owners	-11.8619
▁beaten	-11.8619
▁ripe	-11.862
▁comprised	-11.862
▁attendant	-11.8621
▁Hansen	-11.8622
▁recovered	-11.8624
ised	-11.8629
range	-11.863
▁lawful	-11.8633
▁mechanisms	-11.8633
▁capitalized	-11.8634
81	-11.8636
ual	-11.8636
82	-11.8637
Keynes	-11.8642
water	-11.8643
▁ut	-11.8645
▁reckless	-11.8646
8,	-11.865
▁edifice	-11.865
▁extraordinarily	-11.865
▁defy	-11.8651
▁147	-11.8652
taking	-11.8653
▁monarchical	-11.8657
▁twofold	-11.8659
▁accrue	-11.8664
▁bloc	-11.8666
style	-11.8667
▁mischief	-11.8668
▁Grant	-11.8669
▁Origin	-11.867
▁mix	-11.867
▁136	-11.8673
ning	-11.8673
▁horrors	-11.8677
▁outlay	-11.8679
▁mortal	-11.8681
▁Goethe	-11.8682
▁unsatisfied	-11.8683
▁impartial	-11.8683
▁lucky	-11.8692
cher	-11.8696
▁127	-11.8701
▁dogs	-11.8704
standing	-11.8707
▁drops	-11.8708
▁revert	-11.871
owner	-11.8712
▁sabotage	-11.8713
▁drama	-11.8715
▁struggling	-11.8715
▁spectrum	-11.8715
▁victories	-11.8715
▁Survey	-11.8716
▁religions	-11.8717
▁arrives	-11.8722
▁Greene	-11.873
▁expend	-11.8733
▁bushel	-11.8734
che	-11.8734
▁heading	-11.8734
▁assignment	-11.8734
▁lowers	-11.8737
▁humble	-11.8744
▁Elizabeth	-11.8746
▁Aquinas	-11.8748
▁advocacy	-11.8748
▁overriding	-11.8749
▁deficiencies	-11.8749
▁Raymond	-11.875
▁distort	-11.8751
▁134	-11.8752
▁[9]	-11.8752
▁stepped	-11.8752
▁197	-11.8754
▁focuses	-11.8755
▁Mind	-11.8755
▁rushed	-11.8757
▁Working	-11.8762
▁females	-11.8767
par	-11.8776
▁1922,	-11.8777
51	-11.878
▁controversies	-11.878
lay	-11.8781
▁repaid	-11.8782
▁maximization	-11.8783
▁inventory	-11.8783
▁Silver	-11.8783
▁swiftly	-11.8784
▁herd	-11.8785
▁Golden	-11.8787
▁priests	-11.8787
▁poorest	-11.8789
▁additions	-11.8792
▁seeming	-11.88
▁Op	-11.88
▁auction	-11.8802
lest	-11.8802
▁Foundations	-11.8803
▁Too	-11.8803
▁correction	-11.8808
clearing	-11.881
▁penalize	-11.8811
total	-11.8813
▁exciting	-11.8813
▁unnatural	-11.8814
▁Transportation	-11.8815
▁1790	-11.8815
▁Literature	-11.8815
▁Gabriel	-11.8815
▁Shelley	-11.8815
▁Originally	-11.8817
▁realizes	-11.8818
▁bloody	-11.8822
▁symbols	-11.8822
▁preparations	-11.8827
ba	-11.883
▁switch	-11.883
▁designs	-11.8831
headed	-11.8832
▁Wars	-11.8834
▁marry	-11.8837
▁poll	-11.884
ii	-11.8842
▁Pe	-11.8842
▁servitude	-11.8846
states	-11.8847
▁hoping	-11.8848
▁resumed	-11.885
▁forbid	-11.8851
▁tens	-11.8851
▁professed	-11.8852
▁posts	-11.8854
▁albeit	-11.8854
▁$100,000	-11.8856
▁contemplate	-11.8862
▁smell	-11.8865
▁launch	-11.8865
▁guy	-11.8866
▁cites	-11.8866
▁observes	-11.8867
▁1971,	-11.8871
▁Basic	-11.888
▁Gates	-11.888
▁Series	-11.888
ag	-11.8881
▁convicted	-11.8881
▁enlightenment	-11.8881
▁dan	-11.8882
▁moderation	-11.8883
▁announce	-11.8886
▁plate	-11.8887
▁rice	-11.8888
53	-11.8889
▁1998)	-11.8891
▁Lutherans	-11.8891
▁Means	-11.8894
▁radicalism	-11.8894
▁Roberts	-11.8897
▁Brothers	-11.8898
▁reckon	-11.8898
▁Fascist	-11.891
▁anonymous	-11.891
▁NLRB	-11.8913
▁Portugal	-11.8913
▁impracticable	-11.8913
▁Saddam	-11.8913
bust	-11.8914
▁Leland	-11.8914
▁elderly	-11.8915
▁reinforced	-11.8915
▁rude	-11.8916
▁lust	-11.8921
▁concealed	-11.8921
▁158	-11.8928
▁burn	-11.8928
▁listening	-11.893
▁1917,	-11.8932
▁diamond	-11.8933
▁predecessor	-11.8933
▁183	-11.8938
▁Am	-11.8939
nothing	-11.8941
▁ear	-11.8941
▁fierce	-11.8942
▁extravagant	-11.8944
▁Revolt	-11.8946
▁desirability	-11.8946
▁repudiation	-11.8946
▁Prize	-11.8946
▁Light	-11.8946
▁attendance	-11.8946
▁conceivably	-11.8947
▁tenure	-11.8948
▁sinister	-11.8949
▁discarded	-11.8949
▁coup	-11.895
▁Annual	-11.8951
▁Verlag	-11.8952
▁treasure	-11.8959
▁invade	-11.8961
▁premiums	-11.8964
▁Ever	-11.8969
unless	-11.897
Editor	-11.8973
▁Saving	-11.8974
▁167	-11.8975
.[2]	-11.8977
▁egg	-11.8977
▁Franco	-11.8979
▁barbarism	-11.8979
▁Staff	-11.898
▁Gazette	-11.8981
▁complications	-11.8983
▁tyrants	-11.8983
gatherer	-11.8995
▁narrative	-11.9
▁guerrilla	-11.9002
eight	-11.9005
▁utopian	-11.901
▁1948)	-11.9011
▁heir	-11.9012
▁indignation	-11.9013
▁adversaries	-11.9013
▁patronage	-11.9013
▁profitably	-11.9017
▁atomic	-11.902
▁persisted	-11.902
▁labeled	-11.9023
▁disregarded	-11.903
rie	-11.903
▁planters	-11.9031
▁auto	-11.9031
▁1926,	-11.9032
▁prolong	-11.9033
▁wondered	-11.9034
National	-11.9034
▁bureau	-11.9035
▁tune	-11.9036
ari	-11.9038
according	-11.9041
▁Italians	-11.9043
▁perpetuate	-11.9043
▁expecting	-11.9045
▁factual	-11.9046
▁régime	-11.9047
▁damaging	-11.9047
▁synonymous	-11.9047
▁charitable	-11.9048
▁honour	-11.905
▁centre	-11.9051
▁161	-11.9052
▁Self	-11.9052
▁Lake	-11.9054
ory	-11.9057
▁islands	-11.9059
here	-11.9064
▁god	-11.9067
St	-11.9072
▁Lutheran	-11.9073
▁Staats	-11.9073
using	-11.9074
▁Rodbertus	-11.908
▁misunderstood	-11.9081
▁1780	-11.9082
▁Could	-11.9083
▁Strictly	-11.9083
very	-11.9086
▁Jacques	-11.9087
▁organisation	-11.9088
▁hole	-11.9089
▁outlawing	-11.9091
▁Ha	-11.9094
▁flowers	-11.9096
▁Di	-11.9096
▁commented	-11.9097
▁Calvin	-11.9098
▁willingly	-11.9101
這些	-11.9103
因	-11.9113
▁dynamics	-11.9113
▁Rebellion	-11.9114
▁criticizing	-11.9115
ium	-11.9115
▁privacy	-11.9116
▁unthinkable	-11.9116
▁Hermann	-11.9117
wissenschaften	-11.9118
iz	-11.9119
▁constitutions	-11.9122
▁Historians	-11.9127
▁accomplishments	-11.9132
í	-11.9132
▁commissions	-11.9133
▁Interventionism	-11.9134
▁finger	-11.9135
▁misfortune	-11.9137
▁1978.	-11.914
fi	-11.9142
▁pertinent	-11.9145
month	-11.9145
ois	-11.9147
▁ammunition	-11.9148
▁über	-11.9148
.[1]	-11.9149
▁interfering	-11.9151
▁eve	-11.9151
▁Webster	-11.9151
▁dissolved	-11.9151
▁upheld	-11.9152
▁arbitrariness	-11.9152
▁statutes	-11.9153
▁compound	-11.9156
▁contents	-11.9159
▁similarity	-11.9161
▁hoard	-11.9163
▁implying	-11.9163
tive	-11.9164
▁1934)	-11.9164
▁prophet	-11.9168
▁Roy	-11.917
▁peculiarly	-11.917
▁package	-11.9171
▁pet	-11.9173
▁Mc	-11.9177
▁killer	-11.9178
▁Gouverneur	-11.9183
▁legacy	-11.9183
▁unlawful	-11.9183
theory	-11.9183
▁Mediterranean	-11.9183
▁justifiable	-11.9184
▁Murphy	-11.9185
▁traditionally	-11.9185
▁Fall	-11.9186
▁Religion	-11.9187
▁picketing	-11.9189
▁priced	-11.9189
▁Reformation	-11.9189
payments	-11.9196
▁irony	-11.92
▁disrupt	-11.9201
▁198	-11.9201
▁averages	-11.9202
▁179	-11.9205
▁embodiment	-11.9205
▁participant	-11.9206
▁stored	-11.9211
▁load	-11.9212
▁Father	-11.9213
▁Howe	-11.9215
▁Machiavelli	-11.9217
▁Cairnes	-11.9217
▁combining	-11.9217
▁jewelry	-11.9217
▁Baker	-11.9217
▁wore	-11.9217
▁Hobbes	-11.9217
▁moon	-11.9217
▁Caesar	-11.9219
▁provoked	-11.922
▁fled	-11.9223
▁implemented	-11.9223
▁roll	-11.9225
▁directs	-11.9227
▁Ar	-11.9227
capitalism	-11.9227
59	-11.9235
▁anticipating	-11.9236
capitalistic	-11.9237
▁detect	-11.9238
▁bail	-11.9239
unit	-11.924
tan	-11.9242
▁robber	-11.9243
▁traveling	-11.9244
▁sweep	-11.9245
▁cancel	-11.9246
▁Entrepreneurs	-11.9248
.”4	-11.9248
▁imitation	-11.9251
▁ugly	-11.9251
▁Creator	-11.9252
▁unrelated	-11.9252
▁Volker	-11.9252
▁bookkeeping	-11.9252
▁craft	-11.9256
mes	-11.9257
▁scientifically	-11.9259
▁smoothly	-11.9259
res	-11.9264
▁senseless	-11.9265
▁initiate	-11.9271
▁reviewed	-11.9274
▁scholastic	-11.9276
▁173	-11.9277
▁inducement	-11.9278
▁withheld	-11.9279
–15	-11.928
ide	-11.928
collective	-11.9281
▁critically	-11.9283
▁whites	-11.9284
▁wretched	-11.9285
▁lift	-11.9285
▁civic	-11.9286
▁conjunction	-11.9286
▁Bruce	-11.9286
▁skepticism	-11.9286
▁Clay	-11.9288
▁tyrannical	-11.9288
▁ABCT	-11.9289
▁diseases	-11.9289
▁Hülsmann	-11.929
-7	-11.9292
▁entailed	-11.9294
len	-11.9295
▁incumbent	-11.9296
▁Institution	-11.9296
▁passengers	-11.9299
▁Eugene	-11.9299
▁faction	-11.93
▁vaguely	-11.9301
▁crowded	-11.9305
▁1993)	-11.931
bearing	-11.9312
▁refuge	-11.9313
▁span	-11.9314
▁disguise	-11.9317
▁courageous	-11.9317
▁18.	-11.9317
▁Certain	-11.9318
▁rightful	-11.932
▁Confidential	-11.932
▁Greaves	-11.932
▁emphasizing	-11.9322
▁[10]	-11.9325
▁stresses	-11.9326
▁Five	-11.9329
▁van	-11.9332
▁interfered	-11.9334
▁meanings	-11.9334
▁pipe	-11.9335
going	-11.9337
▁promotes	-11.934
ade	-11.934
▁inspire	-11.9341
▁188	-11.9341
▁UN	-11.9343
▁pose	-11.9344
▁horizon	-11.9344
▁cable	-11.9345
▁miners	-11.9347
▁Rates	-11.9347
▁senator	-11.9348
▁Writings	-11.9349
▁planner	-11.9349
▁1973.	-11.9349
Be	-11.9351
▁casual	-11.9351
▁dishonest	-11.9353
▁grandmother	-11.9355
▁Small	-11.9355
▁citizenry	-11.9357
▁Higgs	-11.9358
▁Special	-11.9358
▁stones	-11.9359
▁vulnerable	-11.9359
six	-11.9362
▁drivers	-11.9368
▁Cole	-11.9368
▁BUS	-11.9371
▁165	-11.9372
▁fairness	-11.9375
▁provoke	-11.9376
▁dust	-11.9378
.26	-11.9379
▁Anglican	-11.9381
5,000	-11.9383
▁delicate	-11.9386
▁arrogant	-11.9386
▁mitigate	-11.9386
▁1924,	-11.9387
▁Sp	-11.9388
▁fever	-11.939
▁transferring	-11.939
▁dispersed	-11.9391
▁parental	-11.9392
▁questioning	-11.9394
▁sand	-11.9394
▁pecuniary	-11.9394
▁expansionary	-11.9399
▁deception	-11.94
▁Hudson	-11.94
building	-11.9403
▁financially	-11.9406
▁impel	-11.9406
▁Imperial	-11.9406
▁cons	-11.9407
▁cells	-11.9408
▁181	-11.9408
▁breath	-11.9409
▁extensively	-11.9409
▁delight	-11.9411
▁agreeing	-11.9411
▁uneconomic	-11.9412
▁embarrassment	-11.9415
▁answering	-11.9415
▁apologists	-11.9416
▁realism	-11.942
consuming	-11.942
▁blockade	-11.9422
▁assertions	-11.9423
▁tenant	-11.9424
▁firing	-11.9425
▁impelled	-11.9425
▁Renaissance	-11.9426
▁Staat	-11.9426
▁worthwhile	-11.9426
▁1930,	-11.943
▁abandoning	-11.9433
▁homesteading	-11.9434
▁pretended	-11.9436
prices	-11.9437
tur	-11.9441
▁modifications	-11.9442
▁swing	-11.9443
▁incompetent	-11.9445
▁1913,	-11.9445
▁1977.	-11.9447
qui	-11.9448
gr	-11.945
▁lists	-11.945
▁signify	-11.9451
▁importing	-11.9452
ker	-11.9453
▁campaigns	-11.9453
meaning	-11.9454
▁immigrant	-11.9455
▁1964	-11.9455
▁gratitude	-11.946
▁urgency	-11.946
▁Management	-11.9462
▁smart	-11.9462
▁henceforth	-11.9463
▁measurable	-11.9464
▁Sidney	-11.9465
▁incidental	-11.9465
▁Garden	-11.947
▁contends	-11.9477
▁exhaust	-11.948
mb	-11.9483
▁contra	-11.9485
▁temperature	-11.9486
ute	-11.9489
▁freeze	-11.9489
▁seats	-11.949
Christian	-11.9491
▁thick	-11.9493
▁vi	-11.9494
▁Adolf	-11.9495
▁Recovery	-11.9495
▁thoughtful	-11.9495
▁Calif	-11.9496
▁Va	-11.9497
▁impersonal	-11.9498
▁graduated	-11.9503
▁exhibited	-11.9504
revolution	-11.9505
-17	-11.9509
▁pensions	-11.9511
.50	-11.9516
▁2000	-11.952
▁1977)	-11.9521
▁bubbles	-11.9521
▁$50	-11.9521
▁1944,	-11.9522
▁belligerent	-11.9523
ward	-11.9523
set	-11.9526
▁Ta	-11.9527
namely	-11.9527
Ed	-11.953
▁Hancock	-11.953
▁Jeffrey	-11.953
▁Leviathan	-11.953
▁sorry	-11.953
▁Tooke	-11.9532
▁Laissez	-11.9534
Not	-11.9536
▁weighed	-11.9536
▁holy	-11.9537
▁weakening	-11.9545
▁alterations	-11.9545
▁erect	-11.955
▁Along	-11.9552
▁1983)	-11.9555
▁clamor	-11.9557
▁constructions	-11.9558
▁hourly	-11.9559
▁singer	-11.956
▁Tariff	-11.956
▁pot	-11.9564
▁inconvenience	-11.9565
▁221	-11.9565
▁livelihood	-11.9566
▁omitted	-11.9566
▁Tracy	-11.9566
▁nose	-11.957
▁micro	-11.9573
▁pact	-11.9576
▁listened	-11.9577
▁cultivate	-11.9589
▁violently	-11.9591
▁Thanks	-11.9594
▁(16	-11.9594
bel	-11.9594
indeed	-11.9598
▁pan	-11.9601
▁multiplicity	-11.9601
▁multiplication	-11.9602
▁Deutsche	-11.9602
▁entertainment	-11.9603
▁prisoner	-11.9603
▁Florence	-11.9603
▁preferring	-11.9603
▁transmitted	-11.9603
▁Scientific	-11.9604
▁Stabilization	-11.9604
▁undergo	-11.9605
▁smoking	-11.9605
product	-11.9609
▁z	-11.9609
▁generating	-11.9611
▁unusually	-11.9612
▁dies	-11.9615
▁macroeconomics	-11.9617
7,	-11.9622
41	-11.9623
.27	-11.9624
▁166	-11.9625
▁171	-11.9627
▁exemption	-11.963
▁1928.	-11.9631
▁1990.	-11.9634
▁torture	-11.9634
▁1999	-11.9635
▁Unit	-11.9637
▁insoluble	-11.9637
▁Aaron	-11.9637
▁ARET	-11.9637
▁exile	-11.9637
▁liquidate	-11.9638
▁undue	-11.9639
▁generosity	-11.9639
▁Quantity	-11.9641
▁homeless	-11.9644
tum	-11.9644
▁concerted	-11.9645
▁requested	-11.9652
▁void	-11.9658
▁compact	-11.9658
▁1981	-11.966
▁shippers	-11.966
▁cripple	-11.9663
ich	-11.9663
▁1949,	-11.9666
put	-11.9667
nine	-11.9668
▁abnormal	-11.9668
▁gr	-11.9668
▁hail	-11.9669
▁ominous	-11.9669
▁genetic	-11.967
▁unwise	-11.967
ita	-11.9671
▁severity	-11.9673
▁prudent	-11.9673
▁impoverished	-11.9675
▁syndicalism	-11.9675
uck	-11.9675
▁1785	-11.9676
▁Cross	-11.9676
▁determinism	-11.9676
▁Skyscraper	-11.9677
▁musical	-11.9678
ified	-11.9679
▁balancing	-11.9679
▁acquaintance	-11.968
▁warring	-11.9681
▁Ro	-11.9681
▁rails	-11.9686
▁acceleration	-11.9689
▁ranging	-11.969
take	-11.969
▁deserved	-11.9691
left	-11.9694
▁advise	-11.9696
▁prescription	-11.9702
77	-11.9704
▁Ultimate	-11.9705
▁178	-11.9706
▁horrible	-11.9709
▁daring	-11.9709
▁Northwest	-11.9709
hi	-11.9709
▁relies	-11.971
▁Selected	-11.971
▁furnishes	-11.9712
▁wrought	-11.9717
▁185	-11.9721
▁inconsistency	-11.9722
▁purchaser	-11.9723
05	-11.9724
AL	-11.973
▁1976.	-11.973
▁Hungarian	-11.973
▁periodic	-11.9731
▁administer	-11.9733
▁1918,	-11.9734
▁20.	-11.9735
▁Poles	-11.9737
▁mandate	-11.974
did	-11.974
▁endanger	-11.974
▁inverse	-11.9741
▁Rich	-11.9741
dominated	-11.9741
▁opens	-11.9742
▁gravity	-11.9745
▁constancy	-11.9745
▁enduring	-11.9747
▁undertook	-11.9748
▁1922.	-11.9749
▁synthetic	-11.9749
▁aggressors	-11.975
▁Farm	-11.9751
▁respecting	-11.9752
act	-11.9753
▁losers	-11.9755
▁reckoning	-11.9755
.”—	-11.9755
Man	-11.9759
▁174	-11.9761
0,000,000	-11.9763
▁182	-11.9766
▁hell	-11.9766
▁variant	-11.9774
▁appealed	-11.9777
▁understands	-11.9778
▁valor	-11.978
▁Plymouth	-11.9781
▁remunerative	-11.9781
▁1957)	-11.9781
▁Christopher	-11.9781
fa	-11.9783
▁Anne	-11.9783
▁Legislation	-11.9783
▁meddling	-11.9784
▁precipitate	-11.9785
▁177	-11.9785
▁riding	-11.9786
▁entertained	-11.9786
▁dwelling	-11.9786
▁bishops	-11.9787
voluntary	-11.9788
▁quoting	-11.9788
▁Secret	-11.9788
nation	-11.979
▁1973	-11.9791
▁designate	-11.9792
.[3]	-11.9799
▁1975.	-11.9801
▁successes	-11.9806
ford	-11.9806
▁detriment	-11.9807
▁visiting	-11.9807
▁monopolists	-11.9809
▁£1	-11.981
▁excludes	-11.9811
▁Protestantism	-11.9812
▁denominations	-11.9812
▁1952)	-11.9812
▁captain	-11.9813
▁colour	-11.9814
knowledge	-11.9815
▁1947)	-11.9817
▁connexion	-11.9818
▁electorate	-11.9818
▁unsold	-11.9818
▁cement	-11.9819
▁Turner	-11.9819
▁Winston	-11.982
▁1985)	-11.982
▁introduces	-11.982
▁pessimistic	-11.9821
cal	-11.9822
▁disguised	-11.9823
▁flower	-11.9824
ez	-11.9825
▁beef	-11.9826
▁restricts	-11.9838
▁resign	-11.9839
▁deviations	-11.9843
mm	-11.9844
▁poem	-11.9848
▁alleviate	-11.985
mentioned	-11.9851
▁supposition	-11.9851
▁magazines	-11.9852
▁Current	-11.9852
▁154	-11.9853
▁vigor	-11.9854
▁Pinckney	-11.9854
▁economize	-11.9854
▁preoccupation	-11.9854
▁inexorable	-11.9854
▁1926.	-11.9854
▁harassment	-11.9854
▁invasions	-11.9857
▁strangers	-11.9857
▁nearest	-11.9858
▁pragmatic	-11.9859
▁Remember	-11.9862
▁Rhodes	-11.9864
▁brilliantly	-11.9874
▁1980)	-11.9875
▁loot	-11.9875
▁230	-11.9881
▁warn	-11.9883
objective	-11.9884
▁detective	-11.9885
▁enactment	-11.9885
06	-11.9886
▁intricate	-11.9887
▁Source	-11.9887
▁Full	-11.9888
▁appalling	-11.9891
▁guise	-11.9891
▁lucrative	-11.9891
▁inequalities	-11.9891
▁interplay	-11.9891
▁Cincinnati	-11.9892
▁Zeitschrift	-11.9892
▁unconditionally	-11.9895
paying	-11.9896
▁exporters	-11.9902
get	-11.9904
▁Catholicism	-11.9908
yn	-11.9909
87	-11.9911
85	-11.9917
▁guards	-11.9919
▁vessel	-11.9922
79	-11.9924
▁affection	-11.9924
▁Academic	-11.9928
▁Thompson	-11.9928
▁Campbell	-11.9928
▁accumulating	-11.9928
▁cultures	-11.993
▁189	-11.993
▁186	-11.993
▁Productivity	-11.9931
▁[11]	-11.9932
.29	-11.9937
▁lifelong	-11.9938
▁averaged	-11.9938
▁outer	-11.9938
ov	-11.9939
▁1974)	-11.9946
▁arena	-11.9947
personal	-11.9954
▁fluctuate	-11.9955
▁dread	-11.9957
▁segment	-11.9959
▁discounting	-11.9959
▁hall	-11.996
▁1955	-11.9961
equality	-11.9962
▁persuasive	-11.9962
sen	-11.9962
▁wares	-11.9964
▁coach	-11.9964
▁Carnegie	-11.9964
▁Colonies	-11.9964
▁patience	-11.9964
▁paramount	-11.9965
▁Speaker	-11.9965
▁heights	-11.9966
▁devil	-11.9966
▁incidence	-11.9967
▁precepts	-11.9967
▁revenge	-11.9967
▁nationalistic	-11.9967
▁mobile	-11.9967
▁Spirit	-11.9968
▁entrenched	-11.9968
▁darkness	-11.9969
▁skeptical	-11.997
▁inadequacy	-11.9972
▁eagerness	-11.9972
▁1985.	-11.9972
▁squarely	-11.9974
▁executives	-11.9975
▁1988.	-11.9976
▁Dean	-11.9977
69	-11.9984
▁187	-11.9984
▁Pay	-11.9986
ino	-11.9987
73	-11.9989
▁polls	-11.9989
▁overproduction	-11.9989
▁Jena	-11.9989
▁malinvestments	-11.9991
▁utopia	-11.9992
▁register	-11.9993
▁winds	-11.9993
▁stars	-11.9995
▁hasten	-11.9995
▁coerce	-11.9998
▁stern	-11.9998
▁Except	-12.0001
▁Brunswick	-12.0001
▁happier	-12.0001
▁relying	-12.0002
▁1972	-12.0002
▁Founding	-12.0003
▁Various	-12.0003
▁egoism	-12.0004
72	-12.0004
▁politico	-12.0006
▁handsome	-12.0006
▁Dan	-12.0006
▁prevention	-12.0007
▁awarded	-12.0008
▁weighing	-12.0012
▁fitting	-12.0014
▁Ad	-12.0017
▁traveled	-12.0018
▁1984)	-12.0022
▁h	-12.0023
▁1959)	-12.0024
▁builds	-12.0024
▁converting	-12.0027
▁profess	-12.0029
▁evolve	-12.003
▁deduce	-12.0032
▁plague	-12.0032
▁divergence	-12.0034
▁Individuals	-12.0035
▁retire	-12.0035
▁Manufacturers	-12.004
▁elevated	-12.004
▁Raico	-12.004
▁despised	-12.0041
▁repudiated	-12.0041
▁2008	-12.0042
▁administrators	-12.0042
▁drafts	-12.0046
▁shirt	-12.005
tz	-12.0053
Con	-12.0055
▁ranking	-12.0057
▁scores	-12.0057
▁angle	-12.0059
▁factions	-12.006
▁natives	-12.0061
▁affords	-12.0061
▁informal	-12.0062
dic	-12.0068
▁pie	-12.007
▁Agreement	-12.0071
▁conclusive	-12.0072
Free	-12.0074
▁depreciating	-12.0076
▁uncompromising	-12.0076
▁Gilbert	-12.0076
▁Jonson	-12.0076
▁futility	-12.0076
▁appropriately	-12.0077
▁Barry	-12.0077
▁antagonistic	-12.0078
▁dominating	-12.008
▁slogans	-12.0082
▁imputed	-12.0083
unt	-12.0084
▁com	-12.0085
▁manipulated	-12.0086
▁owning	-12.0087
,000,000,000	-12.0088
▁aircraft	-12.0088
▁$9	-12.0094
▁flying	-12.0095
▁discourse	-12.0098
▁cows	-12.0099
▁mold	-12.0099
▁commitments	-12.0103
▁copyright	-12.0109
▁Ab	-12.011
Liberty	-12.0112
▁Heinrich	-12.0113
▁unforeseen	-12.0113
.30	-12.0114
▁humor	-12.0114
▁ridicule	-12.0114
▁grip	-12.0115
▁unification	-12.0115
▁Harriman	-12.0115
▁Unions	-12.0115
▁Colorado	-12.0118
▁mania	-12.0119
▁exportation	-12.012
central	-12.0123
▁1912,	-12.0125
58	-12.0129
▁strengthening	-12.0131
▁shell	-12.0134
▁reformer	-12.0135
cr	-12.0137
▁interferes	-12.0141
tu	-12.0143
▁receivers	-12.0144
▁occasioned	-12.0144
▁slip	-12.0147
▁appetite	-12.0147
▁blessing	-12.0149
▁landowner	-12.0151
▁Ernest	-12.0151
▁Pitt	-12.0151
▁deficient	-12.0151
▁originating	-12.0152
▁relatives	-12.0153
▁Slavery	-12.0153
▁1990)	-12.0153
▁Athens	-12.0154
▁noticeable	-12.0155
lar	-12.0155
sum	-12.0156
▁meets	-12.0156
▁monarchs	-12.0156
▁contrasting	-12.0158
▁facilitated	-12.0159
▁participated	-12.016
▁maker	-12.016
▁focusing	-12.0163
▁Sun	-12.0164
▁computers	-12.0165
▁sir	-12.0169
▁shed	-12.0172
▁poison	-12.0173
▁excessively	-12.0178
▁coupons	-12.0178
▁comrades	-12.0179
▁175	-12.018
▁authoritative	-12.018
▁Hand	-12.0181
either	-12.0181
▁hang	-12.0182
▁Ba	-12.0185
▁Large	-12.0185
produced	-12.0186
▁alliances	-12.0186
ideal	-12.0187
uc	-12.0187
▁intimidation	-12.0189
▁strife	-12.0189
▁McCulloch	-12.0189
▁Enoch	-12.0189
▁garbage	-12.0189
AN	-12.019
▁technologies	-12.0191
▁commanded	-12.0194
▁breed	-12.0194
▁purity	-12.0195
▁equitable	-12.0195
▁investigated	-12.0197
▁myths	-12.0201
ique	-12.0209
▁1815	-12.021
71	-12.0211
▁1939)	-12.0212
▁tin	-12.0215
▁ratify	-12.0217
▁Chronicle	-12.0223
▁marketability	-12.0225
▁specialize	-12.0227
▁Rudolf	-12.0227
▁secrecy	-12.0227
▁Gerry	-12.0227
▁drunk	-12.0227
▁mobilization	-12.0228
▁Address	-12.0228
▁Nationalism	-12.0229
▁Conservatism	-12.0229
▁momentary	-12.0232
▁Ind	-12.0234
▁1945.	-12.0235
▁Edwards	-12.0236
▁usher	-12.0241
4,	-12.0245
▁190	-12.0246
▁Causes	-12.0248
▁1973)	-12.0249
▁das	-12.0249
▁pump	-12.0255
.[4]	-12.0256
▁1776	-12.0257
▁proclamation	-12.0261
▁eloquent	-12.0261
▁superstition	-12.0261
▁gesture	-12.0261
▁da	-12.0263
▁recipe	-12.0263
British	-12.0263
particularly	-12.0264
▁antiquity	-12.0265
▁creativity	-12.0265
▁empowered	-12.0266
▁gospel	-12.0267
▁sickness	-12.0267
▁screen	-12.027
▁[12]	-12.027
▁Walrasian	-12.027
▁eligible	-12.027
▁ICC	-12.0271
▁fearful	-12.0277
▁incur	-12.0278
▁underdeveloped	-12.0281
ration	-12.0284
▁wishing	-12.0285
▁reprint	-12.0289
▁egoistic	-12.029
wood	-12.0291
▁foreigner	-12.0293
inflationary	-12.0294
.32	-12.0298
▁hazard	-12.0303
▁attributable	-12.0303
▁yardstick	-12.0303
▁Kaiser	-12.0303
▁interdependence	-12.0303
▁virtuous	-12.0304
▁Assuming	-12.0305
▁curtailment	-12.0305
▁congestion	-12.0305
▁Mer	-12.0306
▁synthesis	-12.0306
tal	-12.0309
▁corrective	-12.031
▁senators	-12.0311
▁rob	-12.0312
▁warranted	-12.0312
▁169	-12.0313
▁flowed	-12.0314
pa	-12.0314
▁Lexington	-12.0315
▁Mac	-12.0317
▁1912	-12.0318
▁Strauss	-12.0319
▁routes	-12.0319
Entrepreneurship	-12.032
port	-12.0328
▁anticipations	-12.033
▁Lesson	-12.0332
▁texts	-12.0333
▁classify	-12.0334
ought	-12.0336
▁1892	-12.0339
▁Lectures	-12.034
ending	-12.034
World	-12.034
86	-12.0341
comparably	-12.0341
▁Attorney	-12.0341
▁Houghton	-12.0341
▁Collect	-12.0343
▁Hutchinson	-12.0344
▁intimately	-12.0348
▁supplemented	-12.0349
ec	-12.035
▁locked	-12.0354
▁constituents	-12.0359
enthusiastically	-12.0361
▁1972)	-12.0365
ran	-12.0365
tes	-12.0367
▁hospitals	-12.0371
▁1989.	-12.0371
▁2:	-12.0372
▁lately	-12.0376
▁1819	-12.0377
neutral	-12.0378
something	-12.0379
▁elucidation	-12.038
▁fertility	-12.038
▁penetrating	-12.038
▁Stamp	-12.038
▁Appendix	-12.0382
▁lump	-12.0385
▁faults	-12.0386
▁unitary	-12.0387
▁consumes	-12.0389
▁Pp	-12.0389
▁1987.	-12.039
52	-12.0392
▁rage	-12.0392
iron	-12.0395
▁minting	-12.0396
▁1964,	-12.0399
▁Englishman	-12.04
▁gifted	-12.04
▁cared	-12.0402
▁(3	-12.0405
▁internationally	-12.0409
▁discontent	-12.0413
▁baker	-12.0414
▁imitate	-12.0415
producing	-12.0418
▁solvency	-12.0418
▁coexistence	-12.0419
▁empiricist	-12.0419
▁Record	-12.0419
▁Agricultural	-12.0419
▁commonplace	-12.042
▁understandably	-12.042
▁District	-12.0423
▁explored	-12.0423
▁1925.	-12.0424
pl	-12.0425
▁1944.	-12.0428
▁math	-12.0429
▁abused	-12.0434
▁soundness	-12.0434
▁statists	-12.0434
▁incorporate	-12.044
因為	-12.044
▁1861	-12.0443
▁columns	-12.0443
▁heed	-12.0445
▁tank	-12.0445
▁tape	-12.0449
bar	-12.045
balance	-12.0451
▁hammer	-12.0451
▁Dec	-12.0455
president	-12.0457
▁variance	-12.0457
ux	-12.0457
▁shopping	-12.0457
▁Mifflin	-12.0458
▁Aristotelian	-12.0459
▁supposing	-12.046
▁229	-12.0462
▁contrived	-12.0464
▁obtainable	-12.0466
correct	-12.0468
▁adopts	-12.047
▁Ko	-12.0471
▁1951)	-12.0473
▁fare	-12.0475
▁shame	-12.0476
▁1819,	-12.0478
這個	-12.0481
▁dialectic	-12.0481
Who	-12.0485
▁depict	-12.0487
▁woods	-12.0491
▁201	-12.0494
▁expropriate	-12.0494
▁apprehension	-12.0494
▁Dickinson	-12.0496
▁descriptive	-12.0496
▁doubling	-12.0496
▁pretense	-12.0496
▁roof	-12.0496
▁Grey	-12.0496
▁diversion	-12.0496
▁motto	-12.0496
▁prudence	-12.0498
▁Sowell	-12.0499
▁stranger	-12.0502
▁rooms	-12.0503
▁tenth	-12.0504
▁flawed	-12.0504
▁debased	-12.0504
▁curtailed	-12.0506
▁rigidly	-12.0511
▁crossed	-12.0511
▁Von	-12.0511
▁labels	-12.0512
▁honestly	-12.0514
▁ration	-12.0515
▁monetarists	-12.0516
ped	-12.0519
▁1994	-12.0523
▁223	-12.0525
▁illustrations	-12.0526
du	-12.0526
▁colors	-12.053
5,	-12.0533
▁workman	-12.0535
▁behaviour	-12.0535
▁cessation	-12.0535
▁satisfies	-12.0535
▁surgery	-12.0535
.28	-12.0535
liche	-12.0536
▁assassination	-12.0536
▁powerless	-12.0537
▁weaknesses	-12.054
▁Weimar	-12.054
▁Parker	-12.0541
▁lifted	-12.0541
▁lights	-12.0543
nes	-12.0543
ray	-12.0544
ou	-12.055
▁protectionists	-12.0557
▁Ru	-12.0557
▁cook	-12.0557
▁rear	-12.0558
▁misrepresent	-12.0562
▁strip	-12.0563
▁poets	-12.0565
nic	-12.0566
▁sects	-12.0567
▁repeating	-12.0568
▁wound	-12.0568
▁thrive	-12.0569
▁aggravate	-12.0571
▁instinctive	-12.0571
▁scandal	-12.0574
▁Perkins	-12.0574
▁awkward	-12.0574
▁jargon	-12.0574
▁extravagance	-12.0574
▁basketball	-12.0574
▁tension	-12.0574
▁inquiries	-12.0574
▁mortality	-12.0575
Our	-12.0576
▁Ruritania	-12.0577
▁Malthusian	-12.058
▁headquarters	-12.0582
handed	-12.0584
wa	-12.0586
▁Ge	-12.0593
▁Resources	-12.0596
▁populations	-12.0597
Capital	-12.0597
▁entertain	-12.0598
▁academics	-12.0598
▁1963	-12.0599
▁feeding	-12.06
▁paths	-12.0602
▁trait	-12.0603
atory	-12.0607
▁harmed	-12.0609
▁Estate	-12.061
slehre	-12.0612
▁projected	-12.0612
Catholic	-12.0612
▁prosecution	-12.0612
▁indictment	-12.0612
▁Henderson	-12.0614
▁Suffolk	-12.0614
▁Guild	-12.0614
▁amenities	-12.0614
▁slope	-12.0614
emphasis	-12.0614
▁brutality	-12.0615
▁exposure	-12.0615
▁Paine	-12.0616
▁dirty	-12.0617
▁Ultimately	-12.0618
▁[13]	-12.0618
▁nearby	-12.0619
▁Consumer	-12.0619
▁discredited	-12.0622
era	-12.0622
▁wealthier	-12.0622
▁ma	-12.0624
▁Englishmen	-12.0625
▁24.	-12.0626
▁Shortly	-12.0629
▁Frankfurt	-12.0632
▁err	-12.0635
▁motivations	-12.0643
▁intensify	-12.0644
bi	-12.0644
▁aren	-12.0646
▁swift	-12.0648
▁Libertarians	-12.0649
▁st	-12.0649
▁acquiesce	-12.0649
▁mergers	-12.065
▁235	-12.065
▁1784	-12.0652
▁Legislature	-12.0652
▁intelligible	-12.0653
▁disarmament	-12.0653
could	-12.0653
▁composite	-12.0654
▁citizenship	-12.0654
▁168	-12.0655
▁yoke	-12.0655
▁consulted	-12.066
▁Lew	-12.066
▁compels	-12.0668
▁Proceedings	-12.0669
▁dressed	-12.0674
▁discern	-12.0674
ons	-12.0677
▁misinterpret	-12.0677
▁reporter	-12.0678
▁pioneers	-12.068
▁210	-12.0682
sel	-12.0682
▁sectional	-12.0683
ants	-12.0683
▁Las	-12.0688
▁reproduce	-12.0689
▁thirst	-12.0691
▁literal	-12.0691
group	-12.0693
▁clientele	-12.0693
▁explosion	-12.0693
▁Chiang	-12.0693
▁Graham	-12.0693
▁determinant	-12.0693
Indianapolis	-12.0693
▁j	-12.0695
▁abide	-12.0696
don	-12.0696
▁Wilkes	-12.0696
▁ironic	-12.0697
▁starve	-12.0698
▁countryside	-12.0702
tr	-12.0702
▁confines	-12.0706
seven	-12.0708
ina	-12.0709
libertarians	-12.0716
▁215	-12.072
▁expansionist	-12.0721
elle	-12.0722
▁blunder	-12.0723
▁dig	-12.0727
▁supporter	-12.073
價	-12.0731
▁feeble	-12.0732
▁Alliance	-12.0733
▁funeral	-12.0733
▁grandiose	-12.0733
▁Bishop	-12.0733
▁Godwin	-12.0733
▁stressing	-12.0734
▁tailor	-12.0735
▁betrayed	-12.0736
▁shoot	-12.0736
▁contractors	-12.0737
▁anarcho	-12.0737
▁league	-12.0737
▁Mills	-12.074
ret	-12.074
▁salesman	-12.0742
▁1970.	-12.0744
▁reacted	-12.0745
1–	-12.0746
▁paragraphs	-12.0746
▁discovers	-12.0749
▁seas	-12.0755
▁confrontation	-12.0756
▁discredit	-12.0758
▁republics	-12.0759
▁cares	-12.076
fifths	-12.0761
95	-12.0763
chief	-12.0769
rr	-12.0772
▁Ca	-12.0772
▁hysteria	-12.0773
▁identifies	-12.0773
▁Rochelle	-12.0773
▁Ltd	-12.0773
▁divisible	-12.0773
▁cooperating	-12.0773
Hungary	-12.0773
▁publishers	-12.0773
▁Icelandic	-12.0773
▁Railway	-12.0774
▁transmission	-12.0775
▁225	-12.0777
▁Concern	-12.0777
styled	-12.0778
▁fixes	-12.0779
1)	-12.0781
▁excluding	-12.0781
▁rigorously	-12.0781
▁deed	-12.0781
▁guides	-12.0784
▁sheets	-12.0785
▁takeover	-12.0789
▁governs	-12.0789
▁196	-12.079
light	-12.0792
。(	-12.0794
At	-12.0796
▁Reed	-12.0804
ó	-12.0804
▁warlike	-12.0805
mis	-12.0805
perfect	-12.0808
competitive	-12.0811
▁instantaneous	-12.0811
▁commanding	-12.0812
▁ceremony	-12.0813
▁destination	-12.0813
▁justifies	-12.0813
▁Countries	-12.0813
▁competence	-12.0813
Munich	-12.0814
▁saves	-12.0815
problem	-12.0815
▁embarrassing	-12.0816
▁Radical	-12.0817
sized	-12.0819
▁underground	-12.0819
▁1967.	-12.0823
▁ongoing	-12.0825
room	-12.0828
lt	-12.0829
▁grim	-12.0834
▁ruins	-12.0837
▁Stein	-12.0841
▁Salamanca	-12.0844
By	-12.0848
▁1982.	-12.0849
ang	-12.085
▁Dictionary	-12.0853
▁Garrett	-12.0853
▁Webb	-12.0854
▁Doctrine	-12.0854
▁occupies	-12.0854
▁inaugurated	-12.0854
▁220	-12.0855
▁Stability	-12.0855
▁Pont	-12.0855
uch	-12.0858
▁depicted	-12.0858
▁web	-12.0859
apart	-12.0861
▁uphold	-12.0862
▁1998	-12.0868
big	-12.0868
▁Sa	-12.087
生產	-12.0874
▁lament	-12.0877
▁enrich	-12.0878
▁Master	-12.0878
▁Think	-12.0889
AC	-12.0891
▁licensing	-12.0894
▁omnipotence	-12.0894
▁Assume	-12.0894
▁Omnipotent	-12.0894
▁disruption	-12.0895
▁resignation	-12.0895
▁Contemporary	-12.0896
▁differentiated	-12.0896
Communist	-12.0896
▁[14]	-12.0898
▁flourished	-12.0901
▁skyscrapers	-12.0904
▁sinking	-12.0907
▁1924.	-12.0907
tle	-12.0907
▁1950)	-12.0909
▁saver	-12.0915
▁Li	-12.0915
▁suppressing	-12.0916
▁patronize	-12.0921
▁birds	-12.0922
▁Merchants	-12.0923
▁impart	-12.0925
▁retailers	-12.0927
qu	-12.0928
▁Im	-12.093
▁manipulate	-12.0931
▁allocations	-12.0931
▁drag	-12.0932
▁1958	-12.0932
▁distributing	-12.0934
▁thieves	-12.0934
▁safekeeping	-12.0934
▁regimentation	-12.0934
▁Kohler	-12.0935
▁nonspecific	-12.0936
▁residual	-12.0936
▁invoked	-12.0937
▁Twenty	-12.0937
▁Andros	-12.0938
▁26.	-12.0938
▁berries	-12.0938
▁Presidential	-12.0939
ei	-12.0939
liness	-12.094
▁Group	-12.094
▁fits	-12.0941
lle	-12.0941
ock	-12.0942
Now	-12.0946
▁intensely	-12.0947
▁2010	-12.0948
▁Hamburg	-12.0948
▁throws	-12.095
gue	-12.0954
▁(5)	-12.0957
▁1898	-12.0957
▁Capitalist	-12.0959
▁coercively	-12.0963
▁sketch	-12.0966
▁vitally	-12.0969
▁216	-12.0971
▁1960)	-12.0971
▁perceptive	-12.0972
▁1948.	-12.0972
▁perverse	-12.0972
▁uncle	-12.0975
▁Winthrop	-12.0975
▁irredeemable	-12.0975
▁vacuum	-12.0975
▁veritable	-12.0975
▁renunciation	-12.0975
▁baseball	-12.0975
▁Colonial	-12.0976
▁troublesome	-12.0976
▁stipulated	-12.0977
▁plastic	-12.0977
▁authentic	-12.0978
▁seizing	-12.0978
away	-12.0978
▁phony	-12.0979
▁1962.	-12.0979
▁Something	-12.098
▁Morgenstern	-12.0981
▁ce	-12.0982
▁Loeb	-12.0983
▁dire	-12.0985
▁1981.	-12.099
▁211	-12.0992
iter	-12.0992
83	-12.0995
▁pursuits	-12.0998
▁prop	-12.1001
▁congress	-12.1013
▁impress	-12.1014
▁deputy	-12.1016
▁philosophies	-12.1016
▁situated	-12.1017
policy	-12.1018
▁boon	-12.1018
▁bestowed	-12.1019
▁intercepts	-12.1019
▁teenager	-12.102
▁Cor	-12.102
▁envisioned	-12.102
▁objectionable	-12.102
▁Newsweek	-12.1021
▁intentional	-12.1021
▁Miles	-12.1022
▁247	-12.1022
▁Equality	-12.1023
▁1968.	-12.1025
▁sec	-12.1027
▁legalized	-12.1028
▁Utopian	-12.1029
▁Asian	-12.103
▁fullest	-12.1032
▁marched	-12.1032
▁lease	-12.1036
ane	-12.1038
▁adventures	-12.1038
▁1963,	-12.1043
,000,000	-12.1045
.[5]	-12.1049
sighted	-12.105
▁stubborn	-12.1052
▁ministry	-12.1057
▁discrepancies	-12.1057
▁Police	-12.1057
▁Health	-12.1057
▁prominence	-12.1057
▁stir	-12.1057
Madrid	-12.1059
▁edict	-12.106
▁crippled	-12.1061
▁personalities	-12.1063
▁Matthew	-12.1064
▁impaired	-12.1067
▁Anna	-12.1067
▁certificate	-12.1067
▁perpetually	-12.1069
eck	-12.1069
cha	-12.1069
▁extremes	-12.1077
▁aged	-12.1077
▁1925,	-12.1081
▁Effects	-12.1081
▁conducting	-12.1087
▁reservations	-12.1088
▁commentators	-12.1092
▁Mint	-12.1093
▁Fourth	-12.1097
▁Avenue	-12.1098
▁hegemony	-12.1099
▁Holmes	-12.1099
▁challenging	-12.1099
▁plow	-12.11
▁Hilferding	-12.11
▁online	-12.11
▁sample	-12.1102
▁positivists	-12.1103
▁Dollar	-12.1106
fund	-12.1108
▁Bob	-12.1109
▁234	-12.1111
▁electors	-12.1112
discrimination	-12.1112
▁bird	-12.1114
▁refiners	-12.1115
▁1920,	-12.1117
imposed	-12.1118
▁decisively	-12.1119
▁Payments	-12.1121
▁Baron	-12.1121
▁Czechs	-12.1123
▁$	-12.1126
▁Pass	-12.1127
▁hamper	-12.1129
fully	-12.1129
une	-12.1133
▁lively	-12.1137
▁monopolize	-12.1137
▁tip	-12.1138
▁arouse	-12.114
▁Ferdinand	-12.114
▁Budget	-12.114
▁Heaven	-12.114
▁aftermath	-12.114
▁degradation	-12.114
▁geometry	-12.114
▁unchecked	-12.114
▁vehicles	-12.114
▁opposes	-12.114
▁Harmony	-12.114
▁shocks	-12.114
▁unjustified	-12.114
productivity	-12.1142
▁neatly	-12.1142
▁integrate	-12.1143
▁jungle	-12.1143
▁reasoned	-12.1144
existing	-12.1144
▁discriminating	-12.1144
▁illogical	-12.1145
▁simplified	-12.1146
▁fan	-12.1147
▁1974	-12.1148
▁hanging	-12.115
▁Leo	-12.1153
▁distorts	-12.1159
▁induction	-12.1163
可能	-12.1166
▁Na	-12.1167
rule	-12.1168
▁humane	-12.1171
▁remnants	-12.1177
▁predicting	-12.1177
▁fans	-12.1179
▁wrongly	-12.1179
▁aversion	-12.1181
▁WIB	-12.1182
▁abstention	-12.1182
▁timing	-12.1182
▁Kendall	-12.1182
▁panel	-12.1183
▁substantive	-12.1183
▁1895	-12.1183
▁joke	-12.1183
▁groundwork	-12.1184
economy	-12.1184
▁Argentina	-12.1184
▁sympathies	-12.1184
▁tongue	-12.1185
▁grab	-12.1185
▁nationwide	-12.1188
▁spared	-12.1188
▁shapes	-12.119
▁partisan	-12.1193
lan	-12.1195
▁hoards	-12.1195
▁enjoyments	-12.1199
▁intangible	-12.1204
▁191	-12.1206
upon	-12.1207
▁fulfilling	-12.121
▁ills	-12.1217
▁telegraph	-12.1218
▁earner	-12.1219
▁Program	-12.1221
▁Leon	-12.1223
▁Reisman	-12.1223
▁ambiguity	-12.1223
▁benevolence	-12.1223
▁experiencing	-12.1223
▁Gould	-12.1224
▁undeniable	-12.1224
▁reviews	-12.1224
▁unchanging	-12.1224
▁Napoleonic	-12.1225
▁Brussels	-12.1226
▁Consequences	-12.1227
▁consolidated	-12.1227
▁holiday	-12.1228
▁insurers	-12.1228
▁injunction	-12.123
▁yellow	-12.1233
rat	-12.1236
mente	-12.1237
▁222	-12.124
Un	-12.1242
▁1966,	-12.1243
▁withhold	-12.1244
▁mothers	-12.1247
▁stark	-12.1247
.[6]	-12.125
▁loves	-12.1251
fire	-12.1252
▁1914.	-12.1253
▁interpreting	-12.1253
▁inflationism	-12.126
▁hurts	-12.1262
▁Water	-12.1263
▁Capuchin	-12.1265
▁Gerald	-12.1265
▁insolvent	-12.1265
▁bride	-12.1266
▁persistence	-12.1266
▁depreciate	-12.1266
▁expelled	-12.1267
▁enslaved	-12.1268
▁imprisoned	-12.1269
▁installed	-12.1269
▁approximation	-12.127
▁Cal	-12.1271
▁principled	-12.1272
▁airline	-12.1272
▁greedy	-12.1275
▁Balance	-12.1276
▁queen	-12.1276
▁overlooks	-12.1277
▁matched	-12.1277
▁Maybe	-12.1279
▁proclaiming	-12.128
▁moderates	-12.128
ological	-12.1286
▁suffices	-12.1287
▁exploiters	-12.1292
▁mentally	-12.1297
▁hadn	-12.1297
▁legs	-12.1298
▁1945)	-12.13
▁disdain	-12.1303
▁foes	-12.1303
▁needful	-12.1303
▁revive	-12.1304
▁foe	-12.1306
▁academia	-12.1308
▁rampant	-12.1308
▁spiral	-12.1308
▁software	-12.1308
▁unfavourable	-12.1308
▁Way	-12.1308
▁ruinous	-12.1308
▁uneasy	-12.1308
▁dissolve	-12.1309
▁Nash	-12.1309
▁necessaries	-12.131
▁lapse	-12.1312
▁Recent	-12.1315
God	-12.1315
▁rev	-12.1316
▁conceptually	-12.1316
▁valuing	-12.1316
▁attachment	-12.1317
▁1954)	-12.132
theorie	-12.1323
▁193	-12.1323
.31	-12.1323
▁acceptances	-12.1328
▁dreamed	-12.133
▁bids	-12.1331
▁borrows	-12.1331
hy	-12.1332
▁Conservatives	-12.1333
▁rape	-12.1335
▁streams	-12.1336
▁Rothbardian	-12.1338
▁warrants	-12.1341
▁27.	-12.1342
▁236	-12.1342
▁alloy	-12.1342
issue	-12.1343
▁disasters	-12.1347
▁credited	-12.1348
▁Monroe	-12.135
▁calamity	-12.135
▁Bolshekov	-12.1351
▁clock	-12.1351
▁Municipal	-12.1351
▁annexation	-12.1352
▁Gottfried	-12.1352
▁Fichte	-12.1352
▁challenges	-12.1353
▁Collective	-12.1353
▁Felix	-12.1354
▁selective	-12.1355
▁Understanding	-12.1355
▁vices	-12.1355
▁targets	-12.1357
ient	-12.1358
▁blast	-12.1359
▁purse	-12.1359
▁1966.	-12.1361
▁Critics	-12.1364
▁ventured	-12.1364
▁socio	-12.1367
▁reflections	-12.1367
▁parade	-12.1367
OR	-12.1369
▁1995.	-12.1373
road	-12.1374
▁Aside	-12.1377
▁refugees	-12.1378
▁airlines	-12.1388
win	-12.1389
▁inventors	-12.1391
他們	-12.1391
▁educate	-12.1392
▁Knopf	-12.1393
▁Rizzo	-12.1393
▁brute	-12.1393
▁theorizing	-12.1393
▁heresy	-12.1393
▁mythical	-12.1395
▁1:	-12.1395
▁separates	-12.1395
▁homo	-12.1395
▁magistrates	-12.1395
▁ostensibly	-12.1395
French	-12.1396
Menger	-12.1396
▁Scholar	-12.1398
▁politique	-12.1398
▁overcoming	-12.1398
▁evaluated	-12.1398
▁sincerely	-12.1399
▁basket	-12.14
empirical	-12.14
▁trash	-12.14
▁legend	-12.14
.35	-12.1401
▁1985	-12.1401
▁forgot	-12.1401
▁creator	-12.1402
▁248	-12.1403
▁follower	-12.1406
▁1983.	-12.1406
▁Fe	-12.1408
▁50,000	-12.1409
existent	-12.141
ische	-12.1414
▁240	-12.1414
▁fuller	-12.1415
▁oldest	-12.1415
▁shipments	-12.1416
▁1984.	-12.1418
▁209	-12.1422
▁maladjustments	-12.1424
▁subjectively	-12.1425
▁Period	-12.1425
.”5	-12.1425
▁funded	-12.1427
▁1909	-12.1427
▁mile	-12.1428
▁Less	-12.1429
▁207	-12.1431
▁pause	-12.1432
▁beneficent	-12.1435
▁Ironically	-12.1435
html	-12.1436
▁Monday	-12.1436
▁surgeon	-12.1436
▁Portuguese	-12.1437
▁Securities	-12.1437
▁accelerate	-12.1437
foreign	-12.1438
▁blessed	-12.1438
▁hurricane	-12.1441
▁anymore	-12.1443
▁ascertained	-12.1444
book	-12.1445
service	-12.1445
board	-12.1449
▁conveniently	-12.1449
▁retains	-12.1452
▁neck	-12.1452
▁Urban	-12.1453
▁Put	-12.1454
▁shore	-12.1454
▁collector	-12.1455
▁triumphed	-12.1456
▁Th	-12.1457
▁1994.	-12.1458
▁1969	-12.1458
▁1955)	-12.1461
▁kid	-12.1462
▁chartered	-12.1463
ney	-12.1464
wi	-12.1468
▁inflict	-12.1469
92	-12.147
▁hill	-12.147
-5	-12.1473
▁Victor	-12.1478
▁Majesty	-12.1478
▁replies	-12.1478
▁Toward	-12.1479
▁Oppenheimer	-12.148
▁embarrassed	-12.148
operative	-12.148
▁Nearly	-12.1481
language	-12.1482
▁[15]	-12.1482
▁unconsciously	-12.1485
▁depressing	-12.1485
▁neighbour	-12.1485
▁laughed	-12.1485
also	-12.1486
▁Transaction	-12.1487
▁cheating	-12.1487
▁intervened	-12.1487
▁1956)	-12.1487
.”6	-12.1488
▁1949.	-12.1489
▁245	-12.1489
▁Williamson	-12.1492
▁images	-12.1492
▁sing	-12.1492
▁clubs	-12.1494
▁é	-12.1497
▁241	-12.1498
ante	-12.1505
▁Frenchman	-12.1506
▁il	-12.1509
▁ego	-12.151
▁1944)	-12.1511
▁abstractions	-12.1512
▁interact	-12.1513
▁denomination	-12.1514
gra	-12.1517
▁catastrophic	-12.1518
▁disprove	-12.1518
▁devise	-12.1518
▁conditional	-12.1519
▁Cha	-12.1519
Driscoll	-12.1521
▁indivisible	-12.1521
▁unaffected	-12.1521
▁Gregory	-12.1521
▁impermissible	-12.1521
▁indices	-12.1522
▁postponement	-12.1522
▁complement	-12.1522
▁observable	-12.1522
▁careers	-12.1522
▁Story	-12.1523
▁undervalued	-12.1525
▁bribe	-12.1526
ice	-12.1527
sic	-12.1527
▁clearings	-12.1528
▁absorption	-12.1528
▁persistently	-12.1529
▁eaten	-12.1529
▁beasts	-12.1531
....”	-12.1531
▁(1	-12.1532
▁assisted	-12.1533
▁Director	-12.1534
▁abortion	-12.1535
▁confers	-12.1535
▁Bolsheviks	-12.1536
▁1969.	-12.1536
▁lip	-12.1537
Oh	-12.154
▁injustices	-12.1541
▁nominally	-12.1545
▁pretensions	-12.1548
▁augment	-12.155
▁IS	-12.1551
▁pale	-12.1555
▁conquerors	-12.1557
▁apartments	-12.1559
stone	-12.1559
▁ordering	-12.156
▁Rose	-12.156
▁deceive	-12.1561
▁flock	-12.1561
▁splendid	-12.1562
▁rhetorical	-12.1564
▁retrospect	-12.1564
▁Bullitt	-12.1565
▁Mystery	-12.1565
▁Serfdom	-12.1565
▁hesitation	-12.1565
▁Internet	-12.1565
▁$500	-12.1565
▁dropping	-12.1566
▁descent	-12.1566
▁trigger	-12.1566
▁exploded	-12.1568
short	-12.1568
▁Bureaucracy	-12.1569
▁augmented	-12.1571
▁Higher	-12.1571
▁alertness	-12.1572
Social	-12.1574
.40	-12.1577
01	-12.1584
▁1974.	-12.1586
▁quantitatively	-12.1586
04	-12.159
▁Calvinist	-12.159
▁defender	-12.1592
hearted	-12.1595
0,	-12.1596
▁1992	-12.1598
▁194	-12.1599
▁1946),	-12.16
▁Sub	-12.1602
ki	-12.1604
▁technologically	-12.1604
▁Romans	-12.1605
stitutionalized	-12.1607
▁foods	-12.1607
▁List	-12.1608
▁Coolidge	-12.1608
▁investigating	-12.1608
▁Margit	-12.1608
▁dissatisfied	-12.1608
▁flux	-12.1608
▁Brooklyn	-12.1609
rick	-12.1609
▁Bolshevism	-12.1611
▁appraised	-12.1611
[...]
