<s>	0
<pad>	0
</s>	0
<unk>	0
<mask>	0
<speaker0>	0
<speaker1>	0
<speaker2>	0
<speaker3>	0
<speaker4>	0
<speaker5>	0
<speaker6>	0
<speaker7>	0
<speaker8>	0
<speaker9>	0
▁the	-2.94643
,	-3.03446
▁	-3.10315
.	-3.30877
▁of	-3.31651
▁to	-3.83449
▁and	-3.91072
▁in	-4.13153
▁a	-4.22562
▁is	-4.53653
▁that	-4.58604
s	-4.85253
▁for	-5.03539
▁be	-5.13086
▁as	-5.16303
▁it	-5.17536
-	-5.25335
▁by	-5.25698
▁“	-5.29616
▁not	-5.33823
▁was	-5.34433
▁on	-5.44475
’	-5.45682
▁with	-5.52256
▁are	-5.52741
▁or	-5.55044
▁The	-5.59227
▁which	-5.6004
▁this	-5.62049
▁his	-5.75103
▁from	-5.75141
:	-5.78158
▁have	-5.7901
▁an	-5.80835
▁he	-5.88624
▁at	-5.88973
▁(	-5.89704
▁their	-5.91522
▁would	-5.92519
;	-5.96979
▁all	-5.99049
▁they	-5.99818
”	-6.03019
▁one	-6.11354
—	-6.14053
▁will	-6.16146
▁were	-6.17374
▁but	-6.18635
▁had	-6.18809
▁more	-6.19159
▁has	-6.20275
▁we	-6.21036
The	-6.27489
▁its	-6.29013
▁no	-6.29139
▁only	-6.30497
▁money	-6.34223
▁can	-6.34408
▁I	-6.34756
▁other	-6.35343
▁who	-6.41749
▁than	-6.45435
▁been	-6.48189
▁It	-6.53863
▁so	-6.57775
▁any	-6.59447
.”	-6.59585
▁In	-6.59681
▁there	-6.6008
▁if	-6.60826
▁government	-6.64932
▁these	-6.67869
▁them	-6.68319
▁such	-6.7064
)	-6.75362
▁what	-6.76704
▁into	-6.78638
▁economic	-6.79097
▁must	-6.81861
▁But	-6.82369
▁market	-6.82836
▁time	-6.82966
▁may	-6.83434
▁out	-6.86037
▁our	-6.86271
▁could	-6.87694
▁people	-6.87835
,”	-6.88886
▁do	-6.90177
▁when	-6.90457
▁p	-6.91419
?	-6.92985
▁production	-6.94866
▁about	-6.97238
▁some	-6.995
▁most	-6.99791
▁even	-6.99958
▁goods	-7.00061
▁also	-7.00637
▁price	-7.04308
▁value	-7.05002
▁capital	-7.06534
▁those	-7.06825
ing	-7.08461
▁This	-7.08928
▁A	-7.10964
▁because	-7.11099
▁prices	-7.11768
▁should	-7.11909
▁then	-7.13571
▁between	-7.1366
▁new	-7.14023
▁same	-7.14201
▁up	-7.17069
▁state	-7.17531
▁first	-7.18599
▁own	-7.19376
▁He	-7.20867
t	-7.23007
▁very	-7.23427
▁system	-7.2345
▁over	-7.23849
▁two	-7.24258
▁way	-7.24269
▁man	-7.25159
▁you	-7.25529
▁free	-7.2668
▁made	-7.26692
▁interest	-7.26914
▁theory	-7.27038
▁power	-7.28117
▁fact	-7.28542
▁him	-7.30281
▁against	-7.30897
▁does	-7.31001
▁much	-7.3179
▁world	-7.32422
▁many	-7.35123
▁make	-7.36403
▁gold	-7.37335
▁New	-7.39327
e	-7.40388
▁us	-7.40862
▁under	-7.41873
▁labor	-7.42479
▁means	-7.42632
▁well	-7.44241
▁If	-7.44722
▁war	-7.45162
▁good	-7.46222
▁now	-7.46268
▁exchange	-7.46475
▁being	-7.46483
▁without	-7.468
▁great	-7.47344
▁pp	-7.47473
▁use	-7.47756
▁did	-7.48962
the	-7.49126
▁American	-7.49308
▁years	-7.49324
▁social	-7.50065
▁work	-7.50113
▁They	-7.50467
▁my	-7.50556
▁demand	-7.50961
▁case	-7.51178
▁each	-7.51584
In	-7.52288
▁part	-7.53745
▁cannot	-7.53821
▁upon	-7.54259
▁every	-7.54427
▁less	-7.54435
▁public	-7.54988
ed	-7.552
▁economy	-7.55496
▁men	-7.56747
▁political	-7.57093
▁business	-7.58645
▁long	-7.58761
▁order	-7.58781
▁rate	-7.58808
▁point	-7.59484
▁how	-7.59514
▁through	-7.59693
▁York	-7.60207
▁Mises	-7.60505
▁And	-7.60905
▁property	-7.62316
▁see	-7.62686
▁country	-7.62971
▁increase	-7.63497
▁another	-7.63899
▁her	-7.64666
▁individual	-7.64909
▁law	-7.65184
▁State	-7.66263
▁society	-7.66435
▁after	-7.66894
▁different	-7.68528
▁human	-7.6898
▁life	-7.694
a	-7.69763
▁For	-7.70033
▁course	-7.70262
▁always	-7.70352
▁policy	-7.71122
▁like	-7.71249
▁general	-7.71732
'	-7.718
▁bank	-7.71979
▁before	-7.72005
▁supply	-7.72249
▁still	-7.73525
▁never	-7.73865
▁where	-7.73914
▁far	-7.73967
▁‘	-7.74384
▁present	-7.74502
▁however	-7.7492
▁private	-7.7535
▁might	-7.76545
▁trade	-7.77478
▁right	-7.78263
▁States	-7.79673
▁possible	-7.79825
▁action	-7.80411
▁while	-7.80619
▁credit	-7.81226
d	-7.82457
▁banks	-7.82683
▁both	-7.82898
▁problem	-7.8297
▁say	-7.83069
▁monetary	-7.8362
▁take	-7.83939
▁since	-7.84105
▁United	-7.84901
A	-7.85063
▁too	-7.85618
▁income	-7.85896
).	-7.86215
▁As	-7.86275
It	-7.8642
n	-7.86466
▁said	-7.86539
▁itself	-7.86878
▁just	-7.87484
▁place	-7.87663
▁important	-7.89666
▁We	-7.89858
▁There	-7.89999
▁therefore	-7.90656
▁future	-7.90829
▁real	-7.9106
ly	-7.91818
▁result	-7.93176
“	-7.94181
▁certain	-7.94419
▁question	-7.94665
▁land	-7.95471
▁foreign	-7.95529
▁others	-7.97146
▁view	-7.97157
S	-7.97245
▁become	-7.97782
I	-7.97988
▁used	-7.98194
▁end	-7.98204
▁process	-7.98226
▁given	-7.98279
in	-7.98301
▁whole	-7.98533
▁things	-7.98696
▁themselves	-7.99328
▁me	-7.99443
▁true	-7.99739
▁economics	-8.01326
▁rather	-8.0181
▁rates	-8.01829
▁during	-8.02164
▁year	-8.029
▁history	-8.02972
▁conditions	-8.02985
▁example	-8.03206
and	-8.03954
▁nature	-8.0423
▁inflation	-8.04245
▁whether	-8.04302
▁countries	-8.04749
▁large	-8.05114
▁de	-8.0545
▁German	-8.06316
▁later	-8.07092
▁form	-8.07483
▁necessary	-8.07595
▁pay	-8.08026
▁higher	-8.08151
▁among	-8.08608
▁himself	-8.09394
▁amount	-8.09464
),	-8.09734
▁hand	-8.10305
▁sense	-8.10561
▁little	-8.10822
▁nothing	-8.11465
▁control	-8.12432
▁get	-8.12545
▁reason	-8.13095
▁standard	-8.13136
▁down	-8.13308
▁need	-8.13319
▁know	-8.13637
▁change	-8.14582
▁high	-8.15166
▁further	-8.15362
▁least	-8.15517
▁particular	-8.15549
▁tax	-8.15758
▁thought	-8.15928
▁natural	-8.16119
▁period	-8.16172
▁better	-8.1688
▁here	-8.17157
▁thus	-8.17402
▁she	-8.17546
▁come	-8.17974
▁few	-8.18122
▁last	-8.18128
▁again	-8.18387
]	-8.18417
1	-8.20101
▁old	-8.20117
▁day	-8.20582
▁per	-8.20823
▁able	-8.21183
▁wage	-8.21379
▁freedom	-8.21544
▁put	-8.21721
▁find	-8.21813
▁number	-8.2195
▁called	-8.22235
▁effect	-8.23161
▁something	-8.23182
▁national	-8.23424
▁go	-8.24032
▁percent	-8.24579
▁best	-8.25143
▁industry	-8.25763
▁Economic	-8.25986
▁consumers	-8.2599
▁terms	-8.26026
▁short	-8.26499
▁position	-8.2653
▁rise	-8.26632
▁back	-8.26708
▁War	-8.26726
▁either	-8.2695
▁total	-8.26999
▁greater	-8.27031
▁person	-8.27033
▁already	-8.27202
▁give	-8.27273
▁found	-8.27755
▁wages	-8.28452
or	-8.28574
▁various	-8.29044
▁services	-8.29965
▁On	-8.30026
▁currency	-8.30109
▁ever	-8.30512
▁rights	-8.30785
▁three	-8.31205
▁principle	-8.31219
▁idea	-8.31782
▁Austrian	-8.31949
▁cost	-8.32037
▁within	-8.32055
▁set	-8.32305
▁force	-8.32352
▁University	-8.32929
▁product	-8.32943
▁merely	-8.33339
▁costs	-8.33449
▁investment	-8.33682
▁though	-8.33979
▁economists	-8.34565
▁above	-8.34736
▁book	-8.34849
▁laws	-8.35155
▁often	-8.35176
▁British	-8.35211
▁self	-8.35434
▁paper	-8.35472
▁small	-8.35575
▁To	-8.35735
–	-8.35781
▁thing	-8.35917
er	-8.36036
▁almost	-8.36241
▁What	-8.36297
▁level	-8.36589
▁why	-8.36935
▁changes	-8.3706
▁Germany	-8.37104
▁knowledge	-8.37315
▁factors	-8.37407
▁increased	-8.3765
▁wealth	-8.3788
▁individuals	-8.38009
▁until	-8.38275
▁want	-8.38466
▁profit	-8.38578
▁Thus	-8.3859
▁banking	-8.38609
▁common	-8.38718
▁once	-8.38814
▁central	-8.3884
▁consumption	-8.39597
▁simply	-8.39721
▁enough	-8.39851
▁[	-8.40382
▁analysis	-8.40575
▁John	-8.40652
▁quantity	-8.40831
▁matter	-8.41114
▁century	-8.41286
This	-8.41318
▁your	-8.41486
▁Press	-8.41504
But	-8.41702
▁think	-8.42259
▁workers	-8.42437
▁England	-8.42931
▁B	-8.42947
▁modern	-8.43493
▁Economics	-8.44084
▁shall	-8.44608
▁act	-8.44745
▁cause	-8.45557
p	-8.4561
▁kind	-8.45636
▁became	-8.45751
▁off	-8.45861
y	-8.45992
▁competition	-8.4629
▁stock	-8.46443
▁Bank	-8.46723
▁America	-8.46777
▁resources	-8.4692
▁yet	-8.47043
▁U	-8.47153
▁When	-8.47482
▁situation	-8.47548
▁international	-8.47993
!	-8.48265
▁left	-8.48538
▁class	-8.48605
▁making	-8.48634
▁problems	-8.48711
▁clear	-8.4975
▁subject	-8.49778
▁Rothbard	-8.50079
▁came	-8.50384
▁whose	-8.50393
▁group	-8.50487
▁taken	-8.50651
If	-8.50784
▁second	-8.50836
▁socialism	-8.51218
▁full	-8.51738
▁That	-8.52166
▁states	-8.52308
▁lower	-8.52507
▁longer	-8.52603
▁expansion	-8.52905
▁interests	-8.52978
▁Mr	-8.53219
▁ideas	-8.53222
▁mind	-8.53279
▁toward	-8.54191
▁nation	-8.54683
▁really	-8.54921
▁liberty	-8.55502
▁makes	-8.5577
to	-8.56237
▁non	-8.5674
▁early	-8.56814
New	-8.56951
▁having	-8.57047
▁No	-8.57385
▁today	-8.57911
▁done	-8.58187
▁produce	-8.58551
▁fall	-8.58803
▁argument	-8.59679
▁Europe	-8.59852
▁development	-8.605
▁Government	-8.60579
▁times	-8.60653
▁Congress	-8.60837
▁away	-8.6088
2	-8.60888
▁These	-8.60893
▁words	-8.61079
▁quite	-8.61083
▁notes	-8.61513
▁considered	-8.61544
▁M	-8.6158
▁Federal	-8.6194
▁brought	-8.625
▁products	-8.62672
▁profits	-8.62713
▁support	-8.62909
▁von	-8.62997
▁employment	-8.6308
i	-8.63135
▁French	-8.63242
▁labour	-8.6333
▁available	-8.63583
▁indeed	-8.63693
▁equal	-8.63909
▁members	-8.63947
▁seems	-8.64034
▁especially	-8.64232
▁issue	-8.64287
▁based	-8.64431
▁nor	-8.6455
▁Ibid	-8.64665
▁influence	-8.64686
▁One	-8.64836
▁return	-8.64849
▁legal	-8.65181
▁believe	-8.65412
▁began	-8.65435
▁keep	-8.65455
We	-8.65764
▁living	-8.65812
▁seen	-8.66099
▁utility	-8.66318
▁extent	-8.66465
▁science	-8.66882
▁monopoly	-8.6755
▁special	-8.68056
▁See	-8.68122
▁population	-8.68208
▁account	-8.68355
▁turn	-8.68666
▁existence	-8.68834
▁France	-8.6898
As	-8.69098
▁Theory	-8.69334
▁taxes	-8.69453
▁else	-8.70216
▁actions	-8.70367
▁productive	-8.70383
▁paid	-8.70463
▁several	-8.71037
▁anything	-8.71075
▁school	-8.71104
▁following	-8.71795
▁call	-8.71827
▁forces	-8.71874
▁bring	-8.71961
▁due	-8.72127
▁President	-8.72825
▁rule	-8.73156
▁took	-8.73265
as	-8.73389
▁produced	-8.73462
▁according	-8.73576
▁service	-8.74388
▁doctrine	-8.74614
▁moral	-8.74834
▁consumer	-8.74871
▁buy	-8.74978
▁commodities	-8.75111
▁D	-8.75297
▁wants	-8.75378
▁home	-8.75477
▁regard	-8.75599
▁J	-8.76407
g	-8.76458
/	-8.76548
▁experience	-8.76636
▁movement	-8.7679
▁soon	-8.76817
▁past	-8.77129
▁Reserve	-8.77479
▁His	-8.77594
▁known	-8.77623
▁basis	-8.77689
▁commodity	-8.77788
There	-8.7788
▁instead	-8.78012
▁effects	-8.78073
▁becomes	-8.78123
▁socialist	-8.78286
▁C	-8.7835
▁World	-8.78403
▁actually	-8.78839
▁unit	-8.78931
▁Hayek	-8.78952
▁held	-8.78966
▁opinion	-8.79366
▁cases	-8.79432
▁policies	-8.79668
When	-8.79694
▁values	-8.79724
▁purpose	-8.79744
▁deposits	-8.7976
▁groups	-8.80099
▁At	-8.80101
▁went	-8.80223
▁All	-8.80279
▁going	-8.80417
▁military	-8.80524
es	-8.80531
▁material	-8.8086
▁run	-8.81134
▁equilibrium	-8.8114
▁impossible	-8.81307
▁concept	-8.81337
▁Marx	-8.81394
▁etc	-8.8148
▁importance	-8.81644
▁Keynes	-8.81693
▁personal	-8.82527
▁million	-8.82556
▁latter	-8.82614
▁nations	-8.82617
▁single	-8.82632
▁English	-8.82813
▁party	-8.82863
▁marginal	-8.84182
r	-8.84887
▁loans	-8.84902
▁next	-8.85299
▁S	-8.85388
▁difference	-8.85528
▁method	-8.85561
▁side	-8.85774
▁plan	-8.85785
▁perhaps	-8.85826
▁cash	-8.86376
▁However	-8.86514
▁N	-8.86664
▁dollars	-8.86822
▁mean	-8.86907
▁term	-8.86935
▁historical	-8.87092
3	-8.8732
▁help	-8.87707
▁structure	-8.87749
▁H	-8.87787
▁lead	-8.87813
▁led	-8.87861
▁i	-8.8787
▁debt	-8.87914
▁governments	-8.88103
▁principles	-8.88121
▁attempt	-8.88229
▁determined	-8.88229
▁consider	-8.88255
▁difficult	-8.88366
▁truth	-8.88372
...	-8.88439
▁firm	-8.88531
▁Yet	-8.88761
▁Economy	-8.8878
▁financial	-8.88804
▁silver	-8.88843
▁needs	-8.89045
▁average	-8.89186
▁F	-8.89221
is	-8.89332
▁original	-8.89378
▁everyone	-8.89445
▁working	-8.89666
▁2	-8.89927
▁current	-8.90156
▁provide	-8.90198
▁London	-8.90229
▁generally	-8.90344
▁similar	-8.90404
▁low	-8.90468
th	-8.90591
▁family	-8.9068
▁community	-8.90919
▁results	-8.90923
▁direct	-8.90986
▁answer	-8.90995
▁let	-8.91408
▁Smith	-8.91904
m	-8.91913
▁show	-8.92016
▁W	-8.92087
▁precisely	-8.92347
▁Money	-8.924
▁growth	-8.92432
▁established	-8.92543
▁purchasing	-8.9266
▁markets	-8.92764
▁capitalism	-8.92806
▁hands	-8.92818
▁around	-8.93007
▁role	-8.93163
▁alone	-8.93204
▁am	-8.93556
▁peace	-8.93572
▁wrote	-8.93667
?”	-8.94327
▁Roosevelt	-8.94482
▁E	-8.94638
▁poor	-8.94746
▁Journal	-8.94825
▁deal	-8.94888
▁clearly	-8.95005
▁Britain	-8.95045
▁days	-8.95116
▁concerned	-8.95289
▁whatever	-8.95465
▁created	-8.95475
▁loss	-8.95886
▁forced	-8.96014
▁function	-8.96198
▁An	-8.96209
▁entire	-8.96275
▁consequences	-8.96462
that	-8.96471
▁needed	-8.96761
C	-8.9683
▁completely	-8.96914
▁children	-8.96917
▁character	-8.96971
▁funds	-8.97056
▁former	-8.97252
▁together	-8.97253
▁Even	-8.97328
▁whom	-8.97467
▁dollar	-8.97507
▁majority	-8.97514
▁complete	-8.97517
▁Great	-8.97659
▁necessarily	-8.97881
▁balance	-8.97987
▁actual	-8.98041
▁discussion	-8.98139
▁welfare	-8.98364
▁required	-8.98379
▁methods	-8.98513
▁"	-8.98653
▁name	-8.98653
▁authority	-8.987
▁practice	-8.98725
▁instance	-8.98862
▁unemployment	-8.99082
▁relative	-8.99154
▁So	-8.99255
▁affairs	-8.99504
▁provided	-8.99588
▁National	-8.99765
▁productivity	-8.99779
▁rest	-8.99879
▁claim	-8.99946
▁activity	-8.9996
al	-8.99981
b	-9.00081
re	-9.00149
▁exist	-9.00563
▁division	-9.00616
▁degree	-9.00656
▁physical	-9.00828
▁increasing	-9.00903
▁particularly	-9.01025
▁half	-9.01183
▁major	-9.01227
▁developed	-9.01238
▁citizens	-9.01249
▁study	-9.01301
▁beyond	-9.01384
▁entirely	-9.01413
▁respect	-9.01449
▁cent	-9.02157
▁payments	-9.02176
▁word	-9.02303
▁sell	-9.02325
▁final	-9.02444
▁specific	-9.02563
.)	-9.02614
▁fixed	-9.02614
▁factor	-9.02672
▁published	-9.0268
▁limited	-9.03012
▁choice	-9.03028
▁existing	-9.03065
▁spending	-9.03237
▁likely	-9.03249
▁1	-9.03568
▁activities	-9.03646
▁ed	-9.03664
▁look	-9.03694
▁savings	-9.03792
▁hold	-9.03838
▁ownership	-9.03849
▁P	-9.03934
▁federal	-9.04015
▁fundamental	-9.04176
▁open	-9.0419
▁William	-9.04246
▁entrepreneurs	-9.04478
▁progress	-9.04589
▁relations	-9.04871
▁finally	-9.05072
▁union	-9.0516
▁anti	-9.0521
▁simple	-9.05223
What	-9.05227
▁Washington	-9.05401
▁field	-9.05432
▁un	-9.05447
▁certainly	-9.05581
▁ends	-9.0588
▁persons	-9.05959
▁main	-9.0607
ism	-9.06296
▁volume	-9.06372
▁contrary	-9.06404
▁expected	-9.06498
▁condition	-9.06532
▁line	-9.06555
▁seem	-9.06738
▁probably	-9.06765
▁understand	-9.06957
▁producers	-9.07244
▁industrial	-9.07444
▁organization	-9.07634
▁doing	-9.07671
▁four	-9.0769
▁European	-9.07743
▁decision	-9.07903
▁beginning	-9.07913
For	-9.0804
▁intellectual	-9.08122
▁History	-9.0816
4	-9.08194
▁age	-9.08246
▁continued	-9.0851
▁along	-9.08613
▁benefit	-9.08918
▁highly	-9.08932
c	-9.09001
▁R	-9.09076
To	-9.09136
▁neither	-9.09412
▁measure	-9.09574
▁food	-9.09691
▁Professor	-9.09727
▁usually	-9.09852
▁saving	-9.10048
▁attention	-9.10053
▁understanding	-9.10096
▁relation	-9.10151
▁strong	-9.10156
▁remain	-9.1019
▁liberal	-9.10191
▁libertarian	-9.10282
▁directly	-9.10409
▁output	-9.10478
▁II	-9.1057
▁essential	-9.10819
▁causes	-9.10828
▁says	-9.11011
▁additional	-9.11047
▁information	-9.1111
▁wanted	-9.11163
▁received	-9.11302
▁wrong	-9.11438
▁circumstances	-9.11586
▁increases	-9.11598
▁institutions	-9.1176
▁billion	-9.11792
▁advantage	-9.11907
▁prevent	-9.11944
ness	-9.12007
▁moment	-9.12019
▁reasons	-9.12021
▁philosophy	-9.12084
▁comes	-9.12089
▁company	-9.12245
▁live	-9.12463
▁industries	-9.1261
▁asked	-9.12651
▁By	-9.12867
▁assume	-9.1299
▁worth	-9.1302
▁everything	-9.13212
▁otherwise	-9.13315
▁events	-9.13344
▁works	-9.13369
▁saw	-9.13379
▁explanation	-9.13444
▁facts	-9.13486
▁young	-9.13506
▁Review	-9.1355
▁enterprise	-9.13651
▁firms	-9.13732
▁continue	-9.13761
▁House	-9.14246
的	-9.14248
▁late	-9.143
it	-9.14531
▁circulation	-9.14592
▁powers	-9.14773
▁program	-9.1488
▁commercial	-9.15061
▁attack	-9.15125
▁bad	-9.15303
▁Law	-9.15311
▁tried	-9.15357
▁including	-9.15359
▁president	-9.15634
▁third	-9.15649
▁involved	-9.15718
▁employed	-9.15917
▁effort	-9.16029
▁measures	-9.16092
▁popular	-9.16189
▁body	-9.16194
▁domestic	-9.16275
▁taking	-9.16385
▁area	-9.16475
▁takes	-9.16491
▁caused	-9.16746
▁city	-9.16777
▁try	-9.17016
▁conduct	-9.17103
▁house	-9.1717
▁desire	-9.17187
▁justice	-9.17213
▁chapter	-9.17387
▁G	-9.17416
▁task	-9.17439
▁anyone	-9.17553
▁statement	-9.17609
▁George	-9.17914
▁hard	-9.18009
▁parties	-9.18114
▁knew	-9.18145
ers	-9.18227
▁independent	-9.18308
▁although	-9.18323
▁favor	-9.18359
▁ways	-9.1841
▁depression	-9.18431
▁reserves	-9.18604
▁fully	-9.18605
▁note	-9.18636
▁gave	-9.18711
▁approach	-9.18876
▁allowed	-9.18995
▁gain	-9.19077
▁Constitution	-9.19189
▁earlier	-9.19293
▁appear	-9.19336
▁obvious	-9.19496
▁failure	-9.19544
▁sort	-9.19558
▁Act	-9.19656
▁economist	-9.19683
▁reality	-9.19708
▁security	-9.19763
▁crisis	-9.19778
▁Ludwig	-9.1991
On	-9.1991
▁got	-9.19996
▁lost	-9.2007
▁calculation	-9.20077
▁assumption	-9.20135
Because	-9.20224
▁taxation	-9.20248
▁create	-9.20281
▁women	-9.20335
▁thinking	-9.20429
an	-9.20776
▁explain	-9.20835
▁type	-9.21062
▁owners	-9.21081
▁General	-9.21118
▁payment	-9.21231
▁South	-9.21381
▁recent	-9.21395
of	-9.21459
▁office	-9.21525
▁death	-9.21582
▁share	-9.21587
o	-9.21672
▁boom	-9.21715
▁doubt	-9.21792
▁School	-9.21871
▁Chicago	-9.21889
▁manner	-9.21945
▁mass	-9.21953
▁tend	-9.22032
▁step	-9.22425
▁points	-9.22555
▁leading	-9.22662
▁follows	-9.22726
▁tendency	-9.22856
▁proportion	-9.22957
▁immediately	-9.22976
▁3	-9.23018
▁owner	-9.23022
en	-9.23071
▁Institute	-9.23122
▁classes	-9.23143
▁article	-9.23257
▁reserve	-9.23283
▁read	-9.23367
▁below	-9.23402
▁satisfaction	-9.2352
▁raise	-9.2367
▁capitalist	-9.23846
on	-9.23919
▁face	-9.23992
▁direction	-9.2403
▁forms	-9.24198
▁told	-9.24249
▁Political	-9.24272
▁outside	-9.24385
▁five	-9.24882
▁contrast	-9.24894
▁God	-9.2505
▁L	-9.25114
▁success	-9.25159
▁contract	-9.25164
▁evidence	-9.25206
▁local	-9.25475
▁Liberty	-9.25596
▁leaders	-9.25603
▁easily	-9.25919
▁Japanese	-9.25986
5	-9.26015
▁et	-9.26069
▁ten	-9.26092
▁views	-9.26437
▁behavior	-9.26518
▁addition	-9.2692
▁re	-9.26939
▁maintain	-9.2697
▁throughout	-9.26997
▁defense	-9.27008
▁theories	-9.27057
▁job	-9.27174
▁decided	-9.27223
▁sum	-9.27325
▁basic	-9.27698
▁correct	-9.2771
▁mere	-9.27723
▁greatest	-9.27816
▁benefits	-9.28039
▁phenomena	-9.28175
▁Such	-9.28325
▁protection	-9.28465
▁Then	-9.28562
▁Henry	-9.28766
▁goes	-9.28814
▁democracy	-9.28889
▁unions	-9.28903
▁sure	-9.28971
▁larger	-9.29037
▁purposes	-9.292
▁purchase	-9.2924
▁10	-9.29385
▁claims	-9.29414
▁ago	-9.29483
▁rules	-9.29504
▁intervention	-9.29529
▁pressure	-9.29745
▁hundred	-9.30077
▁loan	-9.30125
▁accept	-9.30142
▁With	-9.30143
▁sold	-9.30218
▁quality	-9.30234
▁duty	-9.30363
▁efforts	-9.30391
▁shown	-9.30466
▁rent	-9.30478
▁sometimes	-9.30578
▁someone	-9.30594
▁except	-9.30731
▁How	-9.30873
▁absolute	-9.30903
▁units	-9.30917
▁meaning	-9.3106
▁thereby	-9.31401
▁aid	-9.31414
▁follow	-9.31562
▁member	-9.31641
▁relatively	-9.3173
▁big	-9.31772
▁plans	-9.31832
▁using	-9.31899
man	-9.31903
▁added	-9.32012
▁light	-9.32156
▁distribution	-9.32185
▁head	-9.32196
▁violence	-9.32392
▁cycle	-9.32392
▁classical	-9.32462
▁willing	-9.32705
▁solution	-9.32714
▁serve	-9.32717
▁written	-9.3281
▁materials	-9.3307
▁Revolution	-9.33127
▁reduce	-9.33252
After	-9.33336
▁der	-9.33371
▁la	-9.33404
▁goal	-9.33493
▁practical	-9.33576
▁reduced	-9.33658
▁gives	-9.33753
▁conclusion	-9.33999
▁opportunity	-9.3405
▁rich	-9.34104
▁T	-9.34109
One	-9.3414
which	-9.34182
▁students	-9.34201
▁conflict	-9.34373
▁Russia	-9.3448
▁don	-9.34658
▁entrepreneur	-9.34677
▁kept	-9.3468
▁ultimate	-9.34816
▁water	-9.34821
▁Here	-9.34856
▁acts	-9.34993
▁demands	-9.35056
▁easy	-9.35229
▁turned	-9.35231
▁sciences	-9.35269
▁James	-9.35364
▁operation	-9.35369
▁After	-9.35375
▁theoretical	-9.35395
▁source	-9.35399
▁close	-9.35461
▁questions	-9.35545
"	-9.3556
▁serious	-9.35879
▁lack	-9.35881
▁consequence	-9.36088
▁immediate	-9.36127
▁voluntary	-9.3632
▁offered	-9.36359
▁und	-9.36412
▁hardly	-9.36423
▁followed	-9.36558
▁education	-9.36704
▁Social	-9.36716
▁issues	-9.3713
▁sufficient	-9.37141
▁supposed	-9.37188
▁Japan	-9.37327
▁opposition	-9.37418
▁net	-9.37507
▁hope	-9.37627
▁reached	-9.37709
▁remains	-9.37795
▁losses	-9.37837
▁ought	-9.37869
(	-9.38022
▁Secretary	-9.38218
▁effective	-9.3825
▁failed	-9.38312
▁decisions	-9.38409
▁planning	-9.38844
▁Since	-9.38847
▁applied	-9.3889
▁ability	-9.38912
▁Company	-9.38941
▁wish	-9.39105
▁shows	-9.39129
▁From	-9.39136
▁subjective	-9.39192
▁believed	-9.39223
▁processes	-9.3926
▁possibility	-9.39314
▁largely	-9.39327
▁determine	-9.39384
▁books	-9.39435
▁previous	-9.39454
▁quickly	-9.39463
▁appears	-9.39487
▁definite	-9.39519
▁assets	-9.39544
▁lives	-9.3984
▁West	-9.39845
▁months	-9.3987
▁nearly	-9.39875
▁evil	-9.4001
▁police	-9.40136
▁agreement	-9.40271
▁regarded	-9.40274
▁useful	-9.40277
▁research	-9.40286
▁Only	-9.4048
▁&	-9.40523
▁pointed	-9.40563
▁scientific	-9.40625
▁data	-9.40638
▁ask	-9.40867
▁administration	-9.41037
▁bill	-9.41061
And	-9.41093
▁Robert	-9.41143
▁uses	-9.41182
▁ground	-9.41261
▁proper	-9.41322
B	-9.41348
▁City	-9.41525
▁distinction	-9.41631
▁passed	-9.41713
▁raised	-9.41881
▁definition	-9.4192
▁objective	-9.41962
▁object	-9.42035
▁realize	-9.4225
▁seemed	-9.424
▁offer	-9.4254
▁stage	-9.4267
▁parts	-9.42707
▁Department	-9.42925
▁leave	-9.42928
▁constant	-9.43016
▁Murray	-9.43074
。	-9.43142
▁error	-9.43244
▁depends	-9.43324
▁powerful	-9.4335
▁spirit	-9.43658
▁avoid	-9.43746
market	-9.43842
▁companies	-9.43938
▁Thomas	-9.4403
▁language	-9.4408
▁inflationary	-9.44116
▁twenty	-9.44368
▁risk	-9.44388
▁felt	-9.44534
▁expense	-9.44549
.1	-9.44642
▁move	-9.44674
▁meant	-9.44835
▁accepted	-9.44918
▁author	-9.45013
▁obtain	-9.4523
▁sound	-9.45276
▁trying	-9.45294
▁controls	-9.45313
▁assumed	-9.45321
▁millions	-9.45625
▁transactions	-9.45646
▁stand	-9.45647
▁alternative	-9.45746
▁speak	-9.45748
▁begin	-9.45796
▁media	-9.45905
▁expressed	-9.45966
term	-9.46054
▁Soviet	-9.4611
▁Their	-9.46221
▁sent	-9.46244
▁Fed	-9.46531
▁successful	-9.46533
▁civilization	-9.46727
▁receive	-9.46743
▁December	-9.4676
▁oil	-9.4678
▁carried	-9.4686
▁Now	-9.46866
▁pure	-9.46907
P	-9.47001
▁proposed	-9.47228
▁Cf	-9.47438
▁Of	-9.47512
▁unless	-9.47515
▁relationship	-9.4757
▁First	-9.47587
▁religious	-9.47661
▁Some	-9.47718
▁play	-9.4772
▁decline	-9.47845
▁Western	-9.47882
▁ideal	-9.48266
▁Market	-9.48315
▁writers	-9.48413
▁legislation	-9.4854
▁selling	-9.48553
M	-9.48592
D	-9.48747
▁Menger	-9.48793
ist	-9.49133
▁revolution	-9.4924
▁notion	-9.49265
▁North	-9.49329
at	-9.49424
▁necessity	-9.49537
for	-9.49607
▁specie	-9.49667
▁described	-9.49675
▁cut	-9.49691
▁4	-9.49702
▁judgment	-9.49742
▁opposed	-9.49788
▁Socialism	-9.49824
▁surplus	-9.49835
▁Americans	-9.49851
▁politics	-9.49851
▁Not	-9.49888
▁woman	-9.50133
▁chief	-9.50134
▁equally	-9.50258
▁Indeed	-9.50259
▁connection	-9.50263
▁stop	-9.50418
▁May	-9.50496
▁concerning	-9.50581
E	-9.50678
▁building	-9.5069
▁remained	-9.50782
▁responsible	-9.5084
▁vol	-9.50886
Bawerk	-9.50913
▁scale	-9.50961
▁matters	-9.50999
6	-9.51046
▁cooperation	-9.51048
▁institution	-9.51152
▁giving	-9.51159
▁explained	-9.51162
▁tell	-9.51183
▁perfect	-9.51222
▁vote	-9.51381
▁save	-9.51406
▁June	-9.51416
▁hence	-9.51488
▁incomes	-9.51533
▁allow	-9.51554
▁care	-9.51601
▁100	-9.51631
▁purely	-9.51724
▁smaller	-9.51797
▁official	-9.51876
▁areas	-9.5191
▁operations	-9.51968
▁competitive	-9.52094
▁adopted	-9.52171
7	-9.52278
▁differences	-9.52281
▁changed	-9.5234
▁getting	-9.52349
▁Why	-9.5237
▁bonds	-9.52413
▁raw	-9.52453
▁exists	-9.5246
▁choose	-9.52507
▁ready	-9.5252
▁worker	-9.52706
able	-9.52743
▁Action	-9.52775
▁preference	-9.52879
▁compared	-9.52958
▁radical	-9.53004
▁phenomenon	-9.5301
l	-9.5312
▁medium	-9.53317
▁spent	-9.53382
He	-9.53771
▁acting	-9.53842
▁understood	-9.53871
▁appeared	-9.5388
▁nineteenth	-9.53956
▁exactly	-9.53977
▁advance	-9.54118
▁producing	-9.54243
▁While	-9.54307
▁fear	-9.54379
▁des	-9.54727
▁establish	-9.54966
▁prosperity	-9.55321
▁logical	-9.5538
▁Union	-9.55473
▁minimum	-9.55612
▁Man	-9.55815
▁meet	-9.55866
▁Hence	-9.55992
▁expect	-9.56068
called	-9.5616
▁spend	-9.56311
▁efficient	-9.5644
▁International	-9.56744
▁hours	-9.56801
▁You	-9.56891
▁charge	-9.56975
▁attempts	-9.57128
▁1,	-9.57134
▁mankind	-9.5717
▁absence	-9.57202
▁apply	-9.57242
▁tradition	-9.57249
Ibid	-9.57269
▁kinds	-9.57333
▁March	-9.57464
▁post	-9.57656
▁saying	-9.577
▁sale	-9.5771
▁5	-9.57777
▁leads	-9.57784
▁struggle	-9.57829
▁lines	-9.58046
▁buying	-9.58047
▁recognized	-9.58087
▁consideration	-9.58109
▁belief	-9.58223
▁masses	-9.58246
day	-9.58418
▁Society	-9.58435
▁reasoning	-9.58476
▁requires	-9.58482
▁behind	-9.58615
▁friends	-9.58664
▁literature	-9.58728
▁considerable	-9.58813
▁father	-9.58943
▁Massachusetts	-9.59202
▁permanent	-9.59314
▁six	-9.59462
us	-9.5953
▁model	-9.59558
▁letter	-9.59588
▁rational	-9.59714
▁realized	-9.59728
▁strike	-9.59959
▁November	-9.60165
▁figures	-9.60252
▁Böhm	-9.60268
▁growing	-9.60273
▁organized	-9.60287
▁ratio	-9.60354
▁met	-9.6065
▁size	-9.60655
▁sales	-9.6066
▁imports	-9.60728
▁limit	-9.60907
▁politicians	-9.60911
▁court	-9.60926
▁declared	-9.61023
▁significant	-9.61296
▁series	-9.61467
▁air	-9.61469
▁insurance	-9.61502
▁speech	-9.61674
▁worse	-9.61861
▁recognize	-9.61865
▁army	-9.62081
▁capacity	-9.62147
▁universal	-9.62197
▁towards	-9.62236
▁concern	-9.6232
▁Human	-9.62331
▁opposite	-9.62573
▁limits	-9.62641
▁Committee	-9.62721
▁separate	-9.62742
▁responsibility	-9.62753
....	-9.6279
▁co	-9.62897
▁criticism	-9.63031
▁coins	-9.63233
▁achieve	-9.63312
At	-9.63465
▁establishment	-9.636
▁Party	-9.63622
▁arguments	-9.63881
▁thousand	-9.6418
▁Moreover	-9.64192
▁reduction	-9.64213
▁ourselves	-9.64231
▁highest	-9.64267
▁authorities	-9.64278
R	-9.64365
▁pre	-9.64378
▁officials	-9.64385
▁included	-9.64567
▁prove	-9.64618
▁Under	-9.64865
8	-9.64894
▁Banking	-9.64904
▁reform	-9.64909
▁granted	-9.64956
▁democratic	-9.64972
▁occur	-9.64979
▁securities	-9.65004
▁abroad	-9.6504
▁merchants	-9.65042
▁governmental	-9.65121
▁inevitable	-9.65232
J	-9.65298
▁stated	-9.65303
▁meeting	-9.65324
▁town	-9.65341
▁potential	-9.65453
▁Rockefeller	-9.65608
▁happen	-9.65696
▁systems	-9.65719
▁efficiency	-9.65783
▁attitude	-9.6584
▁Treasury	-9.65881
▁press	-9.65908
▁king	-9.66057
▁July	-9.66062
▁rising	-9.66142
▁equality	-9.66162
▁coming	-9.66227
▁Hitler	-9.66235
▁exports	-9.66392
▁Virginia	-9.66427
▁imposed	-9.6644
▁elements	-9.66448
▁standards	-9.66526
▁conception	-9.66539
▁virtually	-9.66547
▁built	-9.66605
▁defined	-9.66728
▁road	-9.66793
▁lose	-9.66802
▁revenue	-9.66932
▁ultimately	-9.66964
▁friend	-9.66986
▁East	-9.66988
▁essentially	-9.67014
▁steel	-9.67097
▁liberalism	-9.67345
▁Free	-9.6738
▁Power	-9.67583
▁Co	-9.67668
▁start	-9.67728
▁numerous	-9.67771
▁Monetary	-9.67883
▁issued	-9.67903
▁yield	-9.67915
▁Board	-9.6794
ation	-9.68136
▁January	-9.68238
▁famous	-9.68576
▁bankers	-9.68745
▁Its	-9.68838
▁prepared	-9.68893
▁story	-9.69
▁protect	-9.69033
▁status	-9.69057
▁require	-9.6917
▁child	-9.69171
▁deposit	-9.69193
▁complex	-9.69246
Since	-9.69347
▁commerce	-9.6941
▁knows	-9.69423
▁presented	-9.69429
▁worked	-9.69431
▁significance	-9.6945
▁Vol	-9.69454
▁capitalists	-9.69494
▁iron	-9.69506
▁Charles	-9.69599
▁fight	-9.69618
▁agreed	-9.6962
▁creation	-9.69715
▁happened	-9.69774
▁quantities	-9.69816
▁noted	-9.69882
▁difficulties	-9.6992
▁vast	-9.70115
st	-9.70173
▁articles	-9.70181
▁none	-9.70236
▁positive	-9.70253
▁investments	-9.70273
▁finance	-9.70277
▁top	-9.70375
▁edition	-9.70385
▁schools	-9.70409
▁customers	-9.70438
by	-9.70456
▁Paris	-9.70482
▁equivalent	-9.70503
▁feel	-9.70546
▁gone	-9.70594
▁agree	-9.7063
▁interested	-9.70633
▁danger	-9.70682
▁movements	-9.70797
▁Richard	-9.708
▁coercion	-9.7082
▁element	-9.70978
▁expression	-9.70978
▁room	-9.71014
▁religion	-9.71116
ve	-9.71207
▁placed	-9.71211
▁external	-9.71221
▁maintained	-9.71313
▁greatly	-9.71426
▁fail	-9.71445
run	-9.71472
▁started	-9.71486
▁previously	-9.71488
▁20	-9.715
Now	-9.71581
▁constantly	-9.71716
▁cit	-9.71782
Mises	-9.718
▁Dr	-9.71863
▁learn	-9.72049
▁love	-9.7207
▁Republican	-9.72078
▁writing	-9.72084
▁machine	-9.721
▁weight	-9.7224
▁report	-9.72335
▁eventually	-9.72414
▁decide	-9.72559
ity	-9.72634
▁expenditures	-9.72652
▁tends	-9.72658
▁eyes	-9.7278
All	-9.72819
▁reference	-9.72919
▁internal	-9.72982
▁bought	-9.73013
▁mother	-9.73081
▁race	-9.73098
▁learned	-9.73107
▁valuable	-9.73115
▁threat	-9.73132
London	-9.73162
▁bound	-9.73247
▁content	-9.73277
▁August	-9.73315
▁crime	-9.73331
▁fellow	-9.73373
▁civil	-9.73582
▁October	-9.73663
Let	-9.7372
le	-9.73724
▁Let	-9.73814
▁advanced	-9.73867
▁functions	-9.73879
▁pro	-9.73915
▁talk	-9.73977
▁construction	-9.73998
▁places	-9.74037
not	-9.74067
▁budget	-9.74188
▁decades	-9.74204
While	-9.74213
▁achieved	-9.74263
9	-9.74263
▁stages	-9.74271
▁ones	-9.74306
▁Trade	-9.7434
▁Paul	-9.74352
▁sought	-9.74424
▁September	-9.74545
My	-9.74771
Thus	-9.74807
T	-9.74809
▁car	-9.74835
▁record	-9.74951
▁aim	-9.74987
▁duties	-9.74991
▁argued	-9.75098
▁add	-9.75321
▁centuries	-9.75396
Even	-9.75412
▁excess	-9.75558
Although	-9.7566
▁include	-9.75699
▁event	-9.7571
▁middle	-9.75738
▁outcome	-9.75859
▁appropriate	-9.75911
▁student	-9.75925
▁Adam	-9.75926
▁Italy	-9.75967
▁bills	-9.76067
▁chance	-9.76082
▁K	-9.76246
▁somewhat	-9.76383
▁exchanges	-9.76519
▁Therefore	-9.76587
▁Every	-9.76619
▁Policy	-9.76629
▁wheat	-9.76664
▁wars	-9.76673
▁Court	-9.76751
▁looked	-9.7688
▁convention	-9.7693
▁confidence	-9.77055
▁discussed	-9.77203
▁Our	-9.77222
▁collective	-9.77272
▁mentioned	-9.77276
▁figure	-9.77289
▁Capital	-9.7731
▁carry	-9.77351
▁proved	-9.77393
▁Austria	-9.774
▁Foreign	-9.77485
▁desires	-9.77538
▁suppose	-9.77734
▁...	-9.77756
▁enormous	-9.77825
▁entrepreneurial	-9.77837
▁forth	-9.77907
▁conservative	-9.78033
▁jobs	-9.78074
▁technical	-9.78191
▁writings	-9.78237
▁dealing	-9.78265
▁6	-9.78269
▁crucial	-9.78359
▁pass	-9.78494
▁refused	-9.78529
▁employer	-9.78751
▁derived	-9.78782
▁Or	-9.78831
▁application	-9.78876
▁earth	-9.78909
▁regarding	-9.78972
▁coin	-9.79013
▁April	-9.79076
▁currencies	-9.79099
▁Instead	-9.79165
▁employees	-9.79172
▁tariff	-9.79223
▁laissez	-9.79238
▁develop	-9.79264
▁cities	-9.79305
▁capable	-9.79349
▁implies	-9.79438
▁obtained	-9.79554
▁normal	-9.79677
▁seek	-9.79788
▁China	-9.79887
▁White	-9.79892
▁evolution	-9.79955
▁lies	-9.79997
.2	-9.80044
▁gains	-9.80098
▁characteristic	-9.80173
▁ethical	-9.80203
▁System	-9.80271
▁flow	-9.80334
▁treatment	-9.80342
▁difficulty	-9.80345
▁occurred	-9.80508
▁Central	-9.80527
▁false	-9.80566
▁rapidly	-9.80746
▁Furthermore	-9.80791
▁traditional	-9.80869
▁authors	-9.8088
▁St	-9.81013
▁owned	-9.81033
▁V	-9.81158
▁fell	-9.81172
▁doctrines	-9.81276
▁enter	-9.8142
▁depend	-9.8153
▁faith	-9.81535
▁farmers	-9.81641
”—	-9.81707
▁frequently	-9.81875
▁Russian	-9.81903
▁exercise	-9.81919
L	-9.81934
▁interesting	-9.82222
▁deficit	-9.82286
▁poverty	-9.82406
▁annual	-9.82557
▁management	-9.82606
▁provides	-9.82608
▁opportunities	-9.82617
▁daily	-9.82757
▁Morgan	-9.8278
▁shift	-9.82802
▁v	-9.82842
F	-9.82886
▁periods	-9.82897
▁didn	-9.82902
▁alleged	-9.83088
With	-9.83144
▁message	-9.83176
▁title	-9.83228
▁extreme	-9.83268
▁agents	-9.83276
money	-9.83461
▁advantages	-9.83683
▁moved	-9.83709
▁op	-9.83727
▁improvement	-9.83736
▁everybody	-9.83757
all	-9.83762
▁Keynesian	-9.83765
▁burden	-9.83802
*	-9.83876
▁profitable	-9.83985
▁Germans	-9.84135
▁Banks	-9.84191
▁arbitrary	-9.84295
▁Mill	-9.84522
▁drawn	-9.846
▁paying	-9.84614
▁export	-9.84696
▁Business	-9.8478
▁aggregate	-9.84801
▁holding	-9.84883
No	-9.84892
▁calls	-9.84914
▁bear	-9.84973
▁directed	-9.85009
▁David	-9.85068
▁possibly	-9.85223
ian	-9.85403
▁section	-9.85442
▁regulation	-9.85443
▁logic	-9.85447
▁trouble	-9.85476
An	-9.85597
So	-9.85624
▁considerations	-9.85647
▁producer	-9.85709
▁types	-9.85799
▁won	-9.85859
▁committee	-9.85879
▁near	-9.85906
▁7	-9.85941
▁wishes	-9.86191
▁agricultural	-9.86263
▁Boston	-9.86332
▁Wilson	-9.86342
▁represented	-9.86362
▁perfectly	-9.86406
faire	-9.86411
W	-9.86416
▁equipment	-9.86471
▁dangerous	-9.86709
▁drive	-9.86732
▁minds	-9.86762
he	-9.86769
if	-9.86942
▁expenditure	-9.86942
▁scarcity	-9.87092
▁orders	-9.87204
▁Marshall	-9.87295
▁evident	-9.87352
▁suggested	-9.87395
▁forward	-9.87411
▁February	-9.87425
▁secure	-9.87448
▁satisfy	-9.87456
▁scarce	-9.87469
▁reach	-9.87521
▁base	-9.87635
▁Lord	-9.87722
▁empirical	-9.87767
▁restrictions	-9.87819
▁night	-9.87834
▁proposal	-9.87861
▁scheme	-9.87873
▁brings	-9.87966
▁contribution	-9.87979
▁employers	-9.88012
▁maximum	-9.88063
▁critical	-9.88082
▁destruction	-9.88235
That	-9.88449
▁Democratic	-9.88527
▁response	-9.88528
▁lands	-9.88563
▁week	-9.88582
ic	-9.88825
▁Jefferson	-9.88986
▁slavery	-9.88997
▁courts	-9.89022
▁check	-9.89054
▁energy	-9.89138
▁superior	-9.8916
▁tools	-9.89191
▁arise	-9.89221
▁requirements	-9.89258
▁spite	-9.89419
▁privilege	-9.89579
▁stable	-9.89618
▁shares	-9.89635
▁regime	-9.89655
▁designed	-9.89686
▁extremely	-9.89696
▁Those	-9.89697
▁interpretation	-9.89697
▁break	-9.89713
▁numbers	-9.8981
▁generation	-9.89922
▁leader	-9.89966
▁She	-9.90013
▁contracts	-9.90015
▁served	-9.90137
▁looking	-9.90283
▁affect	-9.90321
no	-9.90329
▁practically	-9.90378
▁date	-9.90401
f	-9.9046
▁truly	-9.90475
▁8	-9.90497
▁write	-9.90506
▁judge	-9.90575
▁Ricardo	-9.9059
▁changing	-9.90786
▁happiness	-9.90802
▁Joseph	-9.90845
▁consistent	-9.9086
▁aware	-9.90874
▁obviously	-9.9097
▁naturally	-9.90986
un	-9.91153
▁enterprises	-9.91163
▁keeping	-9.91187
▁unable	-9.91221
▁spread	-9.91243
▁Many	-9.91266
▁machinery	-9.91314
▁2,	-9.91317
▁despite	-9.91395
▁heavy	-9.91399
▁parents	-9.91446
▁happens	-9.91578
▁length	-9.91584
▁picture	-9.91694
▁transfer	-9.91727
▁conclusions	-9.91761
▁strength	-9.91814
▁election	-9.91867
▁consists	-9.92055
▁amounts	-9.92082
▁namely	-9.92125
▁Pennsylvania	-9.92193
▁speaking	-9.92277
▁curve	-9.92285
▁balances	-9.92364
▁O	-9.92428
be	-9.92498
▁expand	-9.92521
▁progressive	-9.92642
▁15	-9.92689
▁earn	-9.92778
▁wife	-9.92824
▁piece	-9.92844
economic	-9.92898
u	-9.92907
▁1920	-9.92932
up	-9.92978
one	-9.93083
▁culture	-9.93104
▁increasingly	-9.93226
▁proposition	-9.93391
▁origin	-9.93529
▁command	-9.9355
▁railroad	-9.93575
▁formed	-9.93598
▁principal	-9.93638
▁debts	-9.93644
▁discovered	-9.93649
▁feeling	-9.93698
These	-9.93704
▁colonies	-9.93798
▁invested	-9.93876
▁minority	-9.93934
▁test	-9.93959
▁reader	-9.93977
▁Church	-9.94029
▁build	-9.94076
▁essence	-9.94078
▁goals	-9.94197
▁Christian	-9.94243
▁negative	-9.9431
▁privileges	-9.94334
▁levels	-9.94361
▁heart	-9.94432
▁acquired	-9.94451
See	-9.9449
▁possession	-9.94665
▁subjects	-9.94928
▁son	-9.9496
▁People	-9.95023
▁portion	-9.9507
▁enable	-9.9507
▁apart	-9.95157
▁preferences	-9.95178
▁employ	-9.95179
▁recently	-9.9528
▁permitted	-9.95356
▁judgments	-9.95467
but	-9.95526
▁aspect	-9.95601
▁communism	-9.95705
▁corresponding	-9.95708
▁rose	-9.95736
▁active	-9.95766
▁hour	-9.9579
▁Public	-9.95887
▁observed	-9.95929
▁assumptions	-9.95949
▁farm	-9.95962
▁enemy	-9.96004
▁treated	-9.96035
free	-9.96194
▁ex	-9.96213
▁becoming	-9.96355
▁revolutionary	-9.9643
k	-9.96434
▁enjoy	-9.96448
▁falling	-9.9645
▁thousands	-9.96518
You	-9.96523
▁businessmen	-9.96709
▁campaign	-9.96731
▁art	-9.96864
▁Communist	-9.96889
▁Catholic	-9.96891
men	-9.96925
▁improve	-9.96933
▁King	-9.96968
▁existed	-9.97149
▁stocks	-9.97204
▁aspects	-9.97292
▁familiar	-9.97309
▁interference	-9.97336
▁related	-9.97397
▁intended	-9.97456
▁formation	-9.97495
▁refer	-9.97545
▁resulting	-9.97554
G	-9.97655
▁everywhere	-9.97742
▁territory	-9.97777
▁whereas	-9.97792
▁stability	-9.98031
▁raising	-9.98035
▁mechanism	-9.98162
▁health	-9.9818
▁destroy	-9.98266
ll	-9.98334
▁objects	-9.98362
▁constitutional	-9.98474
▁emphasis	-9.98488
▁Street	-9.98494
less	-9.98581
▁virtue	-9.98596
▁engaged	-9.9868
▁widely	-9.9873
▁buyers	-9.98928
▁vital	-9.98935
▁debate	-9.99006
▁technological	-9.99013
▁estate	-9.99162
▁50	-9.99166
▁mark	-9.99204
——.	-9.99222
▁determination	-9.99231
▁Senate	-9.99269
▁game	-9.99304
▁essay	-9.99355
▁fund	-9.99418
▁expectations	-9.99456
▁demanded	-9.99526
▁chosen	-9.99604
▁teacher	-9.99628
▁relevant	-9.99702
▁prefer	-9.99732
▁passage	-9.99802
▁branches	-9.99804
▁usual	-9.99819
▁apparent	-9.99882
▁compulsory	-9.9996
▁attain	-9.99988
▁1930	-10.0007
▁accumulation	-10.0008
▁across	-10.0021
▁associated	-10.0022
▁concepts	-10.0026
▁troops	-10.0028
▁acquire	-10.003
▁Association	-10.0034
▁deflation	-10.0039
▁pound	-10.0049
▁range	-10.0058
▁se	-10.006
▁involves	-10.006
▁devoted	-10.0064
▁exclusively	-10.0065
▁Adams	-10.0071
▁Gold	-10.0074
▁fractional	-10.0074
▁huge	-10.0075
▁supported	-10.0087
▁Peter	-10.0087
▁apparently	-10.009
▁Although	-10.0097
▁die	-10.0104
▁reading	-10.0104
▁finds	-10.0119
▁consequently	-10.012
▁environment	-10.0125
▁valid	-10.013
▁socialists	-10.0147
▁suffer	-10.0157
▁Each	-10.0157
▁doesn	-10.0162
▁thesis	-10.0164
How	-10.0166
▁proof	-10.0166
▁desired	-10.0172
▁primary	-10.0172
▁concrete	-10.0176
▁Most	-10.0188
▁Chapter	-10.0194
▁branch	-10.0202
▁dependent	-10.0209
▁genuine	-10.0217
▁month	-10.0218
▁Times	-10.0219
▁Libertarian	-10.0222
▁peaceful	-10.0223
▁writer	-10.0223
▁Labor	-10.0225
▁Deal	-10.0227
▁represent	-10.0245
▁prohibition	-10.0246
▁Science	-10.0258
▁admit	-10.0262
we	-10.0266
▁sacrifice	-10.0269
▁black	-10.0269
▁agriculture	-10.0271
▁fire	-10.0275
▁showed	-10.0275
▁board	-10.0277
▁sector	-10.0291
▁discount	-10.0295
▁Interest	-10.0296
▁Credit	-10.0306
▁exact	-10.0311
est	-10.0327
▁grant	-10.0335
▁According	-10.0337
nd	-10.0339
▁absolutely	-10.0348
▁temporary	-10.0359
▁justified	-10.0363
▁properly	-10.0364
▁association	-10.0365
▁committed	-10.0365
▁primarily	-10.0379
▁decrease	-10.0388
▁heard	-10.0403
▁Vienna	-10.0403
▁Sir	-10.0414
▁permit	-10.0416
▁partly	-10.0421
▁relief	-10.0425
▁affected	-10.0427
▁lot	-10.0428
▁lay	-10.0438
▁deny	-10.0441
▁accounts	-10.0444
H	-10.0451
Economic	-10.0456
▁historian	-10.0463
um	-10.0464
▁holds	-10.0469
▁aggression	-10.047
▁store	-10.0472
▁born	-10.0481
By	-10.0486
▁incentive	-10.0493
From	-10.0494
▁invest	-10.0494
time	-10.0495
▁competitors	-10.0511
▁speculation	-10.0513
war	-10.0528
▁sources	-10.0538
▁Council	-10.0541
▁inherent	-10.0541
K	-10.0548
▁ruling	-10.0556
▁planned	-10.0557
▁regulations	-10.0559
Man	-10.0561
▁victory	-10.0564
▁mutual	-10.057
▁confusion	-10.0574
▁detail	-10.0576
▁distinguished	-10.0579
▁independence	-10.058
▁grounds	-10.0591
▁secret	-10.0594
▁advocates	-10.0595
10	-10.06
▁strictly	-10.0604
▁arms	-10.0613
▁fiscal	-10.0614
▁seriously	-10.0621
▁Freedom	-10.0629
▁ordinary	-10.0637
▁plant	-10.0638
▁sphere	-10.064
▁altogether	-10.0658
▁impose	-10.066
▁happy	-10.0664
▁path	-10.0664
▁Hoover	-10.0665
Y	-10.0665
▁framework	-10.0675
▁foundation	-10.0678
▁uncertainty	-10.068
▁collapse	-10.0688
▁helped	-10.0692
▁space	-10.0702
”;	-10.0707
de	-10.071
▁Carolina	-10.0716
▁gets	-10.0716
▁9	-10.0727
▁introduced	-10.0733
▁Studies	-10.0733
▁adjustment	-10.0739
▁valuation	-10.0744
▁Both	-10.0745
being	-10.0747
▁typical	-10.0761
▁cents	-10.0768
▁exception	-10.0768
▁myself	-10.0783
▁pattern	-10.0794
):	-10.0803
▁provision	-10.0817
▁Empire	-10.0819
▁key	-10.0828
▁transaction	-10.083
▁recession	-10.0832
▁ideology	-10.0838
▁convinced	-10.084
▁historians	-10.0845
▁played	-10.0846
▁primitive	-10.0852
▁More	-10.0858
▁era	-10.0863
▁resistance	-10.0876
▁ancient	-10.0876
▁statements	-10.0878
▁intellectuals	-10.0887
▁referred	-10.0897
▁Italian	-10.0903
▁Say	-10.0904
▁argue	-10.0907
▁consume	-10.0908
▁admitted	-10.091
▁comparison	-10.0917
ists	-10.0921
▁returns	-10.0925
▁succeeded	-10.0929
▁De	-10.0929
▁Standard	-10.094
▁preceding	-10.0947
▁indirect	-10.0952
▁draw	-10.0953
▁programs	-10.0956
▁reaction	-10.096
▁discover	-10.0961
▁Nations	-10.0961
▁Fisher	-10.0965
18	-10.0996
▁lived	-10.1001
▁beings	-10.1005
▁brief	-10.1008
▁freely	-10.102
———.	-10.1023
▁severe	-10.1023
▁Nor	-10.1024
▁surely	-10.1027
▁Depression	-10.1028
▁statistics	-10.1038
are	-10.1044
▁supplies	-10.1048
▁scope	-10.1052
▁artificial	-10.1057
▁errors	-10.1058
▁trust	-10.1058
▁adopt	-10.1058
▁citizen	-10.1063
▁Because	-10.1066
During	-10.1067
▁technology	-10.1076
▁elsewhere	-10.108
▁implications	-10.1085
▁Administration	-10.1086
▁earnings	-10.109
▁machines	-10.1093
▁variety	-10.1102
▁denied	-10.1103
▁coercive	-10.1108
▁Hull	-10.1112
▁agency	-10.1115
.3	-10.1116
▁Spanish	-10.1118
▁remember	-10.1118
▁excessive	-10.1121
▁examples	-10.1124
▁slave	-10.1135
▁defend	-10.1137
▁depreciation	-10.1138
▁fluctuations	-10.1139
▁index	-10.1144
▁purchases	-10.1156
▁drop	-10.1162
▁destroyed	-10.1168
▁Is	-10.1172
▁Second	-10.118
▁stood	-10.118
Of	-10.1181
▁closely	-10.1181
century	-10.1183
▁older	-10.1189
▁(2)	-10.1191
▁mental	-10.1195
▁corporations	-10.1195
▁scarcely	-10.1196
▁creating	-10.1227
▁ethics	-10.1235
with	-10.1236
▁25	-10.1238
▁bringing	-10.124
▁impact	-10.1244
▁exploitation	-10.1245
▁fiduciary	-10.1248
▁extended	-10.1259
▁search	-10.126
▁practices	-10.126
▁–	-10.1272
▁church	-10.1282
▁substitute	-10.1291
▁families	-10.1306
▁combination	-10.1306
▁executive	-10.1315
▁Harbor	-10.1315
▁Roman	-10.132
▁mainly	-10.1325
▁returned	-10.1332
▁sake	-10.1334
▁imagine	-10.1336
▁providing	-10.1345
▁cover	-10.1351
▁controlled	-10.1352
▁died	-10.1357
▁critics	-10.1361
▁proceeds	-10.1362
▁en	-10.1362
▁soil	-10.1372
▁fiat	-10.1376
▁absurd	-10.1383
▁rejected	-10.1385
▁explains	-10.1391
▁houses	-10.1398
▁project	-10.14
▁Berlin	-10.1404
2.	-10.1406
▁grow	-10.1407
▁fair	-10.1411
▁replaced	-10.142
▁During	-10.1425
▁subsistence	-10.1427
▁suggest	-10.1439
▁academic	-10.144
▁constitute	-10.1444
▁League	-10.1466
▁writes	-10.1467
▁reasonable	-10.1468
▁arrived	-10.1469
▁thirty	-10.1474
▁inevitably	-10.1475
▁pleasure	-10.1478
▁identical	-10.1479
▁accordance	-10.1484
▁succeed	-10.1487
▁white	-10.1492
▁relationships	-10.1514
▁contemporary	-10.152
▁gradually	-10.1522
▁satisfied	-10.1533
▁(1)	-10.1541
▁master	-10.1541
▁originally	-10.1547
▁Commission	-10.1547
▁gross	-10.1551
▁western	-10.1558
▁30	-10.1567
▁violent	-10.1569
▁Pearl	-10.1569
▁founded	-10.1584
▁Lincoln	-10.1589
▁saved	-10.1592
▁demonstrated	-10.1592
▁remaining	-10.1593
▁connected	-10.1598
▁recognition	-10.16
▁solely	-10.1627
▁cheap	-10.1628
▁strongly	-10.1628
▁Also	-10.1629
▁produces	-10.1635
1.	-10.1641
▁falls	-10.1647
rs	-10.1647
▁wholly	-10.1651
▁continually	-10.1656
▁list	-10.1657
▁officers	-10.1661
▁12	-10.1665
▁Spain	-10.1666
▁railroads	-10.1666
[	-10.1668
▁economically	-10.1671
."	-10.1673
▁=	-10.1674
▁par	-10.1688
▁distinct	-10.1688
▁items	-10.1692
▁theorists	-10.1694
▁running	-10.1694
▁aside	-10.1696
▁contributions	-10.1696
▁resource	-10.1701
▁legitimate	-10.1707
▁precious	-10.171
▁substantial	-10.1711
▁creates	-10.1722
▁projects	-10.1722
interest	-10.1723
▁calling	-10.1723
▁managed	-10.1723
▁justification	-10.1726
▁professor	-10.1729
▁operate	-10.1729
▁ended	-10.173
▁vice	-10.1738
▁battle	-10.174
▁Civil	-10.1741
▁mathematical	-10.1742
▁applies	-10.175
▁eighteenth	-10.1753
▁massive	-10.1758
▁peoples	-10.1768
▁suddenly	-10.1769
▁represents	-10.1769
▁factory	-10.1777
▁Republic	-10.1782
▁unique	-10.1801
▁Schumpeter	-10.1804
▁societies	-10.181
▁laid	-10.1812
!”	-10.1814
▁pages	-10.1821
3.	-10.1824
▁Prices	-10.183
▁divided	-10.183
▁Principles	-10.1831
O	-10.1833
▁prior	-10.1841
▁merchant	-10.1844
▁begins	-10.185
▁US	-10.1851
▁fit	-10.1856
▁render	-10.1863
▁liberals	-10.1864
▁insight	-10.1873
social	-10.1876
▁formal	-10.1878
▁appearance	-10.1884
▁front	-10.1886
▁aims	-10.1886
▁armed	-10.1886
ally	-10.1893
▁prevailing	-10.1896
▁plants	-10.1898
▁psychological	-10.1917
▁Any	-10.1922
▁desirable	-10.193
▁prevented	-10.1932
▁table	-10.1935
▁wide	-10.1935
▁plus	-10.1935
▁intelligence	-10.1942
▁wealthy	-10.1949
▁governor	-10.1963
▁My	-10.1974
▁concerns	-10.1978
▁borrowing	-10.1983
▁mid	-10.1988
ff	-10.1989
▁Once	-10.1989
▁gained	-10.1995
▁import	-10.1996
▁Old	-10.2003
▁procedure	-10.2005
▁promote	-10.2021
▁Karl	-10.2026
▁instrument	-10.2026
▁(“	-10.2026
▁studies	-10.203
▁taught	-10.2036
▁investors	-10.2039
▁criminal	-10.2057
▁leaving	-10.207
▁entitled	-10.207
▁uniform	-10.2084
▁double	-10.2085
▁l	-10.2089
▁deep	-10.2094
▁resort	-10.2095
▁Philadelphia	-10.2096
▁propaganda	-10.2099
▁continues	-10.2102
▁maintenance	-10.2107
▁bread	-10.2111
▁combined	-10.2114
▁farmer	-10.2116
▁setting	-10.2128
▁slaves	-10.2136
te	-10.2148
▁ideological	-10.2157
▁animals	-10.216
▁effectively	-10.2182
▁feature	-10.2182
▁corporate	-10.2182
▁critique	-10.2187
▁whenever	-10.2193
▁moving	-10.2197
▁harm	-10.2204
▁nationalism	-10.221
▁settlement	-10.2211
Some	-10.2214
▁offers	-10.2221
▁appointed	-10.2222
▁perform	-10.2227
▁rapid	-10.2231
▁faced	-10.2233
▁mention	-10.2234
▁towns	-10.2241
▁Macmillan	-10.2241
▁eager	-10.2242
▁Marxian	-10.2251
▁grew	-10.2258
z	-10.2262
▁Navy	-10.2267
▁attempted	-10.2271
▁appeal	-10.2279
▁wisdom	-10.2281
▁X	-10.2282
▁strict	-10.2283
▁metal	-10.2287
▁Office	-10.2291
▁preserve	-10.2296
▁totally	-10.2297
▁seven	-10.2305
▁engage	-10.2316
year	-10.2316
▁possess	-10.2323
▁phrase	-10.2325
▁fifty	-10.2331
12	-10.2331
▁agencies	-10.2334
▁occasion	-10.2336
Why	-10.2337
▁husband	-10.2338
▁ill	-10.2338
▁trend	-10.2341
do	-10.2343
▁lending	-10.2348
▁solve	-10.2355
▁claimed	-10.2359
▁exchanged	-10.2367
▁grain	-10.2368
▁housing	-10.2381
▁competing	-10.2389
▁career	-10.239
▁earned	-10.2392
▁elected	-10.2402
▁afford	-10.2403
▁sign	-10.2404
▁proposals	-10.2415
▁advocate	-10.2434
▁entered	-10.2438
▁worst	-10.2439
▁cotton	-10.244
▁rulers	-10.2447
▁regular	-10.2451
▁thinks	-10.2453
▁19	-10.2454
▁morality	-10.2454
▁conclude	-10.2462
▁newly	-10.2463
▁narrow	-10.2475
▁fighting	-10.2494
▁Cambridge	-10.2502
▁Re	-10.2504
▁fine	-10.2509
▁express	-10.2517
▁occurs	-10.2523
▁lend	-10.2526
▁sellers	-10.2533
▁discuss	-10.2535
▁perspective	-10.2536
▁describe	-10.2537
▁hear	-10.2547
see	-10.2548
▁tariffs	-10.2552
▁conference	-10.2557
▁Currency	-10.2562
▁justify	-10.2563
N	-10.2569
▁La	-10.2573
▁peculiar	-10.2581
▁Edward	-10.2586
▁Republicans	-10.2587
11	-10.2593
▁Right	-10.2604
▁isolated	-10.2609
▁3,	-10.261
▁removed	-10.2621
▁favorable	-10.2628
▁send	-10.2631
▁putting	-10.2633
▁measured	-10.2647
”)	-10.2649
▁sets	-10.2653
▁zero	-10.2666
▁promise	-10.2666
▁economies	-10.2673
▁abandoned	-10.2677
▁organizations	-10.2681
▁introduction	-10.2682
▁eight	-10.2683
▁safe	-10.2685
Rothbard	-10.2687
▁seeking	-10.2688
▁praxeology	-10.2697
Many	-10.2706
▁influenced	-10.2707
▁abstract	-10.2711
▁supplied	-10.2722
▁excellent	-10.2731
▁taxpayers	-10.2735
▁counter	-10.2735
▁objection	-10.2746
▁III	-10.2747
▁arises	-10.2751
▁distinguish	-10.2762
▁Assembly	-10.2781
▁professional	-10.2797
▁Nature	-10.2803
▁operating	-10.282
el	-10.2822
▁implied	-10.2824
ion	-10.2828
▁continuing	-10.283
▁remarkable	-10.283
▁apparatus	-10.2838
making	-10.284
▁escape	-10.2847
▁prominent	-10.2848
▁category	-10.2849
▁deficits	-10.2849
▁Foundation	-10.285
▁trading	-10.2851
▁roads	-10.286
out	-10.2864
▁Report	-10.2865
▁colony	-10.2865
▁blame	-10.2868
Another	-10.2869
▁regards	-10.2874
▁Other	-10.2879
▁rests	-10.2881
▁specifically	-10.2883
▁satisfactory	-10.2886
▁16	-10.2895
▁college	-10.2903
price	-10.2905
▁summer	-10.291
▁nevertheless	-10.2914
▁Finally	-10.2917
▁Essays	-10.2917
▁shape	-10.2918
▁agent	-10.292
▁height	-10.292
▁Army	-10.2928
▁Wall	-10.2929
▁que	-10.2933
▁determining	-10.2937
▁marked	-10.2937
▁businesses	-10.2944
▁enemies	-10.2949
▁Without	-10.2955
▁evils	-10.2956
▁fields	-10.2958
▁adequate	-10.296
▁coal	-10.2963
▁twentieth	-10.297
▁context	-10.297
▁choices	-10.2972
▁reported	-10.2972
▁initial	-10.2973
▁institutional	-10.2974
▁discipline	-10.2975
ment	-10.2978
▁indicated	-10.298
ized	-10.2986
▁dominant	-10.299
▁outstanding	-10.2994
▁Walter	-10.2995
▁insisted	-10.2995
▁observation	-10.2997
▁believes	-10.3004
h	-10.301
▁stay	-10.3015
▁suffered	-10.3019
▁refers	-10.3028
▁Exchange	-10.3032
▁acceptance	-10.3042
▁doctor	-10.3048
▁animal	-10.3051
▁seller	-10.3055
Our	-10.3061
▁Democrats	-10.3064
▁spring	-10.3067
▁discrimination	-10.3073
▁Friedman	-10.3074
▁settled	-10.3075
▁Jr	-10.3076
▁percentage	-10.3088
▁exclusive	-10.3089
▁involve	-10.3101
▁marks	-10.3101
value	-10.3103
▁discovery	-10.311
▁description	-10.3113
▁Fund	-10.3118
▁waste	-10.3131
▁indispensable	-10.3134
▁bit	-10.3142
▁Governor	-10.3154
▁win	-10.3155
▁priori	-10.3157
▁center	-10.3158
▁sufficiently	-10.3158
▁expanded	-10.3164
▁dead	-10.3166
▁extra	-10.317
▁reply	-10.3175
▁Island	-10.3184
▁13	-10.3184
▁estimate	-10.3185
▁differ	-10.3185
▁quoted	-10.3185
.5	-10.3185
▁extension	-10.3187
▁investigation	-10.319
▁motives	-10.3192
▁politically	-10.3192
▁statistical	-10.3199
▁proceed	-10.3203
American	-10.321
▁positions	-10.321
▁ignorance	-10.3212
▁contraction	-10.3216
▁corporation	-10.3216
▁actor	-10.3221
▁valuations	-10.3232
land	-10.3237
▁determines	-10.3242
▁metals	-10.3261
▁subsidies	-10.3269
▁suffering	-10.3271
▁e	-10.3272
▁behalf	-10.3274
▁soldiers	-10.3276
▁OF	-10.328
▁correctly	-10.3284
▁shortage	-10.3288
▁representatives	-10.3295
▁disposal	-10.3296
);	-10.3296
▁weeks	-10.3296
▁Louis	-10.3297
▁urged	-10.3301
▁immense	-10.3301
▁decade	-10.3305
▁imply	-10.3313
▁buyer	-10.3313
▁India	-10.3314
▁leadership	-10.3319
▁heavily	-10.3328
▁features	-10.3349
▁reducing	-10.3352
▁attacked	-10.3352
▁Price	-10.3363
U	-10.3369
▁Frank	-10.3371
▁neutral	-10.3377
▁Minister	-10.3392
▁dealt	-10.3401
ization	-10.3403
▁conflicts	-10.3405
▁stands	-10.3405
▁Before	-10.3407
▁starting	-10.341
▁mistake	-10.3411
▁probability	-10.3417
▁interventionism	-10.3424
▁blood	-10.3427
il	-10.3438
▁finished	-10.3438
Mr	-10.3442
▁concluded	-10.3442
▁Rome	-10.3443
▁communist	-10.3454
▁representative	-10.3461
▁grave	-10.3464
▁performance	-10.3473
19	-10.3475
▁Industrial	-10.3477
▁preferred	-10.3478
▁eliminate	-10.3482
▁mode	-10.3485
▁Pacific	-10.3487
.4	-10.349
▁Austrians	-10.3491
▁code	-10.3492
▁standing	-10.3495
▁Middle	-10.35
▁waiting	-10.3501
▁sharp	-10.3502
▁qualities	-10.3517
▁entry	-10.3518
▁Dutch	-10.3528
▁Historical	-10.3528
▁restricted	-10.3529
▁Perhaps	-10.3539
▁40	-10.3545
▁sole	-10.356
▁conscious	-10.3566
▁charges	-10.357
▁feelings	-10.357
▁traffic	-10.3572
▁obligation	-10.3598
▁Commerce	-10.361
rate	-10.3618
▁pays	-10.3622
▁weak	-10.3623
▁realm	-10.3629
▁focus	-10.363
ry	-10.3633
▁delivered	-10.3634
▁bond	-10.3638
▁beneficial	-10.3641
▁commonly	-10.3642
▁restrict	-10.3644
▁notice	-10.3648
▁serves	-10.3658
▁influential	-10.3661
▁fashion	-10.3665
▁valued	-10.367
在	-10.367
▁consumed	-10.3677
Yet	-10.3689
▁successfully	-10.3693
▁holdings	-10.3694
▁Carl	-10.3697
▁join	-10.3698
▁subsequent	-10.37
▁ships	-10.3705
▁widespread	-10.3707
▁horse	-10.3708
▁Bastiat	-10.3717
▁11	-10.3719
▁libertarians	-10.3719
▁c	-10.3721
▁allocation	-10.3722
▁Jones	-10.3723
▁revealed	-10.3729
▁Nazi	-10.3732
However	-10.3736
▁Where	-10.3743
▁resulted	-10.3743
▁California	-10.3753
▁extensive	-10.3758
▁transportation	-10.376
▁agreements	-10.3767
▁Senator	-10.3778
20	-10.378
▁overall	-10.378
▁recovery	-10.3783
▁accomplished	-10.3787
▁idle	-10.3788
▁door	-10.3793
▁banker	-10.3795
▁enjoyed	-10.3798
▁regardless	-10.3801
▁motive	-10.3814
▁refuse	-10.3815
▁expensive	-10.3817
▁street	-10.3819
▁easier	-10.3828
▁compensation	-10.383
▁sees	-10.3831
▁includes	-10.3835
▁considering	-10.3838
▁morning	-10.3848
▁remedy	-10.3848
▁Socialist	-10.3848
▁Rather	-10.3861
▁continuous	-10.3864
▁guarantee	-10.3868
▁examine	-10.3872
▁Hazlitt	-10.3872
▁categories	-10.3873
▁obligations	-10.3877
▁Left	-10.3878
▁charged	-10.3884
▁Value	-10.3884
▁cultural	-10.3888
▁manufacturing	-10.3888
é	-10.3889
▁attained	-10.389
▁maintaining	-10.3892
▁manufacturers	-10.3896
▁sides	-10.3898
▁somehow	-10.3909
▁Ambassador	-10.3909
▁teaching	-10.3911
▁restriction	-10.3911
▁replace	-10.3916
▁empire	-10.3926
▁Hamilton	-10.3929
▁enforcement	-10.3934
▁consent	-10.3934
▁unknown	-10.3937
▁d	-10.3943
▁pricing	-10.3944
▁news	-10.3946
▁detailed	-10.3959
▁remarks	-10.396
▁Bill	-10.3961
▁favored	-10.3968
▁characterized	-10.397
▁pursue	-10.397
▁estimated	-10.3975
▁instruments	-10.3976
▁spiritual	-10.3978
▁version	-10.398
▁liquidity	-10.3984
like	-10.3984
▁fails	-10.3996
▁turns	-10.4
▁logically	-10.4002
▁crises	-10.4005
▁filled	-10.4009
▁compelled	-10.4014
▁brilliant	-10.4016
▁disappear	-10.4017
▁medical	-10.4022
▁businessman	-10.4026
▁sea	-10.4043
▁joint	-10.4045
▁steps	-10.4047
▁fairly	-10.4052
▁puts	-10.4058
▁constitutes	-10.406
▁inter	-10.406
▁sovereignty	-10.4061
▁indirectly	-10.4061
▁Marxism	-10.4062
▁barter	-10.4069
▁careful	-10.4074
▁Production	-10.4095
▁Van	-10.4098
▁constitution	-10.4113
▁marriage	-10.4118
▁nobody	-10.4119
▁expanding	-10.412
ies	-10.4123
▁invasion	-10.4129
▁creditors	-10.4129
▁propositions	-10.413
▁abolition	-10.4131
▁static	-10.4132
age	-10.4138
▁receipts	-10.414
▁Suppose	-10.4141
▁legislature	-10.4143
▁department	-10.4146
▁victim	-10.4151
–1	-10.4152
▁asking	-10.4156
▁tyranny	-10.4162
▁suggests	-10.4162
14	-10.4167
▁4,	-10.417
▁Parliament	-10.4181
4.	-10.4182
▁opponents	-10.4188
▁Johnson	-10.4189
▁defeat	-10.4189
▁minor	-10.4198
▁Oxford	-10.4204
▁director	-10.4222
Chicago	-10.4225
▁deals	-10.423
▁completed	-10.4236
▁broad	-10.4236
▁praxeological	-10.424
▁stopped	-10.4242
▁revenues	-10.4256
ton	-10.4263
▁weapons	-10.4266
▁expenses	-10.4273
▁factories	-10.4276
15	-10.4277
▁names	-10.4281
▁Ohio	-10.4288
▁nominal	-10.4289
▁closed	-10.4292
▁$1	-10.4293
▁18	-10.4296
▁illegal	-10.4301
▁credits	-10.4302
▁criterion	-10.4303
▁compete	-10.4305
▁joined	-10.4306
▁deeply	-10.4312
izing	-10.4312
▁publication	-10.4313
ling	-10.4316
▁impression	-10.4318
▁Stalin	-10.4325
▁carrying	-10.4328
▁strange	-10.433
▁boy	-10.4334
natural	-10.4337
▁Modern	-10.4337
▁Whether	-10.4338
▁enforce	-10.4339
known	-10.4341
13	-10.4346
▁arrangement	-10.4363
▁draft	-10.4366
▁begun	-10.4369
▁pounds	-10.437
▁supreme	-10.4371
▁carefully	-10.4375
▁page	-10.4376
▁leaves	-10.4381
▁remote	-10.4383
▁demonstrate	-10.4386
▁passing	-10.4386
▁participants	-10.4388
▁threatened	-10.439
▁species	-10.4392
▁wait	-10.4395
▁Politics	-10.44
▁Eastern	-10.4402
▁le	-10.441
▁observe	-10.4411
am	-10.4421
▁examination	-10.4424
▁achievement	-10.4425
▁showing	-10.4426
▁moreover	-10.4436
▁reflect	-10.4439
▁assumes	-10.4447
▁spoke	-10.4457
so	-10.4461
▁opinions	-10.4464
▁schemes	-10.4467
▁voluntarily	-10.4467
▁occupation	-10.4469
▁Nevertheless	-10.4472
▁f	-10.4475
▁access	-10.4485
▁ordered	-10.4487
▁5,	-10.4489
▁driven	-10.4503
▁collection	-10.4509
▁tells	-10.4511
▁bureaucrats	-10.4518
▁Marxist	-10.4525
▁confused	-10.4542
▁corn	-10.4546
▁precise	-10.4547
▁14	-10.4565
▁anticipated	-10.4568
▁accumulated	-10.4572
▁rank	-10.4588
▁Chinese	-10.459
▁repeated	-10.4591
▁royal	-10.4596
▁device	-10.4598
▁rendered	-10.4599
▁contained	-10.461
▁voting	-10.4613
▁Hans	-10.462
▁attacks	-10.4622
▁performed	-10.4624
▁birth	-10.4627
▁pursuit	-10.4634
▁Y	-10.4635
▁laborers	-10.4635
▁review	-10.4644
▁slow	-10.4645
▁viewed	-10.4646
▁Harvard	-10.4648
▁phase	-10.4651
▁Truman	-10.4655
.6	-10.4657
▁region	-10.4664
▁sugar	-10.4667
▁complicated	-10.4667
▁Africa	-10.4668
▁influences	-10.4668
▁Hoppe	-10.4675
▁sovereign	-10.4681
▁Quarterly	-10.4686
▁voice	-10.4686
five	-10.4686
▁accordingly	-10.4687
▁learning	-10.4697
▁validity	-10.4701
▁margin	-10.4709
▁mine	-10.4715
▁followers	-10.4717
▁text	-10.4726
▁remove	-10.4728
▁named	-10.4729
▁abandon	-10.4734
▁contributed	-10.4746
▁experiment	-10.4748
▁extend	-10.4753
reserve	-10.4755
law	-10.4762
▁ignored	-10.4763
▁ounces	-10.477
▁incentives	-10.4777
Here	-10.478
▁round	-10.478
▁tender	-10.4782
▁conceived	-10.4783
17	-10.4788
▁printing	-10.4793
▁moderate	-10.4793
▁considers	-10.4794
▁Supreme	-10.4797
▁arrive	-10.4804
▁managers	-10.4806
▁sums	-10.4807
ir	-10.4807
▁chaos	-10.481
▁assert	-10.481
government	-10.4812
▁training	-10.4818
▁dispute	-10.4821
▁presence	-10.4826
▁rents	-10.4827
▁Indians	-10.4841
▁murder	-10.4844
▁lie	-10.485
▁substitutes	-10.4864
was	-10.4866
▁dynamic	-10.4866
▁pain	-10.4879
▁cheaper	-10.4881
▁forget	-10.4884
▁broken	-10.489
▁speculative	-10.4907
▁compare	-10.4907
▁purchased	-10.4908
▁systematic	-10.4909
▁trial	-10.4913
▁totalitarian	-10.4915
▁eye	-10.4922
▁causal	-10.4926
▁philosophical	-10.4927
▁Wieser	-10.4938
▁ibid	-10.4938
▁receiving	-10.4939
▁sooner	-10.4942
▁substance	-10.4946
▁underlying	-10.4955
▁fallacy	-10.4959
▁arrangements	-10.4959
▁Two	-10.4964
▁honest	-10.4967
▁naval	-10.4971
▁fewer	-10.4978
▁allows	-10.498
▁requirement	-10.4981
▁readers	-10.4981
▁provisions	-10.4986
▁hundreds	-10.4987
▁fought	-10.4989
▁fraud	-10.4994
▁probable	-10.4998
▁reverse	-10.5005
▁Like	-10.5007
▁turning	-10.5014
▁lowering	-10.5015
even	-10.5016
▁advice	-10.5032
▁creative	-10.5033
▁hire	-10.5036
▁Men	-10.5037
▁inferior	-10.5038
▁encourage	-10.504
▁Kirzner	-10.5042
▁consciousness	-10.5043
▁experienced	-10.5046
▁Just	-10.5046
▁Franklin	-10.5056
▁largest	-10.5057
▁explicitly	-10.5061
有	-10.5067
▁Morris	-10.5068
▁protective	-10.5068
▁slowly	-10.507
▁tries	-10.5075
▁characteristics	-10.5093
Not	-10.51
▁vision	-10.5102
▁Democracy	-10.5104
▁durable	-10.5112
▁aggressive	-10.5118
▁pieces	-10.5118
▁unlimited	-10.5118
▁harmony	-10.512
▁unemployed	-10.5124
▁adds	-10.5127
▁emphasized	-10.5132
▁bureaucracy	-10.5133
▁Churchill	-10.5133
pp	-10.5139
▁sudden	-10.5157
class	-10.5158
▁philosophers	-10.516
▁THE	-10.5161
▁Oil	-10.5165
▁ignore	-10.5168
▁wished	-10.5169
▁Madison	-10.5171
▁insist	-10.5171
5.	-10.5171
▁warned	-10.5191
▁circulating	-10.5196
▁overcome	-10.5199
▁bargaining	-10.52
▁advances	-10.5201
▁intention	-10.521
▁readily	-10.5215
▁supporters	-10.5219
是	-10.5223
▁Jersey	-10.5224
▁contradiction	-10.5228
▁bulk	-10.523
▁speculators	-10.5232
▁votes	-10.5233
▁formula	-10.5249
▁forgotten	-10.525
▁Education	-10.5252
▁Lu	-10.5252
▁controversy	-10.5252
▁judges	-10.5253
▁girl	-10.5257
▁details	-10.5259
▁chap	-10.5262
▁promises	-10.5262
▁realization	-10.5265
▁Do	-10.5266
▁clothing	-10.5273
▁borrow	-10.5276
▁protected	-10.5278
▁assistance	-10.528
▁hoped	-10.528
▁eminent	-10.5284
30	-10.5287
▁decisive	-10.5287
▁Southern	-10.5287
▁Research	-10.5293
▁establishing	-10.5297
▁fast	-10.5297
▁wonder	-10.53
▁rare	-10.5304
such	-10.5306
com	-10.5307
▁quantitative	-10.5307
▁safety	-10.531
x	-10.5311
rd	-10.5325
▁striking	-10.533
▁Die	-10.5333
▁emergence	-10.5348
▁treaty	-10.535
▁colonial	-10.5351
▁generations	-10.536
▁forever	-10.5361
▁upper	-10.537
▁wise	-10.5382
▁contribute	-10.5382
▁liabilities	-10.5383
▁talking	-10.5384
▁punishment	-10.5386
▁ship	-10.5388
▁cartel	-10.539
▁Mass	-10.5393
▁quarter	-10.5396
▁finding	-10.5397
▁scene	-10.5402
▁humanity	-10.5403
▁abundance	-10.5404
▁Indian	-10.5411
▁runs	-10.5414
ary	-10.5416
▁sight	-10.5417
▁comparatively	-10.5423
▁cease	-10.5432
▁urgent	-10.5433
son	-10.5435
16	-10.5438
▁stronger	-10.5456
▁imperialism	-10.5461
▁schedule	-10.5461
▁indicate	-10.5465
▁alter	-10.547
▁urban	-10.547
▁tasks	-10.5471
▁undoubtedly	-10.5471
▁useless	-10.5473
ia	-10.5477
me	-10.548
▁imported	-10.5481
▁transition	-10.5487
▁assuming	-10.5498
▁opened	-10.5499
▁reject	-10.55
os	-10.5503
▁brother	-10.5505
▁Another	-10.5505
▁contains	-10.5507
▁announced	-10.5516
▁17	-10.5516
▁killed	-10.5523
▁adjust	-10.5527
▁Capitalism	-10.5539
▁Books	-10.5544
▁treat	-10.5556
▁considerably	-10.5556
▁drug	-10.5561
▁vain	-10.5562
▁possibilities	-10.5564
▁concentration	-10.5567
▁newspaper	-10.5569
▁warning	-10.5574
▁Bureau	-10.558
▁leisure	-10.5583
▁cycles	-10.5584
▁Plan	-10.5585
▁Herbert	-10.5587
▁improved	-10.5599
▁simultaneously	-10.5611
▁conquest	-10.5617
ur	-10.5621
state	-10.5627
▁driving	-10.5631
▁Who	-10.5633
▁privileged	-10.5635
▁causing	-10.5637
▁permanently	-10.5638
▁feet	-10.564
▁voters	-10.5646
▁streets	-10.5657
▁Ala	-10.566
▁immigration	-10.5666
Before	-10.5667
May	-10.567
▁red	-10.5677
from	-10.5682
ar	-10.5684
▁Friedrich	-10.5684
▁Ford	-10.5685
▁respective	-10.569
▁Buchanan	-10.5699
▁Connecticut	-10.5701
▁comprehensive	-10.5704
▁Neither	-10.5711
▁Justice	-10.5719
▁retain	-10.5722
▁artificially	-10.573
▁covered	-10.5732
▁Thought	-10.5733
▁enforced	-10.5734
▁politician	-10.5736
▁informed	-10.5739
▁reports	-10.5753
▁circle	-10.5753
▁sentiment	-10.5757
▁premium	-10.576
▁fate	-10.5771
▁+	-10.5778
▁unfortunate	-10.5782
▁ahead	-10.5782
▁fish	-10.5782
▁forty	-10.5784
▁guide	-10.5791
▁1.	-10.5792
▁objections	-10.5806
▁staff	-10.5809
▁cited	-10.5813
▁secretary	-10.5814
▁obliged	-10.5814
▁alike	-10.5821
▁receives	-10.5824
▁aimed	-10.5825
▁unchanged	-10.5832
▁broke	-10.5832
▁developing	-10.5836
▁improvements	-10.5836
▁legally	-10.5838
▁ad	-10.584
▁fallen	-10.5843
▁monopolistic	-10.5845
▁assigned	-10.5848
▁ounce	-10.5853
▁6,	-10.5864
▁grasp	-10.5865
23	-10.587
em	-10.5877
▁meat	-10.5882
▁victims	-10.5889
▁define	-10.5899
▁pretty	-10.5902
▁motion	-10.5913
▁capitalistic	-10.5914
▁estimates	-10.5914
▁accounting	-10.5915
▁rarely	-10.592
▁manufacture	-10.592
▁nine	-10.5921
▁confined	-10.5924
▁surprise	-10.5924
▁cure	-10.5926
▁vague	-10.5928
▁Today	-10.5929
▁Jackson	-10.5935
▁strategy	-10.5935
▁thoroughly	-10.5937
▁advocated	-10.5941
▁ff	-10.595
▁ran	-10.5951
▁unfortunately	-10.5957
▁issuing	-10.5958
▁upward	-10.5959
▁discussions	-10.5963
▁minister	-10.5964
▁Martin	-10.5968
▁voted	-10.5976
▁reflected	-10.5989
▁seeing	-10.5989
▁tool	-10.599
▁allowing	-10.599
scale	-10.5992
▁distributed	-10.5994
▁testimony	-10.5996
▁translation	-10.6009
▁comparative	-10.601
▁Samuel	-10.6011
▁restore	-10.6018
▁Lenin	-10.6023
▁Far	-10.6029
et	-10.6033
▁Clark	-10.6035
▁Princeton	-10.6036
▁accompanied	-10.6036
▁disaster	-10.6039
▁7,	-10.6047
▁Canada	-10.6048
▁corruption	-10.6052
▁inhabitants	-10.6056
▁plain	-10.6057
▁answered	-10.6058
▁individualism	-10.6064
▁tendencies	-10.6065
▁serving	-10.6065
▁guilty	-10.6068
▁feudal	-10.6068
▁supposedly	-10.6073
▁chapters	-10.6076
ie	-10.6086
▁regions	-10.6091
▁item	-10.6096
▁address	-10.6098
▁fourth	-10.61
▁couple	-10.6104
–2	-10.6106
▁surface	-10.6107
▁technique	-10.6107
25	-10.6107
▁ruled	-10.6107
▁del	-10.6107
▁borrowed	-10.6113
▁accident	-10.612
▁losing	-10.6124
▁surprising	-10.6127
▁reputation	-10.6132
▁regulate	-10.6137
▁respects	-10.6142
▁Again	-10.6146
▁Bush	-10.6156
▁milk	-10.6165
▁couldn	-10.6171
▁barriers	-10.6179
▁grown	-10.6182
▁university	-10.6184
▁monarchy	-10.6185
▁thoughts	-10.6193
▁associations	-10.6206
▁automatically	-10.621
▁suitable	-10.6214
there	-10.6215
▁sharply	-10.6218
▁damage	-10.622
▁legislative	-10.6223
▁sorts	-10.6224
▁induce	-10.6225
▁miles	-10.623
▁scientists	-10.6235
▁attached	-10.6238
▁secondary	-10.625
Hayek	-10.6251
▁raises	-10.626
▁editor	-10.6273
▁team	-10.6275
▁till	-10.6277
▁redemption	-10.6282
▁emerge	-10.6283
▁statism	-10.6286
▁warfare	-10.6286
▁für	-10.6291
▁letters	-10.6294
▁y	-10.6311
▁clause	-10.6311
They	-10.6312
▁possessed	-10.6313
▁newspapers	-10.6316
▁challenge	-10.6317
▁equation	-10.6318
▁looks	-10.6318
▁shoes	-10.6322
.7	-10.6323
▁alternatives	-10.6325
▁Mrs	-10.6332
▁intelligent	-10.6337
▁Arthur	-10.6339
▁typically	-10.635
▁seeks	-10.6353
▁1929	-10.6358
▁cold	-10.6359
▁Wealth	-10.6362
▁eat	-10.6362
▁encouraged	-10.6365
June	-10.6366
▁asserted	-10.6366
6.	-10.637
▁approval	-10.637
▁conceive	-10.6372
▁80	-10.6373
▁redistribution	-10.6374
▁risks	-10.6378
▁bankruptcy	-10.638
▁officer	-10.6381
▁interpreted	-10.6383
▁governed	-10.6385
old	-10.639
▁inside	-10.639
▁du	-10.6391
▁titles	-10.6395
▁unnecessary	-10.64
▁temporarily	-10.6401
▁customs	-10.6402
▁habit	-10.6403
▁oppose	-10.641
▁curious	-10.6413
▁prospect	-10.6415
▁count	-10.6423
First	-10.6424
▁rises	-10.6425
▁style	-10.643
▁Robbins	-10.6433
operation	-10.6441
▁skill	-10.6443
▁instances	-10.6446
▁philosopher	-10.6457
▁adoption	-10.646
▁lowest	-10.6462
▁delegates	-10.6471
▁sub	-10.6482
who	-10.6491
▁Part	-10.6491
▁slightly	-10.6492
▁cars	-10.6494
21	-10.6495
▁Alexander	-10.6497
▁literary	-10.6498
real	-10.6499
▁profession	-10.6503
▁m	-10.6507
▁belong	-10.6511
▁Finance	-10.6511
▁anybody	-10.6511
▁statist	-10.6512
▁conceivable	-10.6513
▁elite	-10.6516
▁assertion	-10.6521
▁employee	-10.6529
▁stress	-10.6532
▁collectivist	-10.6542
▁conservatives	-10.6543
March	-10.6544
▁intent	-10.6551
▁accomplish	-10.6553
▁destructive	-10.6557
▁scholars	-10.6558
▁Private	-10.6567
▁neglected	-10.6574
▁Le	-10.6577
▁music	-10.658
▁fruits	-10.6585
▁commission	-10.6592
▁wool	-10.6603
▁offering	-10.6612
▁magnitude	-10.6617
50	-10.662
▁Benjamin	-10.6622
▁risen	-10.6622
▁movie	-10.6629
▁bottom	-10.6631
▁ranks	-10.6634
▁Life	-10.6639
▁offset	-10.6641
▁Brown	-10.6645
▁profound	-10.6648
▁degrees	-10.665
▁denounced	-10.6652
▁mines	-10.6654
▁fleet	-10.6654
▁Though	-10.6658
▁quick	-10.6663
▁solved	-10.6666
▁argues	-10.6666
▁studied	-10.6668
▁fortune	-10.6671
▁Harper	-10.6677
▁Greek	-10.6679
▁conversation	-10.668
ive	-10.6687
▁married	-10.6687
▁promised	-10.6687
▁replied	-10.6691
▁rely	-10.6698
▁Order	-10.67
▁checks	-10.6703
w	-10.6707
▁resist	-10.6712
▁seemingly	-10.6713
▁push	-10.6713
▁curves	-10.6713
▁induced	-10.6716
▁hypothesis	-10.6719
▁conventional	-10.6723
▁asset	-10.6726
▁invariably	-10.6726
▁enjoyment	-10.6727
▁wine	-10.6727
▁knowing	-10.673
▁honor	-10.6731
▁closer	-10.6738
▁disease	-10.6742
▁interfere	-10.6742
▁transferred	-10.6743
▁90	-10.6743
▁hypothetical	-10.6747
▁Clinton	-10.6749
▁Rights	-10.6758
▁universally	-10.6763
▁twice	-10.6771
▁bodies	-10.6773
▁monopolies	-10.6773
▁utilities	-10.6775
ant	-10.6775
▁Warren	-10.6779
▁survive	-10.6779
▁tended	-10.6785
▁uncertain	-10.6786
▁foreigners	-10.6788
▁chiefly	-10.6792
▁foundations	-10.6793
▁steady	-10.6794
▁manager	-10.6796
Re	-10.6798
▁Engels	-10.6812
▁hit	-10.6812
▁yields	-10.6819
▁avoided	-10.6822
including	-10.6831
▁partial	-10.6838
▁candidate	-10.6841
▁shared	-10.6842
22	-10.6843
ize	-10.6844
▁suggestion	-10.6852
Most	-10.6853
▁inner	-10.6868
▁situations	-10.6874
off	-10.6875
▁Cleveland	-10.6876
▁dark	-10.6876
▁inequality	-10.6889
▁Among	-10.6894
▁County	-10.6898
ner	-10.6898
▁invention	-10.691
V	-10.6917
▁reward	-10.6919
over	-10.6919
entrepreneurship	-10.6921
▁compulsion	-10.6924
▁teachers	-10.6928
▁attainment	-10.693
▁prevail	-10.6932
▁interventionist	-10.6933
▁roundabout	-10.6939
▁liberties	-10.6939
▁twelve	-10.695
▁gift	-10.6953
▁Short	-10.6953
▁universe	-10.6954
▁Inflation	-10.6956
▁calculations	-10.6959
▁Reich	-10.6962
▁certainty	-10.6963
▁prime	-10.6965
▁courage	-10.6968
▁male	-10.6968
▁elections	-10.6972
▁buildings	-10.6974
▁guided	-10.698
▁disastrous	-10.6984
▁ages	-10.6984
▁financed	-10.6988
▁Book	-10.6993
▁root	-10.6996
▁Jews	-10.6998
▁declare	-10.7002
▁standpoint	-10.7003
▁speed	-10.7006
▁hopes	-10.7008
▁contention	-10.701
▁College	-10.7019
▁anxious	-10.7024
Every	-10.7027
.9	-10.7029
▁conviction	-10.703
▁experiences	-10.7031
▁inquiry	-10.7034
right	-10.7034
▁eliminated	-10.7039
▁Similarly	-10.7039
▁Consequently	-10.7051
▁grants	-10.7053
▁copper	-10.7055
▁presents	-10.7057
▁transformed	-10.7058
▁daughter	-10.7059
▁sterling	-10.7061
▁approximately	-10.7061
▁explicit	-10.7063
▁charity	-10.7069
▁terminology	-10.7076
▁Poland	-10.7077
.8	-10.708
▁illustration	-10.7083
▁novel	-10.7088
▁Liberalism	-10.7089
good	-10.7093
▁protest	-10.7095
▁Weber	-10.7098
▁representation	-10.71
———	-10.7101
▁Columbia	-10.7102
▁preservation	-10.7102
Against	-10.7111
▁theft	-10.7112
▁(18	-10.7116
December	-10.7117
Once	-10.7118
://	-10.7119
ate	-10.7124
▁plays	-10.7124
Such	-10.7129
▁boundaries	-10.714
▁recommended	-10.7143
▁propose	-10.7145
▁approved	-10.7145
▁chose	-10.7147
▁prohibited	-10.7154
▁dated	-10.7159
▁expectation	-10.7161
▁Yale	-10.7164
▁negotiations	-10.7165
▁lacking	-10.7172
▁besides	-10.7187
▁abolished	-10.7187
▁soul	-10.7195
▁developments	-10.72
▁idem	-10.7204
▁consist	-10.7212
▁achievements	-10.722
▁dream	-10.7227
▁eds	-10.7228
▁Conference	-10.7231
▁pushed	-10.7231
▁rid	-10.7233
ne	-10.7242
▁60	-10.7243
▁monopolist	-10.7247
▁experts	-10.7251
▁rightly	-10.7253
▁merchandise	-10.7253
▁chairman	-10.7253
ish	-10.7258
▁proceeded	-10.7266
▁formerly	-10.7267
▁bearing	-10.7269
▁pursued	-10.7274
▁San	-10.728
▁variations	-10.7282
▁illusion	-10.7286
Under	-10.7286
▁coffee	-10.729
▁deliberately	-10.7304
▁financing	-10.7313
Finally	-10.7319
▁chain	-10.7323
▁explaining	-10.7328
▁selected	-10.7338
▁exceed	-10.734
▁printed	-10.7343
▁unhampered	-10.7355
▁superiority	-10.7357
0	-10.7357
▁mostly	-10.7361
▁fix	-10.7366
▁hurt	-10.7372
▁mathematics	-10.7372
▁hatred	-10.7376
▁conscience	-10.7376
▁location	-10.7379
▁watch	-10.7383
▁antitrust	-10.7389
▁promptly	-10.739
▁calculated	-10.7396
▁dog	-10.7406
▁shop	-10.7407
▁imaginary	-10.7407
▁8,	-10.7416
▁Still	-10.7419
▁assured	-10.742
▁presumably	-10.743
▁violation	-10.7439
▁Asia	-10.7442
▁armies	-10.7443
▁properties	-10.7443
▁favorite	-10.7443
▁utterly	-10.7445
▁offices	-10.7448
▁compromise	-10.7449
▁debtors	-10.7459
▁stressed	-10.7471
24	-10.7473
▁Atlantic	-10.7477
▁quasi	-10.7478
­	-10.7487
▁fundamentally	-10.7496
▁innocent	-10.7507
▁faster	-10.7512
▁Land	-10.7513
▁repeatedly	-10.7514
▁wholesale	-10.7517
▁acquisition	-10.7518
▁opening	-10.7522
▁homes	-10.753
▁papers	-10.7548
▁perceived	-10.7558
▁collectivism	-10.7558
▁costly	-10.7561
▁extraordinary	-10.7564
▁exposition	-10.7565
▁n	-10.7573
▁9,	-10.7575
co	-10.7575
▁translated	-10.7576
ch	-10.7585
▁essays	-10.7586
▁camp	-10.7589
▁neighbors	-10.7595
ler	-10.7601
▁obstacles	-10.7605
John	-10.7608
▁distant	-10.7616
▁territories	-10.7623
ities	-10.7629
▁notions	-10.7634
exchange	-10.7642
▁Can	-10.7646
▁socialistic	-10.7649
▁taste	-10.7652
wing	-10.7653
▁irrelevant	-10.7654
His	-10.7655
Austrian	-10.766
▁sentence	-10.7663
▁coordination	-10.7666
▁customer	-10.7669
ability	-10.7686
▁derive	-10.7687
▁emergency	-10.7689
▁effected	-10.7697
▁Communism	-10.7698
they	-10.77
▁Are	-10.7702
▁undertaken	-10.7703
▁Ethics	-10.7703
▁personality	-10.7703
▁incompatible	-10.7704
▁backed	-10.7705
▁intermediate	-10.7707
▁throw	-10.771
▁referring	-10.7712
▁limitations	-10.7716
▁condemned	-10.7717
▁teachings	-10.7722
▁tremendous	-10.7722
▁radio	-10.7722
▁banknotes	-10.7725
▁implicit	-10.7725
ier	-10.7727
▁dominated	-10.7728
liberal	-10.7728
▁openly	-10.7731
▁Maryland	-10.7734
▁Turgot	-10.774
▁granting	-10.7741
▁suit	-10.7745
▁adding	-10.7748
▁lesson	-10.7748
▁redeem	-10.7749
▁24	-10.775
▁united	-10.7752
▁centralized	-10.7753
▁constituted	-10.7763
▁implication	-10.7769
April	-10.7773
▁Property	-10.7777
▁dropped	-10.7779
▁reforms	-10.778
會	-10.7799
▁judicial	-10.7804
▁comments	-10.7808
▁11,	-10.7809
▁advertising	-10.7809
▁likewise	-10.7813
▁manufacturer	-10.7817
▁occupied	-10.7819
▁advantageous	-10.782
▁submit	-10.7824
▁discussing	-10.7827
▁Post	-10.7827
▁cast	-10.7834
▁guaranteed	-10.7836
▁declined	-10.7839
▁elaborate	-10.7839
▁Kennedy	-10.784
▁misleading	-10.7845
28	-10.7848
▁definitely	-10.785
▁caught	-10.7851
▁spontaneous	-10.7852
ter	-10.7855
▁Treatise	-10.7858
▁background	-10.7861
▁reflection	-10.7862
▁borrowers	-10.7862
▁membership	-10.7868
▁rigid	-10.7875
▁Analysis	-10.7879
▁struck	-10.7881
▁variable	-10.7883
▁initiative	-10.7884
▁alliance	-10.7884
ful	-10.7887
▁wild	-10.7888
▁psychology	-10.789
▁1960	-10.7891
▁noble	-10.7895
▁conducted	-10.7896
▁diminished	-10.7897
▁unity	-10.7899
▁sin	-10.7901
▁dictatorship	-10.7902
▁repeal	-10.7902
▁hostile	-10.7903
▁earning	-10.7906
▁poorer	-10.7907
▁Ages	-10.791
▁defeated	-10.7912
▁acted	-10.7912
▁female	-10.7922
▁Third	-10.7924
▁resolution	-10.7931
▁bitter	-10.7931
▁stabilization	-10.7934
▁slight	-10.7936
▁abolish	-10.7936
▁survival	-10.7944
▁grand	-10.7945
▁Competition	-10.7949
▁genius	-10.7949
▁fallacies	-10.795
▁inclined	-10.7951
▁mistaken	-10.7953
▁youth	-10.7957
▁francs	-10.7957
▁Block	-10.7961
▁gas	-10.7961
▁neglect	-10.7965
▁privately	-10.7968
▁via	-10.7973
29	-10.7979
▁design	-10.798
▁teach	-10.7983
▁blind	-10.799
▁realistic	-10.799
▁23	-10.7991
▁unjust	-10.7991
▁headed	-10.8001
▁Mussolini	-10.8004
▁diminishing	-10.8004
▁settle	-10.8007
▁injustice	-10.8021
▁shifted	-10.8022
26	-10.803
▁thinkers	-10.8038
▁southern	-10.8042
▁complementary	-10.8043
▁civilized	-10.8047
ra	-10.8047
▁hired	-10.8049
▁26	-10.8053
▁adjusted	-10.8054
▁Anglo	-10.8061
▁buys	-10.8062
▁personally	-10.8063
▁distance	-10.8063
▁plenty	-10.8064
▁insights	-10.807
▁Nothing	-10.8071
▁Archive	-10.8073
▁integrity	-10.8074
January	-10.8075
la	-10.8075
▁Salerno	-10.8076
▁identified	-10.8078
▁deprived	-10.8082
▁concludes	-10.8085
▁River	-10.809
▁classic	-10.8093
▁comment	-10.8094
public	-10.8099
October	-10.8099
▁ratios	-10.8102
▁bourgeois	-10.8105
—“	-10.8107
istic	-10.8111
November	-10.8112
▁venture	-10.8112
versus	-10.8114
org	-10.8118
31	-10.8121
▁merit	-10.8123
27	-10.8125
According	-10.8133
▁northern	-10.8136
September	-10.8136
▁steadily	-10.8137
▁kill	-10.8141
▁frequent	-10.8142
▁describes	-10.8143
▁mutually	-10.8157
investment	-10.8158
▁coinage	-10.8162
this	-10.8165
ent	-10.8165
▁Crusoe	-10.8165
▁manifest	-10.8166
▁Kimmel	-10.8166
▁repeat	-10.8167
▁arose	-10.8181
▁domain	-10.8191
ma	-10.8192
▁Iraq	-10.8193
▁Papers	-10.8197
▁Locke	-10.8197
▁prestige	-10.8203
can	-10.8208
▁presidential	-10.8216
▁touch	-10.8217
▁methodological	-10.8218
▁Nazis	-10.8222
▁endeavors	-10.8226
▁Time	-10.8227
▁Illinois	-10.8227
▁obtaining	-10.8229
▁Latin	-10.8231
▁Saint	-10.8233
▁fruit	-10.8234
▁administrative	-10.8242
▁defended	-10.8242
▁Holland	-10.8243
▁1970	-10.8244
▁restraint	-10.825
▁secured	-10.8255
▁noticed	-10.8262
La	-10.8265
▁neoclassical	-10.827
▁harmful	-10.827
▁herself	-10.827
▁emerged	-10.8273
▁settlers	-10.8275
▁innovation	-10.8275
▁seq	-10.8277
▁allegedly	-10.8277
labor	-10.828
▁virtues	-10.828
▁surrender	-10.828
▁dictator	-10.8286
▁Christianity	-10.8287
ous	-10.8296
▁parallel	-10.8303
▁wartime	-10.8305
▁unlike	-10.8308
▁lesser	-10.8311
▁Hume	-10.8312
▁habits	-10.8313
▁mixed	-10.8314
▁Federalists	-10.8317
▁15,	-10.8322
▁regulated	-10.8325
▁reduces	-10.8326
▁criticized	-10.8326
▁depositors	-10.8328
▁strikes	-10.8329
▁gradual	-10.8333
goods	-10.8335
▁rival	-10.834
▁patient	-10.8355
▁Protestant	-10.8362
▁salaries	-10.8364
▁gun	-10.8365
▁vary	-10.8368
▁limitation	-10.8373
▁predict	-10.8388
▁lawyer	-10.8394
▁downward	-10.8396
▁acres	-10.8397
§	-10.8405
▁retained	-10.8407
▁ignorant	-10.8408
▁involving	-10.8409
▁proportions	-10.8411
▁hitherto	-10.8412
▁excluded	-10.8415
▁thrown	-10.8416
▁forcing	-10.8417
▁bullion	-10.8417
▁billions	-10.8421
▁Prussian	-10.8422
▁exercised	-10.8423
▁crowd	-10.8437
▁erroneous	-10.8441
▁taxpayer	-10.8444
▁anarchist	-10.8446
▁signed	-10.8447
▁Switzerland	-10.8449
De	-10.8451
▁expert	-10.8452
▁(3)	-10.8454
▁owe	-10.8456
▁shot	-10.8463
▁mainstream	-10.8466
▁collected	-10.8477
▁bureaucratic	-10.8477
▁transformation	-10.8477
▁Stock	-10.8481
▁warehouse	-10.8481
▁substitution	-10.8481
▁Harry	-10.8485
▁universities	-10.8485
ad	-10.8486
40	-10.849
▁con	-10.8496
▁Liberal	-10.8499
▁transport	-10.8504
▁debtor	-10.8509
▁myth	-10.8511
▁fraction	-10.8516
ce	-10.8521
▁Philosophy	-10.8522
▁Affairs	-10.8522
▁image	-10.8524
preference	-10.8526
▁holders	-10.8534
▁Age	-10.8536
▁partner	-10.8536
▁accurate	-10.8537
▁reprinted	-10.8538
▁allies	-10.8541
ting	-10.8542
▁integration	-10.8551
▁indicates	-10.8553
▁sun	-10.8553
▁telling	-10.8553
▁preventing	-10.8557
▁Auburn	-10.8557
▁gap	-10.8558
▁bubble	-10.856
▁independently	-10.8565
▁triumph	-10.8566
▁Will	-10.8568
▁inefficient	-10.8569
▁travel	-10.8572
▁lasting	-10.8575
Keynes	-10.8577
▁Unfortunately	-10.8579
▁selection	-10.858
▁differently	-10.8583
▁imposing	-10.8585
▁district	-10.859
▁belongs	-10.8592
▁enthusiasm	-10.8595
▁blow	-10.86
▁substantially	-10.8603
▁21	-10.8611
▁Rhode	-10.8615
▁1933,	-10.8619
▁generated	-10.8623
▁automobile	-10.8624
▁los	-10.8625
▁tobacco	-10.8628
ul	-10.8634
▁educational	-10.864
▁tied	-10.8641
▁audience	-10.8654
▁skills	-10.8654
▁12,	-10.8656
▁occupations	-10.8663
Washington	-10.8669
▁fallacious	-10.867
▁drawing	-10.867
▁22	-10.8673
▁arising	-10.8676
▁abuse	-10.8686
capital	-10.8687
▁varying	-10.8691
▁Cantillon	-10.8697
▁wider	-10.8697
▁separation	-10.8699
▁Tucker	-10.8701
▁certificates	-10.8703
▁isn	-10.8706
▁fault	-10.8708
▁fatal	-10.8709
▁emphasize	-10.8709
▁literally	-10.8711
▁stream	-10.8712
▁helps	-10.8713
▁failures	-10.872
▁borrower	-10.872
▁panic	-10.8722
▁attributed	-10.8723
▁custom	-10.8723
▁cutting	-10.8725
▁disregard	-10.8729
▁answers	-10.8731
▁el	-10.8734
▁sells	-10.8736
▁homogeneous	-10.874
▁dangers	-10.8743
▁Georgia	-10.8743
▁trans	-10.8743
33	-10.8744
▁analogy	-10.8745
▁abundant	-10.8745
▁dinner	-10.8755
▁attractive	-10.8756
▁communities	-10.8757
Cambridge	-10.876
▁household	-10.8763
▁fifteen	-10.8768
▁minutes	-10.8769
▁Texas	-10.8771
▁firmly	-10.8771
will	-10.8773
▁suspect	-10.8779
▁attempting	-10.8781
▁fixing	-10.8788
national	-10.8791
▁onto	-10.88
▁customary	-10.8807
▁10,	-10.8809
▁outright	-10.8812
▁remarked	-10.8812
▁fill	-10.8814
▁treatise	-10.8818
▁traders	-10.8823
▁circles	-10.8824
power	-10.8827
▁IV	-10.8827
▁Crown	-10.8828
▁kings	-10.8832
▁ruin	-10.8834
▁convenient	-10.884
▁MS	-10.8842
▁http	-10.8843
▁satisfying	-10.8843
▁recall	-10.8843
▁composed	-10.8846
▁embodied	-10.8849
▁circumstance	-10.8857
▁straight	-10.8859
▁partially	-10.8862
▁prison	-10.8863
▁adjustments	-10.8868
THE	-10.887
led	-10.8872
▁inspired	-10.8881
▁republic	-10.8882
▁Big	-10.8883
▁seized	-10.8887
▁lecture	-10.8888
▁definitions	-10.8889
▁beliefs	-10.8889
▁duration	-10.8896
▁weakness	-10.8896
▁irrational	-10.8908
▁devote	-10.891
▁Taft	-10.891
▁Peace	-10.8912
▁crimes	-10.8913
▁orthodox	-10.8918
▁observations	-10.8921
▁print	-10.8937
▁sexual	-10.8944
▁despotism	-10.8946
▁Be	-10.8957
▁bid	-10.8962
▁27	-10.8964
▁construct	-10.8964
▁friendly	-10.8966
▁prosperous	-10.8969
▁Jewish	-10.8969
▁liquid	-10.8974
per	-10.8985
Ludwig	-10.8986
▁techniques	-10.8986
would	-10.8986
▁disputes	-10.8987
▁measurement	-10.8988
不	-10.8991
▁playing	-10.8995
▁breaking	-10.8996
▁overwhelming	-10.9008
▁remark	-10.901
▁retail	-10.9012
▁wherever	-10.9014
▁indifference	-10.9015
minded	-10.902
▁successive	-10.9022
more	-10.9022
▁200	-10.9027
▁seventeenth	-10.9035
▁walk	-10.9042
▁Welfare	-10.9044
▁declaration	-10.9055
▁split	-10.9062
▁planners	-10.9062
▁Francisco	-10.9063
new	-10.9063
▁sit	-10.9064
▁sympathy	-10.9067
▁converted	-10.9067
just	-10.9068
▁endless	-10.9074
▁Un	-10.9075
▁currently	-10.9077
▁latest	-10.908
▁infinite	-10.9085
▁contractual	-10.9086
▁Aristotle	-10.9088
▁guns	-10.9088
▁excuse	-10.9104
▁equations	-10.9113
cost	-10.9114
▁Haven	-10.9116
▁Amendment	-10.912
▁specialized	-10.9121
▁operated	-10.9124
▁consistently	-10.9124
production	-10.9127
▁Israel	-10.9128
▁models	-10.913
而	-10.9132
July	-10.9136
▁keeps	-10.9136
▁satisfactions	-10.9139
que	-10.9139
▁Cycle	-10.9139
▁est	-10.9143
▁deeper	-10.9145
▁races	-10.9146
,"	-10.9147
▁healthy	-10.9147
▁briefly	-10.9149
▁correspondence	-10.9154
▁oppression	-10.9154
▁lectures	-10.9155
7.	-10.9158
▁functioning	-10.9158
▁specialization	-10.9159
▁employing	-10.9162
▁topic	-10.9169
▁Milton	-10.917
▁Development	-10.9173
▁evening	-10.9179
▁worthy	-10.9179
▁Century	-10.9179
▁Federalist	-10.918
37	-10.9183
▁decree	-10.919
▁link	-10.9191
▁yourself	-10.9194
▁libertarianism	-10.9197
▁divine	-10.9207
▁attract	-10.9208
ni	-10.9209
▁tree	-10.9209
▁1950	-10.9209
▁identify	-10.9211
▁imagination	-10.9212
▁mistakes	-10.9213
▁intense	-10.9216
Then	-10.9216
▁actors	-10.9218
▁replacement	-10.9222
38	-10.9223
▁native	-10.9225
▁urge	-10.9228
▁Albert	-10.9232
▁sex	-10.9236
▁contact	-10.9239
▁choosing	-10.9245
▁train	-10.9245
▁facilities	-10.9245
▁Michael	-10.9246
▁anywhere	-10.9256
▁wasn	-10.9258
▁prospective	-10.9259
▁accused	-10.9259
▁wouldn	-10.926
▁wear	-10.9262
though	-10.9263
our	-10.9267
▁Forum	-10.927
▁medicine	-10.9276
▁professors	-10.9278
▁Anti	-10.9282
▁helping	-10.9284
▁physics	-10.9284
▁terrible	-10.9285
August	-10.9286
▁outlook	-10.9286
▁Lee	-10.9287
▁prevails	-10.929
▁manufactures	-10.9301
▁b	-10.9301
go	-10.9302
▁70	-10.9302
▁14,	-10.9303
▁crop	-10.9309
▁undertake	-10.931
▁misery	-10.9312
▁stores	-10.9313
▁Malthus	-10.9327
▁compel	-10.9328
▁mortgage	-10.9336
▁afraid	-10.9338
▁reformers	-10.934
▁ceased	-10.9344
ty	-10.935
▁outset	-10.9355
▁arts	-10.9357
▁remembered	-10.9363
▁territorial	-10.9364
▁requiring	-10.9365
▁host	-10.9367
▁permits	-10.9367
▁manage	-10.937
ig	-10.9376
▁lender	-10.9376
▁Misesian	-10.9377
▁acceptable	-10.9384
▁criticisms	-10.9384
▁bargain	-10.9386
▁similarly	-10.9392
▁Alfred	-10.9394
▁devices	-10.9396
▁clothes	-10.9402
▁physically	-10.9403
▁illustrate	-10.9403
▁Later	-10.9404
February	-10.9411
▁visit	-10.9416
▁praise	-10.9418
▁separated	-10.9419
▁supporting	-10.9421
▁altered	-10.9426
non	-10.9427
▁Statistics	-10.9431
▁confronted	-10.9433
▁gifts	-10.9437
▁reveals	-10.944
▁landed	-10.9441
▁pointing	-10.9441
▁faculty	-10.9441
▁withdraw	-10.9446
▁theme	-10.9446
▁morally	-10.945
▁Security	-10.9451
▁merits	-10.9453
▁impossibility	-10.9454
▁1933	-10.9454
▁records	-10.9458
▁Further	-10.9464
▁mechanical	-10.9468
▁Continental	-10.947
▁True	-10.9473
▁whatsoever	-10.9473
▁floor	-10.9474
”?	-10.9477
▁contain	-10.9478
▁Long	-10.9478
▁Mo	-10.948
▁network	-10.948
▁neighborhood	-10.9486
▁countless	-10.9486
▁sections	-10.9487
▁applying	-10.9491
▁regularly	-10.9492
▁cooperative	-10.9496
▁interventions	-10.9498
▁ideals	-10.9498
▁enabled	-10.9498
▁expended	-10.9512
▁Knight	-10.9513
▁winter	-10.9524
▁fiction	-10.9525
▁luxury	-10.953
▁analyze	-10.9534
▁neighbor	-10.9538
▁trip	-10.9538
▁spot	-10.9544
▁exceptions	-10.9549
▁alive	-10.955
▁clients	-10.9551
▁quo	-10.9551
▁al	-10.9559
▁cattle	-10.9564
▁representing	-10.9565
▁request	-10.9572
35	-10.9574
▁Mark	-10.9576
▁intentions	-10.9577
▁attend	-10.9579
▁proportional	-10.9582
▁charter	-10.9586
▁$3	-10.9592
▁Economists	-10.9596
▁Steel	-10.9597
level	-10.9599
▁respectively	-10.9599
▁delay	-10.96
▁Prussia	-10.9602
▁35	-10.9605
▁drew	-10.9607
▁proves	-10.9609
▁applicable	-10.9621
▁heads	-10.9625
▁Hutt	-10.9628
▁beautiful	-10.9631
ard	-10.9632
▁Spencer	-10.9633
▁Northern	-10.9634
▁ensure	-10.9635
▁generate	-10.9635
▁inadequate	-10.9637
▁Whatever	-10.964
▁surprised	-10.964
human	-10.9649
ite	-10.9651
▁island	-10.9657
▁diplomatic	-10.9672
▁rebellion	-10.9675
▁unfair	-10.9675
▁Stuart	-10.9678
▁reveal	-10.9679
▁unlikely	-10.968
▁village	-10.9681
what	-10.9687
▁combinations	-10.969
▁communication	-10.9691
▁overlooked	-10.9693
▁normally	-10.9695
8.	-10.97
▁Planning	-10.9701
▁Randolph	-10.9706
▁solid	-10.9707
▁speaks	-10.971
▁correspond	-10.9711
▁penalty	-10.9713
www	-10.9717
sch	-10.972
▁organize	-10.9722
▁Reprinted	-10.9724
▁cyclical	-10.9725
▁$2	-10.9725
▁metallic	-10.9729
▁Scottish	-10.9732
▁Mexico	-10.9736
▁consisted	-10.9738
▁chooses	-10.9742
一	-10.9745
▁significantly	-10.9745
▁dis	-10.9745
▁drugs	-10.9752
▁disappeared	-10.9754
▁consequent	-10.9755
ta	-10.976
▁$100	-10.9762
▁Max	-10.9769
▁masters	-10.977
▁mill	-10.9775
▁global	-10.9777
▁color	-10.9777
▁combat	-10.979
▁African	-10.9791
▁75	-10.9795
▁option	-10.98
▁postwar	-10.9802
▁lowered	-10.9805
▁crash	-10.9807
Human	-10.9811
▁nonsense	-10.9815
▁obey	-10.9827
ro	-10.9828
32	-10.9828
▁calculate	-10.983
▁experiments	-10.9846
ance	-10.9846
▁governing	-10.985
ine	-10.985
▁controlling	-10.9852
▁flat	-10.9855
▁Communists	-10.9858
income	-10.986
▁broader	-10.986
▁sat	-10.9868
▁cloth	-10.9871
▁Certainly	-10.9875
▁propensity	-10.9878
ci	-10.9882
▁Don	-10.9882
▁taxed	-10.9883
▁Controversies	-10.9884
▁dedicated	-10.9884
has	-10.9899
▁nationalist	-10.99
▁launched	-10.99
▁sacrifices	-10.9905
▁super	-10.9912
▁scales	-10.992
▁aristocracy	-10.9922
▁furthermore	-10.9929
▁1980	-10.9938
▁remuneration	-10.994
▁permission	-10.9941
▁Irish	-10.9944
▁subjected	-10.9947
▁reflects	-10.9948
▁eternal	-10.995
▁1914	-10.9955
▁proclaimed	-10.9956
▁route	-10.9964
▁convince	-10.9965
43	-10.9965
▁x	-10.9966
▁Stark	-10.9967
▁Robinson	-10.9979
▁radically	-10.9984
▁peak	-10.9987
70	-10.9994
▁rural	-10.9997
▁secession	-10.9999
▁hot	-11
▁fresh	-11.0002
▁Belgium	-11.0002
Do	-11.0006
▁evidently	-11.0007
ber	-11.0009
made	-11.001
▁Jevons	-11.0013
Money	-11.0018
wide	-11.0019
▁badly	-11.002
▁abilities	-11.0025
▁Well	-11.0027
▁sentiments	-11.003
▁Ill	-11.0032
▁balanced	-11.0035
▁Geneva	-11.0038
▁wonderful	-11.0038
▁roughly	-11.0041
▁starts	-11.0046
▁Nation	-11.0054
▁salary	-11.0054
▁plunder	-11.0055
▁vols	-11.0057
▁colleagues	-11.0059
▁dozen	-11.0059
▁inconsistent	-11.0063
▁inflate	-11.0065
▁neutrality	-11.0066
▁pamphlet	-11.0066
▁shortly	-11.0067
▁$4	-11.0067
▁seldom	-11.0068
▁march	-11.007
▁achieving	-11.0073
▁Should	-11.0074
▁Would	-11.0075
▁borders	-11.008
▁utilitarian	-11.0082
▁edited	-11.0083
▁restraints	-11.009
▁constructed	-11.0092
▁atmosphere	-11.0097
▁acknowledged	-11.01
▁Catholics	-11.0102
▁quote	-11.0102
▁implicitly	-11.0103
▁parity	-11.0106
▁loses	-11.0108
▁Red	-11.0117
▁weather	-11.0119
▁doubtful	-11.0121
▁exposed	-11.0127
▁restored	-11.0132
▁psychic	-11.0132
▁Williams	-11.0139
▁acquiring	-11.014
▁cross	-11.0142
ors	-11.0144
▁insufficient	-11.0144
▁remind	-11.0146
▁guard	-11.0148
▁tomorrow	-11.0151
▁core	-11.0151
▁Z	-11.0155
▁creditor	-11.0158
▁bears	-11.0159
▁somewhere	-11.0162
▁convertibility	-11.0163
▁province	-11.0178
▁deliberate	-11.0179
▁signs	-11.0179
▁planes	-11.0182
▁trees	-11.0182
ley	-11.0182
▁entity	-11.0183
▁introduce	-11.0184
▁exert	-11.0188
bank	-11.0189
36	-11.019
▁Francis	-11.019
lo	-11.0194
▁Problem	-11.0195
▁composition	-11.0198
▁usefulness	-11.0205
▁document	-11.0211
▁slightest	-11.0213
▁county	-11.0215
▁mission	-11.0223
▁witness	-11.0223
Auburn	-11.0228
▁trace	-11.0232
▁commit	-11.0235
▁hidden	-11.0241
▁versa	-11.0242
ge	-11.0244
▁statesmen	-11.0247
▁insofar	-11.0254
▁specified	-11.0254
▁29	-11.0258
▁quiet	-11.0259
Paris	-11.0261
▁laborer	-11.0263
▁prevailed	-11.0263
39	-11.0263
▁incapable	-11.0266
▁impulse	-11.0266
▁diminish	-11.0266
ating	-11.0266
▁mining	-11.0267
▁television	-11.027
▁Green	-11.0277
evident	-11.0286
▁visible	-11.0286
▁accustomed	-11.0288
▁servants	-11.029
▁copy	-11.0291
▁attribute	-11.0293
▁crude	-11.0294
▁invented	-11.0296
▁theorist	-11.0296
▁passion	-11.0296
▁$10	-11.0297
▁Polish	-11.0298
46	-11.0299
▁hostility	-11.03
▁pace	-11.0301
id	-11.0301
▁convert	-11.0302
▁appropriation	-11.0302
▁manufactured	-11.0304
80	-11.0305
▁biological	-11.031
au	-11.031
▁grows	-11.0312
▁Figure	-11.0316
▁Lachmann	-11.0317
▁ruler	-11.0324
line	-11.0334
▁perfection	-11.0341
▁richer	-11.0342
▁pride	-11.0345
▁dividends	-11.035
▁contend	-11.0353
▁respond	-11.0355
▁instant	-11.0355
ti	-11.0355
▁maximize	-11.0368
▁16,	-11.0369
▁directors	-11.037
▁predicted	-11.0379
▁memory	-11.038
▁wood	-11.038
▁moves	-11.0384
▁amendment	-11.0384
▁Allen	-11.0385
Is	-11.0389
▁occasionally	-11.0391
▁objectives	-11.0395
▁systematically	-11.0403
▁meaningful	-11.0405
▁attracted	-11.0408
rates	-11.041
▁cf	-11.0411
▁Corporation	-11.0413
▁midst	-11.0419
▁Financial	-11.042
▁execution	-11.042
▁defending	-11.0424
▁racial	-11.0425
▁secular	-11.043
▁scientist	-11.0431
▁sending	-11.0437
42	-11.0442
▁automatic	-11.0448
▁explanations	-11.0449
▁proletariat	-11.0451
▁subsidy	-11.0452
▁perpetual	-11.0455
▁chair	-11.0461
▁prince	-11.0462
▁removal	-11.0462
▁elementary	-11.0463
▁Stimson	-11.0465
▁meaningless	-11.0468
▁les	-11.047
whether	-11.0475
▁Socialists	-11.0476
▁methodology	-11.0478
▁renders	-11.0481
▁examined	-11.0482
▁Employment	-11.0487
▁premises	-11.0489
.*	-11.0493
v	-11.0501
▁concentrated	-11.0501
▁brokers	-11.0503
▁futile	-11.0507
▁envy	-11.0507
▁please	-11.0508
▁accepting	-11.051
▁sociology	-11.0513
▁exclude	-11.0515
▁meetings	-11.0521
▁“[	-11.0524
▁viz	-11.0524
▁Freeman	-11.0525
▁appreciate	-11.0526
▁quotas	-11.0528
▁dilemma	-11.0528
Only	-11.0529
▁nuclear	-11.0532
im	-11.0535
▁viewpoint	-11.0536
▁refusal	-11.0537
Despite	-11.0537
▁cuts	-11.0538
▁integrated	-11.0539
his	-11.0554
▁indefinitely	-11.0559
▁Anderson	-11.0566
•	-11.0567
▁discounted	-11.0575
ship	-11.0577
▁militia	-11.0578
▁frame	-11.0579
▁formulation	-11.0583
▁owing	-11.0584
▁peasants	-11.0584
「	-11.0587
▁worry	-11.0588
Well	-11.0591
▁Ireland	-11.0593
於	-11.0595
▁entering	-11.0596
▁unprecedented	-11.0597
▁empty	-11.0597
▁liable	-11.0597
▁sixty	-11.0597
▁bigger	-11.0597
▁neo	-11.0609
▁Progressive	-11.0612
tax	-11.0616
▁30,	-11.0618
▁feared	-11.062
▁severely	-11.0621
▁unusual	-11.0623
▁collect	-11.0625
▁lenders	-11.0627
44	-11.0627
▁baby	-11.0629
▁*	-11.063
ke	-11.063
Boston	-11.0632
Moreover	-11.0632
ü	-11.0637
▁Reagan	-11.064
▁loose	-11.064
▁1940	-11.0644
▁failing	-11.0645
▁selfish	-11.0645
▁affects	-11.0647
▁clearing	-11.0647
34	-11.0648
▁inventions	-11.0649
▁attorney	-11.0655
▁horses	-11.0661
▁Does	-11.0666
▁disposition	-11.067
▁bar	-11.0679
▁critic	-11.0682
▁promoting	-11.0685
▁somebody	-11.0689
▁hated	-11.0694
Though	-11.0696
ö	-11.0698
▁champions	-11.0699
▁velocity	-11.0702
▁restoration	-11.0703
▁decides	-11.071
▁continuously	-11.071
▁Woods	-11.0716
▁opponent	-11.0717
▁younger	-11.0719
這	-11.0721
▁seize	-11.0729
▁multiple	-11.0729
▁journal	-11.073
ey	-11.0732
under	-11.0733
▁restricting	-11.0735
▁Keynesians	-11.0737
German	-11.0743
▁authoritarian	-11.0745
▁tastes	-11.0747
▁multitude	-11.0748
▁injury	-11.0748
▁possesses	-11.0752
▁lawyers	-11.0755
▁shut	-11.0758
▁interpret	-11.076
▁backward	-11.0763
War	-11.0764
have	-11.0764
▁Hampshire	-11.0764
▁deliver	-11.0764
▁located	-11.0765
▁highway	-11.0766
▁Reform	-11.077
▁contradictory	-11.0774
▁(17	-11.0776
與	-11.0778
▁socially	-11.0778
時	-11.0778
人	-11.078
▁bankrupt	-11.0782
▁assure	-11.0782
60	-11.0785
▁arm	-11.0791
▁riches	-11.0793
▁dismissed	-11.0798
▁marketplace	-11.0798
▁ease	-11.0801
▁Crisis	-11.0819
▁Her	-11.082
▁maintains	-11.082
▁asks	-11.0826
▁recommend	-11.0828
▁Paper	-11.083
▁axiom	-11.0831
gold	-11.0832
▁protecting	-11.0832
▁18,	-11.0837
Professor	-11.084
▁recourse	-11.0841
She	-11.0851
▁medieval	-11.0852
▁absorbed	-11.0853
▁remainder	-11.0857
▁Mississippi	-11.0859
▁demonstration	-11.0862
use	-11.0862
▁survey	-11.0864
▁demonstrates	-11.0865
▁directions	-11.0866
▁treasury	-11.0869
▁Good	-11.0871
▁energies	-11.0872
▁trades	-11.0882
▁$5	-11.0884
▁walked	-11.0893
▁associate	-11.0899
▁pressures	-11.0901
▁foremost	-11.0903
▁2.	-11.0904
▁Mary	-11.0904
Un	-11.0904
▁isolation	-11.0909
▁preserved	-11.0912
▁Luther	-11.0914
political	-11.0915
▁investigations	-11.0915
▁Admiral	-11.0915
▁plane	-11.0916
▁Tax	-11.0916
▁28,	-11.0917
ted	-11.0918
▁footnote	-11.0919
Die	-11.0919
▁session	-11.0919
▁jurisdiction	-11.092
▁jail	-11.092
▁disturbances	-11.0922
▁imperial	-11.0924
▁govern	-11.0934
▁rejection	-11.0935
▁accord	-11.0936
▁17,	-11.0939
▁fears	-11.0939
▁Russians	-11.0947
▁intensity	-11.095
productive	-11.0951
▁incident	-11.0953
io	-11.0955
▁chances	-11.0962
▁Strong	-11.0964
▁immoral	-11.0967
▁foregoing	-11.0967
▁appreciation	-11.097
▁Fetter	-11.0972
▁computer	-11.0975
▁alcohol	-11.0976
▁hair	-11.0978
▁prefers	-11.0978
▁jury	-11.0981
two	-11.0987
▁cartels	-11.0991
▁exploit	-11.0992
▁perceive	-11.0993
▁devotion	-11.0996
▁willingness	-11.1003
▁elimination	-11.1006
▁killing	-11.1008
▁leftist	-11.1009
▁evenly	-11.101
▁climate	-11.101
▁destined	-11.1012
▁faculties	-11.1012
▁popularity	-11.1016
▁talked	-11.1017
▁weapon	-11.1017
47	-11.1022
▁vested	-11.1023
relating	-11.1028
▁prohibit	-11.1029
▁sister	-11.103
▁deemed	-11.1031
▁trained	-11.1031
▁depending	-11.1032
▁Given	-11.1035
▁cry	-11.1036
▁1946	-11.1042
▁shifting	-11.1043
▁creed	-11.1045
▁demanding	-11.1048
▁welcome	-11.1051
▁fortunes	-11.1053
▁patterns	-11.1054
▁pleasures	-11.1056
▁Over	-11.1056
▁FDR	-11.1059
▁supremacy	-11.1059
▁vs	-11.1066
▁flexible	-11.107
▁Emperor	-11.1072
▁anticipate	-11.1073
▁Black	-11.1073
▁presentation	-11.1079
when	-11.1079
9.	-11.1079
▁superficial	-11.1081
hand	-11.1083
▁stimulate	-11.1088
▁confirmed	-11.1094
▁pursuing	-11.1097
▁revival	-11.1099
▁incorporated	-11.1103
▁Kingdom	-11.1103
63	-11.1103
▁Rand	-11.1104
▁arbitrarily	-11.1104
▁catch	-11.1104
▁contempt	-11.1107
▁liability	-11.1107
▁founder	-11.1107
dis	-11.1115
▁restrictive	-11.1116
▁Jay	-11.1116
ex	-11.1116
▁north	-11.1122
ten	-11.1126
▁Obviously	-11.1129
▁motivated	-11.1129
▁counted	-11.1131
▁economical	-11.1132
▁butter	-11.1135
na	-11.1137
▁Hawaii	-11.1141
▁Kentucky	-11.1145
▁skilled	-11.1154
▁equity	-11.1157
only	-11.1157
▁congressional	-11.1162
▁Case	-11.1162
▁passive	-11.1172
▁stockholders	-11.1172
world	-11.1175
▁assault	-11.1175
▁display	-11.1175
▁Tory	-11.1176
▁attended	-11.1176
▁file	-11.1179
▁proprietors	-11.1181
▁wind	-11.1183
▁angry	-11.1186
▁utmost	-11.1186
▁border	-11.1186
▁cabinet	-11.1186
▁compatible	-11.1188
▁Sunday	-11.1189
▁favour	-11.1189
▁accurately	-11.1191
▁scholar	-11.1192
48	-11.1195
▁28	-11.1196
▁disequilibrium	-11.1204
▁revolt	-11.1211
▁Bentham	-11.1213
▁sequence	-11.1213
▁utilization	-11.1219
IN	-11.122
▁enormously	-11.1232
▁dispose	-11.1233
▁notable	-11.1234
▁cultivation	-11.1234
▁exploited	-11.1237
▁basically	-11.1238
▁analyzed	-11.1239
▁plausible	-11.1242
▁nearer	-11.1243
▁fulfill	-11.1247
▁prospects	-11.1247
▁20,	-11.1247
▁feasible	-11.1251
▁Greece	-11.1251
▁historically	-11.1253
▁Surely	-11.1254
▁capita	-11.1256
▁Fort	-11.1258
▁shorter	-11.1259
▁modest	-11.1266
▁instinct	-11.1268
▁released	-11.127
▁clean	-11.1271
▁differs	-11.1279
▁absent	-11.1282
▁deposited	-11.1288
▁1933.	-11.1289
▁Ricardian	-11.1291
▁inheritance	-11.1291
▁addressed	-11.1292
misunderstanding	-11.1293
41	-11.1295
▁halt	-11.1297
▁elastic	-11.1298
▁Study	-11.1298
▁suffice	-11.1298
▁ideologies	-11.1299
▁incurred	-11.1299
▁soldier	-11.1302
▁1941,	-11.1309
用	-11.131
▁Ka	-11.1312
▁eggs	-11.1315
▁thanks	-11.1318
▁linked	-11.1322
中	-11.1322
▁destroying	-11.1325
▁approaches	-11.1326
▁volumes	-11.1327
▁foot	-11.1328
▁sustained	-11.1328
▁comprehend	-11.1329
▁Treaty	-11.133
▁21,	-11.1331
▁truths	-11.1333
Perhaps	-11.1337
▁prevents	-11.1342
▁attitudes	-11.1344
▁corrupt	-11.1347
▁west	-11.135
▁reasonably	-11.1363
▁succession	-11.1367
ably	-11.1371
▁undertaking	-11.1371
Princeton	-11.1371
▁Works	-11.1385
▁nationalists	-11.1388
▁handed	-11.1389
▁stamp	-11.1391
▁prepare	-11.1392
▁opposing	-11.1397
▁worship	-11.1399
▁Napoleon	-11.14
▁expedient	-11.1401
▁champion	-11.1403
▁expropriation	-11.1404
some	-11.1405
[1]	-11.1405
▁Owen	-11.1409
▁pick	-11.1414
▁outbreak	-11.1414
▁impressed	-11.1415
▁thin	-11.1418
▁egalitarian	-11.1418
▁Eisenhower	-11.1422
ol	-11.1424
▁endowed	-11.1425
▁sophisticated	-11.1429
▁square	-11.1433
▁o	-11.1435
▁dramatic	-11.1441
▁river	-11.1442
▁1935.	-11.1442
美	-11.1444
▁acknowledge	-11.1445
half	-11.1447
▁virtual	-11.1452
▁thorough	-11.1453
▁farther	-11.1463
▁attributes	-11.1467
▁farms	-11.1471
Those	-11.1474
▁deprive	-11.1474
▁1990	-11.1476
field	-11.1478
▁criteria	-11.1478
▁shipping	-11.1479
▁participate	-11.1479
▁documents	-11.1484
vis	-11.1491
▁1890	-11.1496
▁gathered	-11.1498
▁Hopkins	-11.1499
▁Ch	-11.15
where	-11.15
les	-11.1505
▁improving	-11.151
▁Despite	-11.1511
▁1937.	-11.1516
▁participation	-11.1516
con	-11.1518
Yes	-11.1528
▁45	-11.153
▁Natural	-11.1537
▁withdrawn	-11.1538
▁imagined	-11.1539
▁compensate	-11.1541
seeking	-11.1543
▁13,	-11.1544
▁loaned	-11.1544
▁combine	-11.1546
▁centers	-11.155
▁window	-11.155
▁Chamber	-11.1551
▁Acton	-11.1556
▁enters	-11.1559
democratic	-11.1561
▁presupposes	-11.1582
▁suspension	-11.1582
▁structures	-11.1584
▁sheer	-11.159
▁disadvantage	-11.1593
▁Gordon	-11.1595
ka	-11.1596
▁distress	-11.1596
▁wave	-11.1597
▁Relations	-11.1599
▁redeemable	-11.1602
▁sick	-11.1607
▁presidency	-11.1607
▁drastic	-11.1611
▁interpersonal	-11.1611
▁eastern	-11.1613
▁instruction	-11.1617
▁lent	-11.1618
▁protectionism	-11.1627
▁busy	-11.1629
▁studying	-11.1633
▁provinces	-11.1634
▁judged	-11.1642
▁helpful	-11.1643
given	-11.1644
▁navy	-11.1644
▁Clearly	-11.1645
▁tiny	-11.1645
monetary	-11.1646
▁uniformity	-11.1646
45	-11.1651
▁stories	-11.1659
51	-11.166
except	-11.166
▁affair	-11.1665
▁owns	-11.1665
▁temptation	-11.1668
▁supplying	-11.1671
▁150	-11.1671
▁radicals	-11.1673
da	-11.1674
▁immigrants	-11.1674
her	-11.1676
▁inability	-11.1679
▁hate	-11.168
▁Bismarck	-11.1681
▁liked	-11.1686
full	-11.1686
▁Years	-11.1704
▁ancestors	-11.1709
▁workmen	-11.1713
▁encounter	-11.1713
▁Income	-11.1714
▁Labour	-11.1715
▁resolved	-11.1715
▁chronic	-11.1715
▁Samuelson	-11.1719
▁Lawrence	-11.172
▁striving	-11.1725
▁tribes	-11.1732
▁furnished	-11.1734
▁declares	-11.1734
▁vehicle	-11.1735
▁obstacle	-11.1735
because	-11.1736
demand	-11.1737
▁expressions	-11.1742
▁Norman	-11.1744
▁Andrew	-11.1747
▁taxing	-11.1747
cf	-11.175
出	-11.1753
▁Inc	-11.1757
▁Swiss	-11.176
▁Problems	-11.1763
▁criminals	-11.1764
▁exhausted	-11.1764
▁Little	-11.1772
▁arranged	-11.1774
let	-11.1774
ri	-11.1774
▁Chief	-11.1776
.10	-11.1779
▁levied	-11.1779
▁Hegel	-11.1782
ius	-11.1782
pre	-11.1784
▁spoken	-11.1787
▁orientation	-11.1788
▁shock	-11.179
▁25,	-11.1791
▁corollary	-11.1796
▁procedures	-11.1798
▁invited	-11.1798
were	-11.1803
▁operates	-11.1805
▁flight	-11.1805
▁corresponds	-11.1807
▁arguing	-11.1807
▁furnish	-11.1813
▁winning	-11.1814
der	-11.1814
▁domination	-11.1814
▁prejudice	-11.1815
▁distinguishes	-11.1817
▁instructions	-11.1824
▁stone	-11.1827
▁obscure	-11.1827
▁rain	-11.1828
▁pains	-11.1832
▁organic	-11.1834
▁contradict	-11.1835
▁Grove	-11.1837
▁rivals	-11.1838
▁inputs	-11.1839
▁obedience	-11.184
▁endeavor	-11.1842
▁formulated	-11.1842
▁station	-11.1842
56	-11.1844
▁vicious	-11.1846
▁Wagner	-11.1847
▁Roger	-11.1853
▁seminar	-11.1853
den	-11.1855
ible	-11.1855
▁emotional	-11.1856
▁educated	-11.1867
▁doubtless	-11.1868
▁boss	-11.1874
▁fascism	-11.1875
▁suspicion	-11.1877
▁deserves	-11.1878
▁passages	-11.1878
▁Defense	-11.1879
▁depreciated	-11.189
▁bourgeoisie	-11.189
▁initially	-11.189
▁disposed	-11.1892
▁persuade	-11.1892
▁Prince	-11.1897
為	-11.1898
▁graduate	-11.1898
▁unsatisfactory	-11.1899
▁loved	-11.1899
▁oneself	-11.1899
▁efficiently	-11.19
▁shelter	-11.19
▁3.	-11.1902
▁traced	-11.1903
▁convertible	-11.1905
▁1931	-11.1905
▁ch	-11.1913
Two	-11.1914
▁deciding	-11.1916
▁Frederick	-11.1918
▁tickets	-11.1923
▁refrain	-11.1928
▁mighty	-11.1929
well	-11.1929
▁sleep	-11.1929
49	-11.1931
▁magazine	-11.1931
▁1932,	-11.1933
Libertarian	-11.1933
▁assembly	-11.1933
scientific	-11.1933
▁Publishers	-11.1933
▁Senior	-11.1934
▁19,	-11.1934
op	-11.1939
▁recognizes	-11.1944
▁observer	-11.1945
▁drink	-11.195
▁admission	-11.195
▁council	-11.1954
▁Wicksell	-11.1957
▁target	-11.1959
▁continual	-11.1964
▁brain	-11.1964
▁assurance	-11.1965
ownership	-11.1967
▁publicly	-11.1968
▁unused	-11.1968
–17	-11.1968
▁seat	-11.1969
▁labourers	-11.197
▁na	-11.1972
▁districts	-11.1972
▁Industry	-11.1975
▁messages	-11.1976
▁classification	-11.1978
▁geographical	-11.1982
▁26,	-11.1982
▁unequal	-11.1982
Each	-11.1987
▁authorized	-11.1988
▁sanctions	-11.1988
▁Irving	-11.199
▁speeches	-11.1992
▁hotel	-11.1994
▁input	-11.1997
▁consisting	-11.1998
▁Florida	-11.2003
▁delivery	-11.2005
▁1880	-11.2005
▁arrested	-11.2006
▁Rousseau	-11.2011
▁amounted	-11.2016
▁treaties	-11.202
▁wall	-11.2029
▁anyway	-11.2037
▁absurdity	-11.2039
[2]	-11.2039
▁fulfilled	-11.2043
▁component	-11.2047
▁shifts	-11.2047
work	-11.205
▁amazing	-11.2051
▁engaging	-11.2054
▁aiming	-11.2055
▁complain	-11.2061
pe	-11.2064
ip	-11.2064
▁interaction	-11.2064
▁placing	-11.2073
▁dress	-11.2074
▁behave	-11.2075
▁ocean	-11.2076
▁ending	-11.2076
▁frontier	-11.2078
▁Early	-11.2079
▁admits	-11.2079
▁proponents	-11.2081
▁inherently	-11.2083
▁Pareto	-11.2084
▁believing	-11.2089
▁29,	-11.209
▁generous	-11.2094
▁ticket	-11.2095
▁1870	-11.2098
▁substituted	-11.2101
▁residents	-11.2107
▁freight	-11.2107
▁glance	-11.2107
▁varied	-11.2107
▁asserts	-11.211
▁mysterious	-11.211
berg	-11.211
▁nobility	-11.211
based	-11.2112
▁accumulate	-11.2113
Furthermore	-11.2114
▁trends	-11.2115
▁reign	-11.2116
▁promoted	-11.2118
way	-11.2118
▁reserved	-11.2118
▁checking	-11.2121
▁spends	-11.2123
▁emerges	-11.2123
▁describing	-11.2125
ger	-11.2126
▁block	-11.2127
dollar	-11.2129
▁threats	-11.2133
Spring	-11.2133
▁qualified	-11.2134
▁elasticity	-11.2134
▁1953	-11.2134
▁reap	-11.2135
▁Inquiry	-11.2142
▁summary	-11.2142
▁declining	-11.2142
▁drove	-11.2142
▁smooth	-11.2145
▁Mason	-11.2146
▁Congressional	-11.2149
▁Service	-11.215
▁sensible	-11.2152
▁exceptional	-11.2153
▁hearing	-11.2157
▁feels	-11.2157
▁idleness	-11.2162
▁illustrated	-11.2165
▁Era	-11.2169
▁31	-11.2172
▁AND	-11.2175
▁deflationary	-11.2177
▁conceded	-11.218
▁27,	-11.2181
▁upset	-11.2181
▁nowhere	-11.2182
▁Simon	-11.2185
▁comparable	-11.2186
▁withdrawal	-11.219
▁quota	-11.2191
▁contemporaries	-11.2195
▁submitted	-11.2195
▁transfers	-11.2197
▁persuaded	-11.2199
wage	-11.2201
▁apt	-11.2203
People	-11.2206
▁Sherman	-11.2207
▁select	-11.2208
88	-11.2213
▁parliamentary	-11.2213
▁surpluses	-11.2221
▁attach	-11.2222
▁22,	-11.2225
▁vigorous	-11.2227
▁limiting	-11.2229
▁forecast	-11.223
▁desperate	-11.2234
▁Eugen	-11.2235
▁painful	-11.2236
▁mercantilist	-11.2237
▁beauty	-11.2237
▁occupy	-11.2237
▁Whig	-11.2243
percent	-11.2244
▁doctors	-11.2247
▁associates	-11.2248
▁Hill	-11.225
▁claiming	-11.2254
▁divide	-11.2258
▁consuming	-11.2261
▁foresight	-11.2264
▁stationary	-11.2266
▁investing	-11.2273
▁depressions	-11.2273
▁presently	-11.2276
▁objected	-11.2279
▁ample	-11.2281
▁diversity	-11.2281
▁collateral	-11.2284
▁mob	-11.2291
▁passes	-11.2293
▁Wisconsin	-11.2293
anti	-11.2298
Suppose	-11.2299
▁Commons	-11.2302
▁patent	-11.2304
▁film	-11.231
▁candidates	-11.231
▁comparisons	-11.231
▁friendship	-11.2314
▁affecting	-11.2315
▁theorem	-11.2318
▁minute	-11.2319
100	-11.2325
▁roots	-11.2327
▁necessities	-11.2332
▁foolish	-11.2333
▁Marxists	-11.2333
▁Michigan	-11.2333
▁multiplied	-11.2337
▁enacted	-11.234
▁Out	-11.234
▁Economist	-11.2343
▁dependence	-11.2343
▁favors	-11.2345
▁license	-11.2345
▁Taylor	-11.2346
▁concessions	-11.2348
rent	-11.2351
▁Plato	-11.2353
ut	-11.2355
▁solutions	-11.2356
▁comfort	-11.2358
▁semi	-11.236
▁suppress	-11.2364
▁reaching	-11.2366
▁crops	-11.237
gen	-11.2371
75	-11.2371
▁unsound	-11.2372
▁equipped	-11.2376
ca	-11.2378
▁Sons	-11.2383
▁defensive	-11.2384
general	-11.239
▁extending	-11.2391
▁landowners	-11.2391
▁column	-11.2399
▁occasions	-11.2404
▁lying	-11.2404
▁Tocqueville	-11.2405
▁appointment	-11.2409
Nationalökonomie	-11.241
83	-11.2411
▁tactics	-11.2411
▁commitment	-11.2413
▁revolutions	-11.2421
▁respected	-11.2421
▁textbook	-11.2422
▁bare	-11.2427
▁prolonged	-11.243
▁indifferent	-11.2434
▁adopting	-11.2435
sided	-11.2445
▁Christ	-11.2455
▁breakdown	-11.2459
▁Scotland	-11.246
▁separately	-11.2464
▁signal	-11.2464
▁abandonment	-11.2464
▁à	-11.247
▁superfluous	-11.2471
▁insure	-11.2473
▁tribe	-11.2479
banking	-11.248
ians	-11.2481
especially	-11.2488
Without	-11.249
long	-11.2495
▁continent	-11.2497
▁comparing	-11.25
▁Note	-11.2505
▁allocate	-11.251
▁imposition	-11.2516
▁Der	-11.2519
▁promotion	-11.2523
▁Philip	-11.2526
▁lengthy	-11.2526
had	-11.2529
▁bias	-11.253
▁Railroad	-11.2532
▁Classical	-11.2533
▁recipients	-11.2534
▁VI	-11.2535
67	-11.2535
union	-11.2535
▁advocating	-11.2538
▁encouragement	-11.2538
▁1939.	-11.254
▁receipt	-11.2541
▁enthusiastic	-11.2542
▁pretend	-11.2542
▁bust	-11.2542
▁enjoys	-11.2543
▁release	-11.2547
▁1922	-11.2549
▁High	-11.2554
▁kingdom	-11.2558
▁robbery	-11.2563
ver	-11.2565
▁Much	-11.2573
▁evaluation	-11.2574
▁Vietnam	-11.2574
▁exceeds	-11.2575
▁transform	-11.2576
90	-11.2577
53	-11.2577
▁variation	-11.2577
‘	-11.2584
▁dry	-11.2584
▁hoarding	-11.2585
▁rhetoric	-11.2593
▁caste	-11.2594
▁listen	-11.2598
▁advancing	-11.2598
▁Young	-11.2608
▁decrees	-11.2608
▁minorities	-11.2611
▁boys	-11.2611
▁feed	-11.2613
ious	-11.2613
▁returning	-11.2613
▁doubts	-11.2615
▁ante	-11.2616
▁aristocratic	-11.2616
house	-11.2618
76	-11.2622
▁24,	-11.2622
third	-11.2624
.”1	-11.2625
▁hopeless	-11.2627
▁exchanging	-11.2629
▁sanction	-11.263
▁predecessors	-11.2631
▁complexity	-11.2631
▁amendments	-11.2633
▁anticipation	-11.2638
▁conform	-11.264
▁Moscow	-11.2642
▁engine	-11.2643
上	-11.2646
▁suffrage	-11.2647
▁modified	-11.2647
▁bed	-11.2649
▁borne	-11.2651
▁IN	-11.2651
▁peasant	-11.2652
▁Convention	-11.2654
▁menace	-11.2663
▁files	-11.2664
▁penalties	-11.2666
▁storm	-11.2666
▁manuscript	-11.2667
▁Day	-11.267
▁adequately	-11.2675
▁discourage	-11.2675
▁schedules	-11.2677
▁veto	-11.2678
▁estates	-11.2684
▁rotating	-11.2684
▁frankly	-11.2685
▁investigate	-11.2686
▁track	-11.269
▁cooperate	-11.2699
▁anarchism	-11.2702
▁Prime	-11.2702
▁originated	-11.2706
▁violated	-11.2706
▁decreases	-11.2707
▁Cato	-11.2709
▁im	-11.2713
▁defining	-11.2715
▁languages	-11.272
66	-11.272
▁Bo	-11.2725
▁competent	-11.2725
▁expresses	-11.2725
▁paragraph	-11.2728
▁references	-11.2729
▁Common	-11.273
▁safely	-11.2731
▁telephone	-11.2733
j	-11.2735
▁restaurant	-11.2737
▁diminution	-11.274
▁untenable	-11.274
▁flows	-11.2741
▁defects	-11.2743
▁Walker	-11.2744
▁dare	-11.2745
▁optimal	-11.2749
▁refute	-11.2752
▁decreased	-11.2754
▁attacking	-11.2754
▁fifth	-11.2755
ung	-11.2755
▁Jacob	-11.2758
▁Kelley	-11.2759
▁Nobody	-11.2759
ial	-11.2764
▁Powers	-11.2768
▁Tokyo	-11.2771
▁permissible	-11.2771
▁Allies	-11.2781
64	-11.2786
57	-11.2788
▁starvation	-11.2792
▁departments	-11.2792
ac	-11.2792
▁mobility	-11.2796
▁Center	-11.2796
Government	-11.28
iv	-11.2801
▁chemical	-11.2803
▁nowadays	-11.2804
▁Actually	-11.2805
▁reactions	-11.2805
▁1938.	-11.2808
most	-11.2811
▁strategic	-11.2812
▁stick	-11.2814
▁Royal	-11.2814
▁Chamberlain	-11.2815
▁injured	-11.2817
▁notwithstanding	-11.2818
▁Chase	-11.282
▁commander	-11.2822
▁dealers	-11.2822
個	-11.2825
▁95	-11.2825
▁consciously	-11.2828
li	-11.2831
Hermann	-11.2837
▁arbitration	-11.284
[3]	-11.284
▁maturity	-11.2843
▁suffers	-11.2844
▁Through	-11.2848
▁discretion	-11.2852
▁externalities	-11.2855
▁ministers	-11.2856
▁McKinley	-11.286
▁dear	-11.2862
▁r	-11.2867
以	-11.2868
▁earliest	-11.2871
▁agitation	-11.2872
▁suppression	-11.2872
▁happening	-11.2874
▁Augustus	-11.2875
▁forbidden	-11.2875
▁usury	-11.2877
▁coast	-11.2878
▁Colonel	-11.2879
▁salvation	-11.2879
▁variables	-11.2886
▁inflated	-11.2887
▁scholarly	-11.2895
▁dignity	-11.2896
▁blue	-11.29
▁analogous	-11.2901
▁south	-11.2906
say	-11.2908
▁Nixon	-11.2909
▁tone	-11.2909
▁embrace	-11.2913
▁princes	-11.2914
▁rewards	-11.2918
▁availability	-11.2926
55	-11.2935
▁ice	-11.2935
▁Within	-11.2936
▁parent	-11.2939
▁thereafter	-11.294
▁tribute	-11.294
▁epistemological	-11.294
▁resorted	-11.2944
▁refutation	-11.2947
▁imperfect	-11.2947
▁Joint	-11.2947
▁anarchy	-11.2953
▁4.	-11.2954
▁condemn	-11.2955
▁stimulus	-11.2957
private	-11.2957
Nor	-11.2959
order	-11.2959
▁reparations	-11.2963
saving	-11.2964
▁club	-11.2964
▁brand	-11.2964
▁swept	-11.2967
▁securing	-11.2967
▁disintegration	-11.2967
▁disturbing	-11.2972
▁mouth	-11.2974
▁faces	-11.2978
po	-11.2981
▁contest	-11.2982
▁Sense	-11.2986
▁initiated	-11.2988
▁driver	-11.2991
mo	-11.2996
▁di	-11.2997
▁joy	-11.2997
▁sixteenth	-11.3001
▁conversion	-11.3001
▁Gustav	-11.3005
▁Routledge	-11.3005
▁Indies	-11.3005
▁insists	-11.3006
▁disturbed	-11.3008
▁churches	-11.301
▁label	-11.301
▁reversed	-11.3014
▁guilt	-11.3016
four	-11.3017
▁restrain	-11.3021
▁preparation	-11.3024
▁clarity	-11.3024
▁carries	-11.3024
▁termed	-11.3027
▁exported	-11.3027
89	-11.303
▁eating	-11.3031
▁innovations	-11.3033
ham	-11.3036
▁Knox	-11.3038
▁violate	-11.3039
▁payable	-11.3042
▁perception	-11.3043
▁inherited	-11.3045
▁Besides	-11.3053
▁tea	-11.3053
▁Others	-11.3053
Second	-11.3053
▁shortages	-11.3057
▁assessment	-11.3058
▁1929,	-11.3062
▁guidance	-11.3062
▁editorial	-11.3063
▁Jean	-11.3063
▁organism	-11.3066
▁militarism	-11.3074
▁alert	-11.3078
▁1921	-11.3086
▁confiscation	-11.3089
▁cumulative	-11.3092
▁Enterprise	-11.3095
▁usage	-11.3096
▁Kansas	-11.3098
trade	-11.3099
marginal	-11.3099
▁Everyone	-11.3102
▁communists	-11.311
▁unavoidable	-11.3111
▁conservatism	-11.3112
▁denial	-11.3113
▁1923	-11.3114
▁predictions	-11.3117
▁elaborated	-11.3117
▁suspended	-11.3125
▁Utility	-11.3128
ibid	-11.3129
▁individualist	-11.3129
▁doubled	-11.3133
▁Daniel	-11.3138
72	-11.3144
▁codes	-11.3149
▁Theorie	-11.3162
▁grade	-11.3162
originary	-11.3163
my	-11.3163
▁centralization	-11.3165
▁rough	-11.3166
▁23,	-11.3168
More	-11.3169
▁Lewis	-11.3171
▁sounds	-11.3171
▁boycott	-11.3174
mon	-11.3175
▁silence	-11.3175
▁innumerable	-11.3182
▁relieve	-11.3183
▁sustain	-11.3184
▁Sea	-11.3194
或	-11.3197
▁Wilhelm	-11.3197
▁Goods	-11.32
▁fellows	-11.3205
▁municipal	-11.3206
how	-11.3207
▁possessions	-11.3211
▁unexpected	-11.3214
vo	-11.3215
▁identity	-11.3215
▁Bretton	-11.3218
▁refusing	-11.3218
▁artist	-11.3219
61	-11.3219
▁rationally	-11.3219
▁magic	-11.3223
▁counterfeiting	-11.3223
▁reaches	-11.3225
▁contradictions	-11.3235
▁strive	-11.3235
▁tide	-11.3249
▁urging	-11.3249
▁500	-11.325
▁advised	-11.3251
▁sacred	-11.3256
▁unwilling	-11.3256
▁pushing	-11.3257
▁organizing	-11.3257
▁conditioned	-11.3257
▁react	-11.3261
▁drinking	-11.3269
▁subsidized	-11.3273
▁facilitate	-11.3274
▁coalition	-11.3278
▁regularity	-11.3279
▁reluctant	-11.3279
▁textbooks	-11.3282
▁connections	-11.3283
▁fraudulent	-11.3285
▁economizing	-11.3288
▁facto	-11.3289
到	-11.329
▁farming	-11.329
▁questioned	-11.3291
▁subsidize	-11.3295
▁whereby	-11.3299
then	-11.3301
▁regional	-11.3304
▁Yeager	-11.3308
ator	-11.3317
▁romantic	-11.3317
▁turnover	-11.332
▁meantime	-11.3322
▁displayed	-11.3323
▁optimum	-11.3323
Unfortunately	-11.3323
▁forming	-11.3324
▁rebels	-11.3325
79	-11.3328
▁earns	-11.3334
▁aided	-11.3337
ns	-11.3338
▁practiced	-11.3338
▁protectionist	-11.3343
▁Had	-11.3343
▁Missouri	-11.3344
ated	-11.3344
▁camps	-11.3346
▁importantly	-11.3349
▁fun	-11.335
▁modes	-11.3358
▁surrounded	-11.3358
▁depended	-11.336
▁sur	-11.3361
▁metaphysical	-11.3364
▁Leonard	-11.3372
▁analytical	-11.3374
▁concentrate	-11.3374
▁diverse	-11.3377
▁Proudhon	-11.3382
▁Control	-11.3383
▁incorrect	-11.3386
▁weekly	-11.3391
▁rigorous	-11.3392
▁makers	-11.3393
▁confine	-11.3393
▁Trust	-11.3398
▁scholarship	-11.3398
▁indication	-11.3398
▁Accordingly	-11.3401
▁notably	-11.3403
▁Having	-11.3404
▁covering	-11.3404
▁33	-11.3406
▁blamed	-11.3407
▁threatening	-11.3415
▁encouraging	-11.3416
▁overthrow	-11.3418
▁Walras	-11.3418
▁giant	-11.3421
▁theoretically	-11.3422
65	-11.3424
à	-11.3427
▁Road	-11.343
▁resentment	-11.3436
▁Prohibition	-11.3439
▁Delaware	-11.3447
▁assistant	-11.3449
▁paradox	-11.3449
business	-11.3449
81	-11.3454
▁counties	-11.3456
▁infinitely	-11.3457
▁ambition	-11.3459
▁develops	-11.346
▁adverse	-11.3463
▁suggestions	-11.3465
Dr	-11.3471
▁preserving	-11.3473
▁belonging	-11.3475
▁hailed	-11.3478
▁1919	-11.3479
▁captured	-11.348
54	-11.3481
59	-11.3485
▁Lloyd	-11.3488
▁monthly	-11.349
▁Das	-11.3493
▁1932.	-11.3494
▁formidable	-11.3496
▁doomed	-11.3498
▁platform	-11.3499
▁mail	-11.3501
▁officially	-11.3502
▁partners	-11.3503
▁pleased	-11.3503
▁sympathetic	-11.3505
▁paradigm	-11.3505
▁employs	-11.3507
▁match	-11.351
▁lots	-11.351
▁illegitimate	-11.3513
▁declaring	-11.3516
▁glory	-11.3516
▁pernicious	-11.3523
▁conquered	-11.3524
▁touched	-11.3525
69	-11.3526
▁hiring	-11.3537
its	-11.3539
99	-11.3549
▁ambassador	-11.3552
▁Method	-11.3553
inflation	-11.3563
▁Yes	-11.3564
–9	-11.3566
▁harsh	-11.357
▁elites	-11.3572
▁talents	-11.3572
▁Galt	-11.3573
St	-11.3574
52	-11.3576
▁preparing	-11.3577
▁ethnic	-11.3581
▁occasional	-11.3585
▁presidents	-11.3585
▁box	-11.3591
▁handle	-11.3594
▁biggest	-11.3597
▁worried	-11.3597
▁premise	-11.3597
▁pronounced	-11.3599
▁Establishment	-11.3601
▁routine	-11.3604
▁earners	-11.3604
!)	-11.3607
▁luck	-11.3608
84	-11.3611
要	-11.3618
.11	-11.3619
▁$8	-11.3621
▁manipulation	-11.3622
▁increment	-11.3622
▁prediction	-11.3623
▁colonists	-11.3623
▁stems	-11.3623
▁sectors	-11.3626
▁subsequently	-11.3627
▁stuff	-11.3629
▁Nazism	-11.3635
Where	-11.3637
▁comfortable	-11.3639
Just	-11.3639
▁pseudo	-11.364
▁wing	-11.3641
▁devaluation	-11.3642
▁rush	-11.3643
.12	-11.3644
▁sociological	-11.3645
▁dates	-11.3646
▁struggles	-11.365
▁nationality	-11.3652
▁origins	-11.3654
▁Regnery	-11.3655
▁salt	-11.3658
▁devastating	-11.3659
▁supports	-11.3659
▁approached	-11.3663
▁offensive	-11.3666
▁36	-11.3666
▁speculator	-11.367
▁pour	-11.3674
▁expects	-11.3678
▁unprofitable	-11.3679
▁facing	-11.3679
▁weakened	-11.3683
▁Machlup	-11.3685
▁pyramid	-11.3686
▁deduction	-11.3705
▁Was	-11.3707
om	-11.371
Using	-11.3712
▁freed	-11.3713
▁coerced	-11.3718
▁Nostrand	-11.372
▁arrival	-11.372
▁instructive	-11.372
▁mountain	-11.3724
▁instability	-11.3729
▁overlook	-11.3734
▁lessons	-11.374
▁guarantees	-11.3742
▁phone	-11.3747
▁importation	-11.3748
although	-11.3748
▁celebrated	-11.3749
▁apples	-11.3749
▁Library	-11.3755
▁convenience	-11.3757
▁lacked	-11.3759
▁Constitutional	-11.3763
▁socialization	-11.3764
tion	-11.3767
Free	-11.3768
▁green	-11.377
▁proletarian	-11.377
▁dealings	-11.377
▁Andrews	-11.3774
▁directing	-11.3777
▁criticize	-11.3784
▁talent	-11.3785
[4]	-11.3788
▁Chancellor	-11.3792
▁closing	-11.3793
▁Use	-11.3797
▁afterwards	-11.3799
▁conspicuous	-11.3802
▁relevance	-11.3803
▁formally	-11.3804
▁regulatory	-11.3805
▁reductions	-11.3806
▁burdens	-11.3811
without	-11.3813
▁Your	-11.3819
▁legitimacy	-11.382
▁compelling	-11.3824
▁Monopoly	-11.3829
▁1939	-11.3829
▁85	-11.383
▁vertical	-11.3831
▁counts	-11.3841
▁nationalization	-11.3844
responsibilities	-11.3844
▁wanting	-11.3845
來	-11.3851
▁default	-11.3854
▁surrounding	-11.3854
▁TV	-11.3854
▁pleasant	-11.3856
▁adult	-11.3857
▁terror	-11.3858
▁disadvantages	-11.3858
▁grains	-11.3859
▁fictitious	-11.3861
▁Reason	-11.3862
▁deserve	-11.3866
▁concede	-11.3877
▁pictures	-11.3879
▁assign	-11.3881
▁subordinate	-11.3882
將	-11.3885
▁1936.	-11.3886
▁absorb	-11.3891
▁Al	-11.3891
▁recorded	-11.3892
▁plot	-11.3896
▁insistence	-11.3898
end	-11.3898
▁approaching	-11.3899
▁traditions	-11.39
too	-11.3903
▁ardent	-11.3904
▁imposes	-11.3904
▁precision	-11.3907
▁reconstruction	-11.3908
▁Pope	-11.3908
▁32	-11.3909
▁Three	-11.391
▁lifetime	-11.391
▁forest	-11.3915
▁skin	-11.3916
▁Between	-11.3918
▁eliminating	-11.3919
▁Real	-11.392
▁subtle	-11.3927
▁uneasiness	-11.3928
▁personnel	-11.3929
▁gambling	-11.3929
▁enlightened	-11.3931
self	-11.3932
62	-11.3937
▁worldwide	-11.3938
▁belonged	-11.3939
▁funding	-11.3941
我們	-11.3943
▁bidding	-11.3944
▁cooperatives	-11.3944
▁bridge	-11.3946
68	-11.3948
▁proprietor	-11.395
▁decentralized	-11.395
▁profitability	-11.3954
▁Theodore	-11.3954
71	-11.3955
▁bother	-11.3955
▁complained	-11.3956
▁bitterly	-11.3956
▁disciples	-11.3958
▁burning	-11.3959
▁tending	-11.396
▁quarters	-11.3961
▁Du	-11.3962
▁civilian	-11.3963
▁disagree	-11.3964
▁fired	-11.3965
▁investor	-11.3966
▁utter	-11.3967
▁Sweden	-11.3969
▁Magazine	-11.3971
▁odd	-11.3971
▁Were	-11.3974
▁barely	-11.3975
▁conspiracy	-11.3975
▁Stephen	-11.3982
91	-11.3983
▁promising	-11.3987
▁sitting	-11.3993
▁successor	-11.3996
▁pool	-11.3997
▁optimism	-11.3997
ence	-11.3999
▁benefited	-11.4001
▁160	-11.4003
▁Governments	-11.4004
aid	-11.401
▁Louisiana	-11.4011
▁occurring	-11.4013
▁sheet	-11.403
▁instincts	-11.403
vi	-11.4031
▁suited	-11.4032
▁1913	-11.4032
▁Netherlands	-11.4036
▁shops	-11.4037
▁season	-11.4038
▁Q	-11.4039
▁Ronald	-11.4041
▁exaggerated	-11.4043
者	-11.4044
▁inspiration	-11.4044
▁Africans	-11.4047
▁measuring	-11.4047
▁Go	-11.4048
▁intervene	-11.4049
▁threw	-11.4055
▁folly	-11.4055
▁vessels	-11.4057
▁Tories	-11.4057
00	-11.4059
▁utilitarianism	-11.406
▁yielded	-11.4063
▁analyzing	-11.4065
ho	-11.4065
▁Lange	-11.4066
▁Röpke	-11.4067
▁conscription	-11.407
▁Gen	-11.4071
▁Reconstruction	-11.4075
下	-11.4076
classical	-11.4077
▁Division	-11.4078
▁stating	-11.408
▁loyalty	-11.4081
▁strongest	-11.4081
▁missing	-11.4082
▁Work	-11.4084
▁owes	-11.4084
Who	-11.409
▁Baltimore	-11.4092
▁irregular	-11.4095
▁cardinal	-11.4097
▁Christmas	-11.4098
▁discoveries	-11.4099
▁$7	-11.4102
▁refuted	-11.411
now	-11.411
▁pair	-11.4111
▁evolved	-11.4113
owned	-11.4114
▁Reichsbank	-11.4119
▁Calculation	-11.4121
▁sad	-11.4121
▁$6	-11.4122
▁harvest	-11.4125
thirds	-11.4126
▁Mar	-11.4127
▁reciprocal	-11.4127
▁1932	-11.4128
▁apartment	-11.4129
▁Tom	-11.413
▁si	-11.4131
▁girls	-11.4136
▁intellect	-11.4141
(2)	-11.4141
▁concession	-11.4141
▁liquidation	-11.4142
▁Ralph	-11.4143
capitalist	-11.4143
▁corner	-11.4145
▁approve	-11.4145
▁resolve	-11.4145
▁soft	-11.4148
▁Sam	-11.4156
▁spreading	-11.4157
▁reliable	-11.4158
▁recognizing	-11.4162
▁harder	-11.4163
▁users	-11.4163
▁worthless	-11.4166
pro	-11.4167
▁1936	-11.4167
▁expressing	-11.4168
」	-11.4168
▁Unemployment	-11.4171
▁Kant	-11.4174
▁Scott	-11.4175
▁kids	-11.4175
▁yes	-11.4176
▁Pa	-11.4177
▁testing	-11.4178
ze	-11.4181
▁120	-11.4182
▁pocket	-11.4183
▁favourable	-11.4186
▁shocked	-11.419
reaching	-11.4195
▁boat	-11.4196
▁conformity	-11.4198
▁lacks	-11.4207
▁Economica	-11.4207
▁fashionable	-11.4208
▁fed	-11.421
▁east	-11.4211
▁flag	-11.4214
▁Conn	-11.4214
▁aggressor	-11.4214
▁differential	-11.4219
▁regulating	-11.4222
▁convincing	-11.4223
▁ignores	-11.4224
▁franc	-11.4228
▁exhibit	-11.4229
▁conflicting	-11.4229
▁mentality	-11.4229
General	-11.423
▁1830	-11.4231
▁1931,	-11.4231
▁ties	-11.4235
▁glass	-11.4236
73	-11.4237
▁reactionary	-11.4241
▁legislators	-11.4241
rights	-11.4249
se	-11.425
▁Mitchell	-11.4251
▁Read	-11.4253
▁stimulated	-11.4254
▁Essay	-11.4255
▁wedding	-11.4255
▁declines	-11.4268
▁undesirable	-11.4269
如	-11.4269
▁traded	-11.4271
▁strengthen	-11.4271
▁Angeles	-11.4271
▁permitting	-11.4272
▁ridiculous	-11.4275
control	-11.4275
▁Growth	-11.4284
▁Howard	-11.4288
▁sensitive	-11.429
▁band	-11.429
▁Naval	-11.4292
▁republican	-11.4292
▁1896	-11.4294
▁publishing	-11.43
▁fees	-11.43
monopoly	-11.4301
▁1848	-11.4304
96	-11.4307
▁migration	-11.4308
▁annually	-11.431
▁interview	-11.4313
▁awareness	-11.4319
▁Franz	-11.4322
▁NRA	-11.4323
▁slogan	-11.4324
those	-11.4326
▁warm	-11.4326
▁catallactic	-11.4329
▁Club	-11.4336
▁ultra	-11.4339
mann	-11.4341
▁flood	-11.4345
▁decreasing	-11.4348
first	-11.4348
58	-11.4352
▁brutal	-11.4353
▁counsel	-11.4358
▁stake	-11.4361
credit	-11.4362
▁peacetime	-11.4363
▁Investment	-11.4363
▁simplest	-11.4365
▁Ward	-11.4366
▁Ho	-11.437
▁beat	-11.4371
▁Greenspan	-11.4377
▁qui	-11.4378
ster	-11.438
▁historic	-11.438
▁Table	-11.4381
▁picked	-11.4383
▁utilized	-11.4385
▁programme	-11.4385
▁electric	-11.4385
▁library	-11.4386
mer	-11.4387
▁characters	-11.4388
▁famine	-11.439
National	-11.4392
▁channels	-11.4393
▁thinker	-11.4394
▁persistent	-11.4399
▁renewed	-11.4404
▁Nock	-11.4404
▁pledge	-11.441
▁mercantilism	-11.4411
society	-11.4417
▁31,	-11.4421
”),	-11.4422
▁potentially	-11.4424
▁advent	-11.4424
▁shillings	-11.4425
▁intrinsic	-11.4427
▁Peel	-11.4431
▁narrower	-11.4432
▁hospital	-11.4434
▁competitor	-11.4435
▁recommendations	-11.4436
▁proportionate	-11.4436
▁warrant	-11.4438
State	-11.4439
fashioned	-11.444
▁fortunate	-11.4441
▁wasteful	-11.4441
▁respectable	-11.4448
▁assist	-11.445
▁heat	-11.4452
▁stabilize	-11.4455
▁Origins	-11.4456
▁Col	-11.446
▁Demand	-11.4461
▁stupid	-11.4462
▁den	-11.4462
▁ambitious	-11.4463
▁Confederation	-11.4468
▁continuation	-11.4468
ell	-11.447
bo	-11.4471
▁repair	-11.4478
▁tragedy	-11.4479
▁distinctions	-11.4479
▁yesterday	-11.4491
▁denies	-11.4491
▁star	-11.4493
▁publications	-11.4494
▁capture	-11.4496
▁pull	-11.4496
▁lord	-11.4497
▁1957	-11.4497
▁convictions	-11.4498
▁challenged	-11.45
▁watched	-11.4501
▁exceeded	-11.4501
▁exclusion	-11.4509
▁doors	-11.4512
▁oligarchy	-11.4513
▁meanwhile	-11.4514
▁site	-11.4518
▁Commercial	-11.4519
▁Until	-11.452
▁compensated	-11.452
down	-11.4522
.15	-11.4522
▁rescue	-11.4522
▁Versailles	-11.4525
▁Wages	-11.4527
▁Ron	-11.4528
▁draws	-11.453
▁designated	-11.4531
▁imperative	-11.4535
▁simplicity	-11.4535
▁commonwealth	-11.4536
▁ne	-11.4537
▁landlords	-11.4539
▁profoundly	-11.4543
▁El	-11.4545
▁Harold	-11.4545
▁prohibitions	-11.4545
▁establishes	-11.4545
▁retirement	-11.4547
▁focused	-11.4551
▁likes	-11.4555
Capital	-11.4557
Menger	-11.4557
[5]	-11.4558
▁greed	-11.4564
▁suppliers	-11.4565
Be	-11.4567
▁rejects	-11.457
▁railway	-11.457
▁Index	-11.457
ak	-11.4571
▁gaining	-11.4571
ä	-11.4576
▁forcibly	-11.458
▁entities	-11.458
▁refuses	-11.4582
▁Iron	-11.4583
▁capitalization	-11.4583
▁horror	-11.4586
▁mis	-11.4587
74	-11.4587
▁Has	-11.4588
ow	-11.4592
▁Ph	-11.4592
Marx	-11.4597
▁watching	-11.4597
▁eventual	-11.4598
▁verbal	-11.4601
▁arrest	-11.4601
▁trivial	-11.4602
▁Maynard	-11.4602
▁senses	-11.4612
.13	-11.4613
▁accidental	-11.4615
▁Los	-11.4617
▁Sometimes	-11.4619
▁39	-11.4621
▁proud	-11.4622
▁convey	-11.4624
▁appropriated	-11.4624
▁su	-11.4626
▁retired	-11.4627
▁Process	-11.4629
▁dreams	-11.4629
any	-11.463
▁episode	-11.4638
▁dogma	-11.4639
▁magnitudes	-11.4639
▁Bernard	-11.4641
▁publish	-11.4642
▁defence	-11.4643
▁coherent	-11.4644
▁consistency	-11.4646
▁scattered	-11.4648
▁tempted	-11.4649
93	-11.465
Simon	-11.465
▁grounded	-11.465
▁1982	-11.4653
Cf	-11.4657
▁forecasting	-11.4658
▁distrust	-11.4661
▁shortcomings	-11.4665
▁Con	-11.4666
▁thrift	-11.4668
▁liquor	-11.4669
▁dubious	-11.467
▁unimportant	-11.4671
▁Constant	-11.4671
▁1935,	-11.4671
”).	-11.4677
▁player	-11.4678
▁embark	-11.4679
ries	-11.468
▁brothers	-11.4682
▁collapsed	-11.4686
▁overseas	-11.4693
▁troubles	-11.4695
▁asserting	-11.4697
▁praised	-11.4699
▁avoiding	-11.4699
▁Declaration	-11.4701
▁responded	-11.4701
▁Whigs	-11.4701
▁mechanics	-11.4702
▁discharge	-11.4702
▁Laws	-11.4703
▁procure	-11.4711
▁intend	-11.4719
定	-11.472
▁qua	-11.4721
▁threaten	-11.4722
Today	-11.473
▁Australia	-11.473
▁fruitful	-11.4734
▁nice	-11.4737
▁likelihood	-11.4738
▁agenda	-11.4738
▁wake	-11.4738
▁engineer	-11.4741
▁Knowledge	-11.4742
page	-11.4746
freedom	-11.4748
▁Critique	-11.475
▁morals	-11.4752
▁conceptions	-11.4755
▁array	-11.4756
▁allied	-11.4756
▁earthly	-11.4758
▁ignoring	-11.4759
▁Hungary	-11.4763
▁inappropriate	-11.4765
▁pressing	-11.4767
▁65	-11.4768
hard	-11.4771
▁Bulletin	-11.4778
Economics	-11.4782
▁trusted	-11.4782
▁Otherwise	-11.4783
▁37	-11.4785
▁Meyer	-11.4786
▁contracted	-11.4786
▁executed	-11.4787
ations	-11.4788
▁strengthened	-11.479
Figure	-11.4794
政府	-11.4795
▁Sciences	-11.4795
▁denying	-11.4796
▁Selgin	-11.4797
▁findings	-11.4801
▁defenders	-11.4804
▁unproductive	-11.4804
▁unpleasant	-11.4807
▁conceptual	-11.4808
▁questionable	-11.4809
▁disorder	-11.4813
▁endorsed	-11.4823
▁fuel	-11.4824
▁theology	-11.4825
▁Philippines	-11.4827
▁relied	-11.483
▁disappearance	-11.483
point	-11.4832
▁autonomy	-11.4832
▁1914,	-11.4833
▁Czechoslovakia	-11.4836
▁marketable	-11.4837
▁engineering	-11.4838
▁unionism	-11.4847
▁Fair	-11.4848
▁patriotism	-11.4849
▁Row	-11.4851
▁Publishing	-11.4853
▁Volkswirtschaft	-11.4855
cut	-11.4857
▁GDP	-11.4858
▁positivism	-11.4859
▁owed	-11.4861
▁labourer	-11.4862
▁decay	-11.4862
▁subjectivist	-11.4863
▁emerging	-11.4863
▁norm	-11.4864
▁expressly	-11.4868
▁enforcing	-11.4875
%	-11.4875
▁furniture	-11.4876
▁negligible	-11.4876
▁cake	-11.4885
▁unfavorable	-11.4887
defense	-11.4888
▁savage	-11.4889
Having	-11.489
▁departure	-11.4891
equilibrium	-11.4891
▁Hall	-11.4892
▁creatures	-11.4898
▁copies	-11.4899
▁accessible	-11.49
▁lasted	-11.4902
other	-11.4905
▁visited	-11.4908
▁navigation	-11.4911
▁fee	-11.4911
▁petition	-11.4912
▁indefinite	-11.4912
Z	-11.4914
▁rock	-11.4915
&	-11.4915
▁impressive	-11.4919
▁motivation	-11.4919
▁drives	-11.492
▁1934.	-11.4922
▁tenants	-11.4925
▁lag	-11.4926
▁abuses	-11.4928
▁complaints	-11.4928
▁hero	-11.4929
▁debasement	-11.4931
77	-11.4933
▁equals	-11.4934
▁statesman	-11.494
▁tight	-11.494
▁rationality	-11.4945
.”2	-11.4946
▁preceded	-11.4947
▁Articles	-11.4949
▁gentleman	-11.4949
▁Edwin	-11.4951
▁emotions	-11.4955
▁alarm	-11.4956
▁Russell	-11.4957
▁dominate	-11.4959
▁ceases	-11.496
▁rooted	-11.4961
▁outcomes	-11.4966
▁thrust	-11.4969
▁committees	-11.497
▁prescribed	-11.497
▁everyday	-11.4982
▁scenario	-11.4985
▁gratification	-11.4985
cher	-11.4986
▁unified	-11.4991
▁Section	-11.4995
▁suspend	-11.4995
▁refined	-11.4996
▁card	-11.4996
▁Jesus	-11.4997
born	-11.4999
▁despotic	-11.5
▁guess	-11.5
▁trusts	-11.5003
after	-11.501
▁quit	-11.5017
▁revised	-11.5018
▁performing	-11.5023
▁rendering	-11.5023
▁arrange	-11.5028
▁rationale	-11.5029
▁discriminate	-11.5032
▁quotation	-11.5032
▁confident	-11.5037
▁servant	-11.5039
▁sheep	-11.504
▁disciplines	-11.504
side	-11.5042
oriented	-11.5044
▁faire	-11.5045
▁norms	-11.5049
▁consensus	-11.5052
▁ventures	-11.5053
▁distinctly	-11.5053
▁containing	-11.5054
Keynesian	-11.5058
-2	-11.5058
▁marketing	-11.5063
▁1924	-11.5064
▁gods	-11.5064
▁communal	-11.5064
▁proceedings	-11.5067
▁prompted	-11.5067
▁quest	-11.5068
▁Puritan	-11.507
▁motor	-11.5073
▁circulate	-11.5076
▁Take	-11.5077
▁Canadian	-11.5077
▁steam	-11.5079
▁intimate	-11.5079
▁coincidence	-11.5079
▁spurious	-11.5079
▁stem	-11.5081
▁deductions	-11.5081
▁Dis	-11.5082
▁summed	-11.5087
▁grades	-11.5088
▁avail	-11.5089
▁cell	-11.5092
▁Rev	-11.5095
▁Four	-11.5102
▁worn	-11.5102
▁orderly	-11.5103
得	-11.5103
▁keen	-11.5106
▁debates	-11.5109
▁founding	-11.5109
▁replacing	-11.511
▁cruel	-11.5111
▁materialism	-11.5112
▁armaments	-11.5113
▁purposeful	-11.5117
ett	-11.5118
▁obtains	-11.5123
▁score	-11.5125
▁Fascism	-11.5126
▁qualifications	-11.5128
▁para	-11.5128
▁Korea	-11.5128
▁naive	-11.513
▁Choice	-11.5131
▁mercy	-11.5134
▁acquainted	-11.5134
▁environmental	-11.5135
利	-11.5135
▁encountered	-11.5141
▁realizing	-11.5145
▁conferences	-11.5145
▁fitted	-11.5145
▁empiricism	-11.5153
▁tacit	-11.5155
[6]	-11.5156
▁eleven	-11.5157
▁port	-11.5158
▁journals	-11.5159
多	-11.516
▁requisite	-11.5161
▁poured	-11.5163
10.	-11.5163
▁eighty	-11.5165
▁multiplier	-11.5167
▁thank	-11.5173
▁correspondingly	-11.5175
▁Cooke	-11.5175
▁pen	-11.5176
▁admiration	-11.5181
▁collaboration	-11.5181
▁football	-11.5181
ny	-11.5182
▁complaint	-11.5185
▁sweeping	-11.5187
▁qu	-11.519
ru	-11.5192
▁punish	-11.5192
87	-11.5194
moral	-11.5196
▁Bay	-11.5197
tic	-11.5199
▁interval	-11.52
▁defendant	-11.52
▁justly	-11.52
▁devised	-11.5207
▁altruism	-11.5211
▁proportionately	-11.5219
▁organs	-11.5223
▁tests	-11.5223
▁afternoon	-11.5229
▁Coase	-11.5233
▁trick	-11.5233
▁outlined	-11.5236
common	-11.5236
▁1949	-11.5237
Smith	-11.5237
▁theater	-11.5237
▁breaks	-11.5239
▁entail	-11.5243
▁silent	-11.5243
▁movies	-11.5244
▁Safford	-11.5247
▁5.	-11.5247
▁disturbance	-11.5248
▁Providence	-11.525
▁technically	-11.525
rich	-11.525
▁Ma	-11.525
unconstitutional	-11.5252
▁flour	-11.5253
▁Jack	-11.5253
▁mint	-11.5254
82	-11.5256
▁whilst	-11.5264
▁Czech	-11.5264
▁repay	-11.5267
▁catastrophe	-11.5272
▁globe	-11.5277
▁insisting	-11.5279
▁Bar	-11.5279
▁k	-11.5281
Among	-11.5286
▁regimes	-11.5287
ph	-11.5288
▁causation	-11.5289
Socialism	-11.5289
▁mystery	-11.529
▁bent	-11.5292
97	-11.5296
_	-11.5297
▁View	-11.5299
▁Comte	-11.53
▁Duke	-11.5301
▁fancy	-11.5301
▁anger	-11.5305
▁automobiles	-11.5307
▁Rent	-11.5308
cycle	-11.531
▁blacks	-11.5312
▁regret	-11.5314
▁artisans	-11.5315
▁coincide	-11.5316
▁heaven	-11.5317
▁enjoying	-11.5317
▁Moral	-11.5323
▁simultaneous	-11.5324
▁tragic	-11.5325
▁invitation	-11.5325
▁300	-11.5334
▁deficiency	-11.5338
▁classified	-11.5347
▁gigantic	-11.535
▁Buren	-11.535
▁Independence	-11.5351
▁hunger	-11.5351
▁checked	-11.5352
▁teaches	-11.5353
▁cancer	-11.5358
▁38	-11.536
▁resisted	-11.5362
three	-11.5362
▁prohibiting	-11.5362
▁comply	-11.5367
▁disagreement	-11.537
▁landlord	-11.537
▁fateful	-11.5371
▁memorandum	-11.5374
▁Force	-11.5376
▁Democrat	-11.5378
▁manners	-11.5379
▁temporal	-11.5382
▁Mexican	-11.5383
▁maybe	-11.5388
▁accepts	-11.5391
▁curtail	-11.5392
▁illustrates	-11.5393
▁distortions	-11.5396
▁treating	-11.5396
▁Acts	-11.5398
▁imminent	-11.5398
▁seventy	-11.5399
▁inconvertible	-11.5403
▁coined	-11.5404
▁1,000	-11.5405
▁fantastic	-11.5408
▁effectiveness	-11.5408
▁arithmetic	-11.5409
▁multi	-11.5409
▁prejudices	-11.5412
▁revealing	-11.5413
▁conventions	-11.5413
▁pollution	-11.5414
▁generates	-11.5414
▁stagnation	-11.5417
bad	-11.5417
ens	-11.5418
▁proceeding	-11.5422
▁Cabinet	-11.5423
▁unhappy	-11.5423
▁incidentally	-11.5425
▁issuance	-11.5427
▁Burke	-11.5428
▁proposes	-11.5429
▁spontaneously	-11.543
▁unite	-11.5432
▁unrealistic	-11.5432
▁italics	-11.5434
▁prize	-11.5436
▁beneficiaries	-11.5436
normal	-11.5436
▁conversations	-11.5437
▁shareholders	-11.544
▁humans	-11.5441
▁macroeconomic	-11.5444
▁Quoted	-11.5445
▁Iceland	-11.5446
must	-11.5448
sufficient	-11.5448
▁deduced	-11.545
▁Fischer	-11.5451
▁Cold	-11.5452
[7]	-11.5455
▁ports	-11.5456
hr	-11.5457
▁happily	-11.5459
▁wipe	-11.5459
▁tolerate	-11.5463
▁sports	-11.5463
▁defect	-11.5465
▁deviation	-11.5468
▁faithful	-11.5468
▁derives	-11.5468
=	-11.5468
▁Present	-11.5471
▁provincial	-11.5471
▁proven	-11.5484
▁pockets	-11.5486
▁1931.	-11.5487
Indeed	-11.549
▁Women	-11.5492
▁1961	-11.5494
▁dominance	-11.5496
▁nonetheless	-11.5496
▁bushels	-11.5502
▁Notes	-11.5503
▁suppressed	-11.5503
.16	-11.5503
▁contended	-11.5505
▁gratuitous	-11.5506
lest	-11.5508
▁pressed	-11.551
ative	-11.5517
▁zeal	-11.552
▁1941.	-11.5522
▁mayor	-11.5522
▁reminded	-11.5531
▁1929.	-11.5532
▁Revolutionary	-11.5534
▁Logic	-11.5547
▁outputs	-11.5549
▁burned	-11.5549
▁individually	-11.5551
▁ruined	-11.5556
▁interpretations	-11.5556
▁smallest	-11.5556
▁broadly	-11.5557
▁objectively	-11.5557
▁None	-11.5559
▁argumentation	-11.5559
▁Cape	-11.556
ED	-11.5561
Summer	-11.5565
▁editions	-11.5567
ical	-11.5569
▁inquire	-11.5569
▁1948	-11.557
▁backing	-11.5571
▁hoc	-11.5574
▁Miller	-11.5578
▁ruthless	-11.5579
▁Jim	-11.5581
▁tie	-11.5583
▁41	-11.5585
▁smoke	-11.5586
▁shoe	-11.5593
▁armament	-11.5593
▁Introduction	-11.5594
▁victorious	-11.5595
▁dying	-11.5595
▁Per	-11.5598
▁defines	-11.56
▁punished	-11.56
▁entails	-11.5601
▁preliminary	-11.5603
▁Independent	-11.5605
▁industrious	-11.5606
▁sons	-11.5609
.14	-11.5611
▁levy	-11.5612
▁instrumental	-11.5615
ap	-11.5615
▁Consider	-11.5616
▁numerical	-11.5616
▁gathering	-11.5617
▁adherents	-11.5618
▁6.	-11.5619
perhaps	-11.562
hour	-11.562
▁instructed	-11.5622
▁socialized	-11.5622
▁absolutism	-11.5622
▁individuality	-11.5625
▁81	-11.5628
▁strain	-11.5629
▁retreat	-11.5631
▁Gary	-11.5633
▁examining	-11.5633
▁players	-11.5639
▁34	-11.5639
▁listed	-11.5641
▁suits	-11.5641
Neither	-11.5646
▁Cassel	-11.5649
▁savers	-11.5649
▁continental	-11.5651
▁Mc	-11.5651
ium	-11.5658
▁portions	-11.5658
▁1937,	-11.5659
▁irresponsible	-11.567
profit	-11.5671
standard	-11.5671
▁causality	-11.5672
libertarian	-11.5672
▁Sheed	-11.5673
▁monopolized	-11.5674
▁55	-11.5676
▁Hanna	-11.5679
▁Arnold	-11.5679
▁Quakers	-11.5681
▁cheaply	-11.5685
▁51	-11.5688
ise	-11.5688
back	-11.5689
▁appeals	-11.5689
▁fascinating	-11.5695
▁113	-11.5695
▁Everything	-11.5696
▁enhanced	-11.5698
▁mature	-11.5702
▁Supply	-11.5704
▁miracle	-11.5707
▁Profit	-11.5709
▁Se	-11.5711
▁Pat	-11.5715
▁mortgages	-11.5716
▁normative	-11.5718
▁precedent	-11.5718
▁zur	-11.5721
▁locations	-11.5722
▁Very	-11.5725
▁Wage	-11.5731
▁deadly	-11.5733
▁completion	-11.5734
▁recessions	-11.5736
▁actively	-11.5739
fair	-11.5742
▁token	-11.5745
▁tired	-11.5746
▁hunting	-11.5747
▁cultivated	-11.5748
▁1928	-11.575
Classical	-11.5751
▁seizure	-11.5752
▁booms	-11.5753
▁inflationist	-11.5754
▁exerted	-11.5754
▁weaker	-11.5755
▁GNP	-11.5761
▁Indiana	-11.5761
▁walking	-11.5762
▁1936,	-11.5765
▁fluctuating	-11.5767
▁topics	-11.5769
▁flowing	-11.577
▁alteration	-11.5771
▁paribus	-11.5771
rum	-11.5773
Q	-11.5773
stock	-11.5776
Murray	-11.5777
▁divorce	-11.5779
▁esp	-11.5782
▁stolen	-11.5788
▁astonishing	-11.5793
▁symbol	-11.5794
▁unaware	-11.5795
▁Rise	-11.5797
▁Progress	-11.5797
Liberty	-11.5804
▁theorems	-11.5804
▁incomplete	-11.5809
William	-11.5812
▁Leipzig	-11.5816
▁postulate	-11.5816
▁agrees	-11.5817
▁functional	-11.5827
low	-11.5829
▁dimensions	-11.5832
▁ethic	-11.5833
▁Pre	-11.5833
▁Jan	-11.5835
▁militant	-11.5837
▁stimulating	-11.5838
▁organizational	-11.584
▁illusory	-11.5847
▁una	-11.5848
▁1860	-11.585
▁Conservative	-11.5851
▁rationing	-11.5852
▁bright	-11.5853
cent	-11.5858
speaking	-11.5859
▁Holy	-11.586
uck	-11.5862
sufficiency	-11.5864
▁legislatures	-11.5867
▁optimistic	-11.5871
▁tall	-11.5872
▁charging	-11.5876
▁Patrick	-11.5878
▁Allied	-11.5882
▁repayment	-11.5882
▁tangible	-11.5883
▁administered	-11.5883
▁despair	-11.5884
í	-11.5893
▁Pure	-11.5894
▁agrarian	-11.5896
▁intensified	-11.5898
▁confusing	-11.5898
▁qualitative	-11.5899
▁Op	-11.5899
▁Miss	-11.5904
▁1968	-11.5907
▁0	-11.5909
▁boards	-11.591
▁penny	-11.5919
Le	-11.592
▁haven	-11.592
▁bodily	-11.5923
▁concert	-11.5923
tre	-11.5924
ever	-11.5924
▁letting	-11.5925
▁endorse	-11.5929
▁strikers	-11.5933
▁fly	-11.5933
▁bases	-11.5933
▁Donald	-11.5935
▁Park	-11.5939
▁revision	-11.5947
▁song	-11.5948
▁Perspective	-11.5949
▁sky	-11.5949
▁drastically	-11.595
Hartley	-11.595
▁contrasted	-11.5952
▁bold	-11.5953
▁restrained	-11.5956
▁passions	-11.5957
▁Bankers	-11.5963
,000	-11.5967
85	-11.5969
▁senior	-11.5974
Any	-11.5974
▁fertile	-11.5975
▁continuance	-11.5975
▁Kramer	-11.5976
▁magnificent	-11.598
▁Taxation	-11.5981
▁phases	-11.5983
▁crush	-11.5987
▁vis	-11.5989
▁mixture	-11.599
▁priest	-11.5991
▁courses	-11.5992
▁multiply	-11.5992
▁imperialist	-11.5998
▁Thornton	-11.6001
▁diagram	-11.6001
kin	-11.6001
▁textile	-11.6001
▁boundary	-11.6002
Her	-11.6003
▁Which	-11.6004
▁realities	-11.6009
ville	-11.6009
▁1945	-11.601
▁prey	-11.6011
▁flaw	-11.6012
▁pervasive	-11.6013
▁1940,	-11.6013
▁recalled	-11.6019
Nothing	-11.6019
X	-11.6019
▁Either	-11.602
▁determinants	-11.6021
▁bureaucrat	-11.6022
▁adapted	-11.6022
▁dull	-11.6026
since	-11.6026
▁clerk	-11.6027
▁evolutionary	-11.6028
▁entrusted	-11.6029
▁persist	-11.6032
▁patents	-11.6035
▁rewarded	-11.6039
▁weaken	-11.6043
ach	-11.6044
▁Joe	-11.6044
determination	-11.6046
▁commands	-11.6047
▁1938	-11.6052
▁1939,	-11.6052
▁endure	-11.6052
▁inflating	-11.6053
▁confer	-11.6053
▁desert	-11.6057
▁commanders	-11.6061
▁deaths	-11.6061
98	-11.6064
▁walls	-11.6065
people	-11.6067
▁games	-11.6069
▁accounted	-11.6071
▁wasted	-11.6071
ual	-11.6077
▁employments	-11.6077
▁tract	-11.6078
▁Sozialpolitik	-11.6079
▁accidents	-11.6079
▁mood	-11.608
▁presumed	-11.6081
void	-11.6081
▁illness	-11.6081
▁predictable	-11.6082
▁1918	-11.6082
ire	-11.6083
▁margins	-11.6085
▁Manifesto	-11.6088
▁Tennessee	-11.6094
▁ordinarily	-11.6095
á	-11.6095
▁beer	-11.6097
Or	-11.6099
▁gentlemen	-11.6099
▁distinctive	-11.61
▁calm	-11.6101
▁hierarchy	-11.6105
▁antagonism	-11.6106
king	-11.6107
▁highways	-11.6107
▁Ely	-11.6108
▁counterpart	-11.6112
▁Agriculture	-11.6115
▁eagerly	-11.6119
▁depositor	-11.6121
▁alien	-11.6123
▁87	-11.6124
▁gotten	-11.6124
Social	-11.6127
▁calculus	-11.6131
▁dramatically	-11.6131
▁plea	-11.6132
▁passim	-11.6132
▁67	-11.6132
ren	-11.6136
▁prompt	-11.6136
▁minus	-11.6137
▁hearts	-11.6138
oc	-11.6138
▁contracting	-11.6141
▁anarchists	-11.6141
▁voter	-11.6144
each	-11.6147
▁monarch	-11.615
▁undertakings	-11.6151
▁oppressed	-11.6153
▁singular	-11.6154
:—	-11.6155
▁Egypt	-11.6159
▁tables	-11.6164
ee	-11.6166
▁survived	-11.6167
▁Earth	-11.6167
▁ii	-11.6168
▁Demsetz	-11.617
▁dismiss	-11.6172
▁Ex	-11.6178
▁signals	-11.6179
▁1978)	-11.6182
▁excellence	-11.6183
▁adherence	-11.6183
0,000,000	-11.6184
cy	-11.6185
▁allowance	-11.6186
▁advancement	-11.6188
▁quotes	-11.6195
▁petty	-11.62
ick	-11.6202
▁cautious	-11.6206
▁48	-11.6206
Winter	-11.6208
▁Hart	-11.6209
▁elaboration	-11.621
▁Air	-11.6211
▁inefficiency	-11.6213
▁About	-11.6214
▁extends	-11.6215
▁quietly	-11.6216
▁vaults	-11.622
▁1938,	-11.622
▁Dewey	-11.6222
▁escaped	-11.6225
▁Distribution	-11.6229
▁Code	-11.623
▁gasoline	-11.6236
▁silly	-11.6236
▁monies	-11.6236
Making	-11.6238
Review	-11.6238
▁creature	-11.6238
▁presenting	-11.6242
▁desk	-11.6243
▁Almost	-11.6247
▁Chairman	-11.6247
▁yielding	-11.6252
▁Keynesianism	-11.6252
78	-11.6255
lin	-11.626
▁epistemology	-11.6263
▁excise	-11.6263
▁heroic	-11.6264
▁totalitarianism	-11.6266
▁por	-11.6267
▁prisoners	-11.6268
▁Europeans	-11.6268
▁possessing	-11.627
▁autonomous	-11.6271
▁Edmund	-11.6279
▁intensive	-11.628
▁abstinence	-11.6281
ure	-11.6283
▁relates	-11.6284
▁1934,	-11.6285
▁journey	-11.6285
▁ceiling	-11.6286
▁cognition	-11.6289
▁conferred	-11.6289
Consider	-11.6292
▁statute	-11.6292
controlled	-11.6293
▁horizontal	-11.6294
▁79	-11.6295
▁Douglas	-11.63
▁correctness	-11.6301
▁Phillips	-11.6302
▁Oliver	-11.6305
equal	-11.6306
▁persuasion	-11.6306
▁stayed	-11.6309
sh	-11.6312
▁sober	-11.6312
▁Never	-11.6315
▁Civilization	-11.6316
▁inelastic	-11.6317
▁Nicholas	-11.6318
11.	-11.6319
▁overvalued	-11.6319
▁fascist	-11.6323
you	-11.6327
ification	-11.6337
Both	-11.6339
▁extract	-11.634
▁fame	-11.634
▁constructive	-11.634
▁presumption	-11.6343
________________	-11.6345
▁lengthening	-11.6345
▁occurrence	-11.6346
▁apple	-11.6346
▁distortion	-11.6346
▁undermine	-11.6346
▁Maine	-11.6348
Berlin	-11.6349
▁instantly	-11.6349
threat	-11.635
▁decreed	-11.6351
(1)	-11.6354
▁43	-11.6355
socialist	-11.6356
▁drain	-11.6358
▁100-	-11.636
▁planet	-11.6362
▁steal	-11.6363
▁49	-11.6366
their	-11.6367
▁golden	-11.6368
va	-11.6369
▁Judge	-11.6369
▁offspring	-11.637
▁infant	-11.637
▁mills	-11.637
▁experimental	-11.6371
▁summarized	-11.6371
.17	-11.6374
▁Flynn	-11.6375
present	-11.6376
▁Antifederalists	-11.638
unt	-11.6381
[8]	-11.6381
▁insignificant	-11.6382
▁Cost	-11.6383
▁treats	-11.6383
.20	-11.6385
▁Unless	-11.6385
▁hat	-11.6388
家	-11.6389
▁53	-11.6389
▁7.	-11.6391
▁acute	-11.6395
▁remedies	-11.6396
▁innate	-11.6397
▁originate	-11.6397
▁ban	-11.6399
▁confiscated	-11.6399
▁Eden	-11.64
▁toil	-11.64
▁bus	-11.64
▁Carter	-11.6404
▁bounds	-11.6407
▁mentor	-11.6407
▁physician	-11.6409
nt	-11.6415
tu	-11.6416
▁Ideas	-11.6424
Looking	-11.6424
ery	-11.6425
▁accelerated	-11.6431
▁Wicksteed	-11.6433
▁1941	-11.6434
▁notorious	-11.6434
▁physiological	-11.6439
▁workings	-11.644
▁linguistic	-11.644
si	-11.644
ring	-11.6443
▁quod	-11.6445
▁Euro	-11.6447
▁1937	-11.6449
▁hypotheses	-11.645
Fall	-11.6451
mongst	-11.6454
▁client	-11.6454
supply	-11.6455
▁accompanying	-11.6455
▁quotations	-11.6458
▁annum	-11.6459
aw	-11.6461
▁ERE	-11.6462
Inflation	-11.6463
▁harbor	-11.6467
▁Anthony	-11.6467
▁structural	-11.6472
▁delayed	-11.6473
▁settlements	-11.6474
und	-11.6476
▁sixteen	-11.6476
▁Gresham	-11.6477
▁anxiety	-11.6477
▁condemnation	-11.648
▁discouraged	-11.6483
▁Belgian	-11.6485
▁Wirtschaft	-11.6487
President	-11.6491
▁observers	-11.6492
▁safeguard	-11.6495
▁acquires	-11.6498
▁Ver	-11.65
▁ball	-11.6503
▁pledged	-11.651
▁closest	-11.6511
▁binding	-11.6512
▁Mencken	-11.6514
▁conservation	-11.6515
▁searching	-11.6516
▁Gray	-11.6517
▁foresee	-11.6519
legal	-11.6519
▁Mann	-11.652
Hence	-11.652
▁cite	-11.6521
▁genuinely	-11.6523
▁timber	-11.6532
▁minimal	-11.6536
▁varies	-11.6536
▁applications	-11.6539
▁emphatically	-11.654
▁ascribed	-11.6547
▁crown	-11.6549
ology	-11.6551
▁loud	-11.6553
▁ingenious	-11.6556
▁Kapital	-11.6556
▁unskilled	-11.6559
▁electricity	-11.656
▁axioms	-11.656
▁announcement	-11.656
▁las	-11.6561
Saxon	-11.6564
▁allocated	-11.6565
▁maxim	-11.6565
▁130	-11.6566
▁urgently	-11.657
▁flexibility	-11.657
tro	-11.6573
▁Representatives	-11.6574
ga	-11.6574
▁dealer	-11.6575
ites	-11.6578
▁Christians	-11.6581
▁VII	-11.6581
▁Whereas	-11.6583
▁monstrous	-11.6587
▁observing	-11.6587
▁$10,000	-11.6587
▁dislike	-11.6588
▁privatization	-11.659
▁Edition	-11.6591
▁Organization	-11.6592
▁sword	-11.6592
▁dissent	-11.6597
▁End	-11.6599
▁coordinated	-11.66
▁Otto	-11.6602
▁hide	-11.6606
▁Soon	-11.6608
▁glad	-11.661
▁positively	-11.6612
pure	-11.6612
▁ratification	-11.6614
▁Theories	-11.6619
92	-11.662
▁appreciated	-11.6621
▁solving	-11.6631
▁supplement	-11.6631
▁proprietary	-11.6632
Hudson	-11.6633
▁invisible	-11.6634
▁unsuccessful	-11.6638
▁spheres	-11.6638
▁Negro	-11.6642
▁ninety	-11.6642
▁118	-11.6648
▁publicity	-11.6651
▁fool	-11.6657
▁decent	-11.6658
▁publisher	-11.6666
▁unpopular	-11.6669
▁resultant	-11.667
▁Vice	-11.6671
▁destroys	-11.6671
▁Community	-11.6672
▁enlarged	-11.6673
▁correlation	-11.6674
▁barrier	-11.6675
▁distinguishing	-11.6675
qui	-11.6678
dustrialization	-11.6685
本	-11.6685
▁Galbraith	-11.6692
▁collectively	-11.6693
▁fishing	-11.6694
▁Costs	-11.6695
▁incredible	-11.6697
▁removing	-11.6697
▁excited	-11.6698
▁dictate	-11.6699
▁posed	-11.67
0,000	-11.67
▁crusade	-11.6706
▁repealed	-11.6709
▁assembled	-11.6712
▁options	-11.6713
▁Halifax	-11.6713
▁Tradition	-11.6716
property	-11.6721
Gold	-11.6722
▁relate	-11.6726
▁Workers	-11.6732
▁bore	-11.6733
▁afterward	-11.6734
▁recover	-11.6737
▁clever	-11.674
▁estimation	-11.6742
▁cult	-11.6744
▁confess	-11.6744
▁Fourier	-11.6745
Hill	-11.675
Like	-11.675
▁fourteen	-11.6752
▁Valley	-11.6753
school	-11.6754
▁helpless	-11.6755
▁seed	-11.6756
▁Me	-11.6757
▁glorious	-11.6758
▁handful	-11.676
▁fulfillment	-11.6763
▁Positive	-11.6763
▁mountains	-11.6765
▁ascribe	-11.6767
▁oppressive	-11.6769
▁solidarity	-11.6769
▁1951	-11.6771
▁bomb	-11.6772
▁democracies	-11.6774
▁sweet	-11.6774
▁Bryan	-11.6775
▁sentences	-11.6777
▁park	-11.6778
▁sharing	-11.6778
▁119	-11.6779
▁encourages	-11.6779
▁Letter	-11.678
yn	-11.678
through	-11.678
▁reflecting	-11.6781
▁ride	-11.6784
▁prewar	-11.6784
▁circulated	-11.6785
▁succeeding	-11.6791
▁suspected	-11.6792
▁neighboring	-11.6798
▁Did	-11.6798
▁performs	-11.6804
▁commissioners	-11.6806
▁editors	-11.6807
established	-11.681
▁speculations	-11.6811
▁erected	-11.6813
▁Apart	-11.6813
▁relieved	-11.6815
▁inclination	-11.6815
▁inference	-11.6815
▁admirable	-11.6816
▁adapt	-11.6816
ping	-11.6826
maker	-11.6827
▁Continent	-11.6832
▁controversial	-11.6832
ik	-11.6832
▁cat	-11.6833
▁traits	-11.6834
▁Cycles	-11.6835
▁180	-11.6836
▁illuminating	-11.6837
▁inspection	-11.6837
▁Nobel	-11.6838
Monetary	-11.6838
World	-11.6838
▁partnership	-11.6839
▁Truth	-11.6842
▁Changes	-11.6843
▁detrimental	-11.6845
▁circular	-11.6847
▁drafted	-11.6855
▁rental	-11.6857
▁hinder	-11.6858
▁Harcourt	-11.6861
▁Davis	-11.6863
▁supervision	-11.6865
▁foodstuffs	-11.6865
▁unstable	-11.6865
▁parliament	-11.687
▁formulate	-11.687
▁qualification	-11.6872
sen	-11.6872
▁zone	-11.6873
post	-11.6874
▁discounts	-11.6876
life	-11.6876
▁manifested	-11.6877
▁impair	-11.6879
▁burst	-11.688
▁Few	-11.688
▁Stanley	-11.6881
▁tough	-11.6882
▁vacation	-11.6884
cit	-11.6885
▁foster	-11.6887
▁forests	-11.6887
▁totality	-11.6889
▁communicate	-11.6889
▁harmonious	-11.689
_____________	-11.689
▁1923,	-11.6891
fi	-11.6893
▁resumption	-11.6893
▁upswing	-11.6893
▁Movement	-11.6897
val	-11.6897
▁outlawed	-11.6897
▁deem	-11.6899
▁emphasizes	-11.6899
▁purchasers	-11.69
▁recipient	-11.6901
▁unconscious	-11.6902
▁exempt	-11.6902
▁surprisingly	-11.6904
ck	-11.6912
.25	-11.6913
makers	-11.6914
▁exploiting	-11.6915
▁Id	-11.6917
▁Marxians	-11.692
▁Fathers	-11.6926
▁pulled	-11.6928
▁organ	-11.6931
▁prosper	-11.6935
▁liberation	-11.6936
rr	-11.6938
▁74	-11.6938
▁elect	-11.694
▁disutility	-11.6945
▁altruistic	-11.6949
▁stopping	-11.6951
▁Open	-11.6951
▁Richter	-11.6951
▁diminishes	-11.6953
[9]	-11.6954
▁Alan	-11.6954
▁garden	-11.6957
▁1923.	-11.6957
▁Up	-11.6958
▁ring	-11.696
za	-11.696
▁gather	-11.6966
▁admittedly	-11.6968
progressive	-11.6969
▁risky	-11.697
red	-11.6973
▁intertemporal	-11.6978
▁viable	-11.6979
▁preclude	-11.6979
▁speaker	-11.698
▁heirs	-11.6981
▁Bible	-11.6982
fixing	-11.6985
Vienna	-11.6986
▁readjustment	-11.6987
▁cling	-11.6988
▁163	-11.6988
▁cards	-11.6988
about	-11.699
▁obsolete	-11.699
▁communications	-11.6996
▁1947	-11.6997
▁yard	-11.6997
▁Meanwhile	-11.7
▁random	-11.7
▁arisen	-11.7002
▁mess	-11.7003
▁immaterial	-11.7003
▁disappears	-11.7004
▁Whenever	-11.7006
▁hostilities	-11.7007
▁irreconcilable	-11.7007
▁practicable	-11.7007
▁submission	-11.7007
▁lady	-11.7009
▁contemplated	-11.701
▁preface	-11.7011
▁depressed	-11.7011
▁acre	-11.7014
▁117	-11.7015
ily	-11.7017
▁infer	-11.7018
▁invalid	-11.7018
▁engineers	-11.702
▁Failure	-11.7021
▁Saturday	-11.7021
▁dictates	-11.703
▁Secondly	-11.7033
consumption	-11.7034
▁guiding	-11.7036
▁throwing	-11.7038
▁insured	-11.704
▁unto	-11.704
▁Garrison	-11.7041
part	-11.7041
▁kitchen	-11.7044
▁expediency	-11.7044
▁Evolution	-11.7046
▁handled	-11.7048
▁components	-11.7048
價格	-11.7048
▁protested	-11.705
▁finish	-11.7051
▁edge	-11.7051
12.	-11.7052
▁painting	-11.7052
▁attaining	-11.7057
▁afforded	-11.7058
mp	-11.7059
▁deeds	-11.706
▁violating	-11.7064
ere	-11.7066
▁Utopia	-11.7069
▁hint	-11.7071
▁clearer	-11.7071
▁equalization	-11.7071
▁Manhattan	-11.7076
▁inflow	-11.7085
▁sincere	-11.7087
▁dissolution	-11.7093
▁Timberlake	-11.7094
▁Rule	-11.7095
▁ascertain	-11.7098
▁confirm	-11.7103
▁chains	-11.7107
▁Schmoller	-11.7108
▁livres	-11.711
▁Daily	-11.7112
▁scorn	-11.7117
▁hesitate	-11.7118
▁approximate	-11.7119
▁straightforward	-11.7122
▁involvement	-11.7124
▁exceedingly	-11.7125
86	-11.7126
▁vigorously	-11.7128
▁lunch	-11.7132
▁140	-11.7135
▁curb	-11.7138
Instead	-11.7138
town	-11.7144
▁ceteris	-11.7144
▁holder	-11.7145
▁tons	-11.7146
▁Kenneth	-11.7147
▁exercising	-11.7151
▁contributing	-11.7151
▁Elgar	-11.7151
▁broker	-11.7152
-1	-11.7152
▁aggravated	-11.7154
6,	-11.7154
▁industrialists	-11.7157
▁Whoever	-11.7157
▁aggregates	-11.7158
▁Penn	-11.716
type	-11.7161
▁FEE	-11.7162
ud	-11.7163
▁frontiers	-11.7163
▁positivist	-11.7165
▁Wells	-11.7171
▁embargo	-11.7178
▁eighteen	-11.7179
▁spirits	-11.7179
▁Fleet	-11.718
▁destiny	-11.718
▁tacitly	-11.7184
▁Non	-11.7187
▁Sch	-11.7187
America	-11.719
▁prevalent	-11.719
所	-11.7191
▁suicide	-11.7192
▁battles	-11.7193
ran	-11.7194
▁whoever	-11.7196
▁Hicks	-11.72
▁affirmative	-11.7201
▁empirically	-11.7203
▁Indianapolis	-11.7204
▁denouncing	-11.7209
▁1917	-11.7212
▁frequency	-11.7212
▁joining	-11.7212
▁1976	-11.7214
▁tolerated	-11.7214
▁denounce	-11.7215
▁dared	-11.7216
▁novels	-11.7218
▁persecution	-11.7219
▁suggesting	-11.722
▁hungry	-11.7227
▁abolishing	-11.723
▁renewal	-11.7231
▁91	-11.7232
▁patriotic	-11.7233
▁diet	-11.7234
▁minimize	-11.7234
.18	-11.7236
▁founders	-11.7239
▁Commonwealth	-11.7239
▁embraced	-11.7245
▁sway	-11.7245
El	-11.7247
employment	-11.7251
.19	-11.7252
95	-11.7257
▁distribute	-11.7257
bourgeois	-11.7259
utility	-11.7259
mises	-11.7259
mar	-11.7262
▁nervous	-11.7263
▁Shaw	-11.7264
net	-11.7265
▁wicked	-11.7267
▁entrance	-11.7268
▁delegation	-11.7268
▁Several	-11.7268
▁distorted	-11.7268
▁reliance	-11.7269
ble	-11.727
▁(2	-11.7272
▁differentiation	-11.728
▁Amsterdam	-11.7281
▁Country	-11.7289
▁thereof	-11.729
▁Critical	-11.729
▁merger	-11.7292
ER	-11.7292
▁stuck	-11.7297
▁Brace	-11.7298
▁§	-11.7298
▁corrected	-11.7299
act	-11.73
▁gang	-11.7302
▁IMF	-11.7304
▁fathers	-11.7306
▁Protection	-11.7308
▁witnessed	-11.7308
▁tyrant	-11.7308
▁inventor	-11.7308
▁promoters	-11.7308
▁Captain	-11.731
ez	-11.731
▁Structure	-11.7313
rational	-11.7315
▁Volume	-11.7315
▁inform	-11.7318
▁clarify	-11.7318
[10]	-11.7318
▁phrases	-11.7319
democracy	-11.7321
▁truck	-11.7322
▁dance	-11.7322
▁blessings	-11.7323
Over	-11.7324
▁appraisal	-11.7324
▁q	-11.7324
▁outline	-11.7325
▁excitement	-11.7327
▁Total	-11.7329
資	-11.733
▁desperately	-11.7333
▁overwhelmingly	-11.7335
Other	-11.7336
▁loyal	-11.7336
▁shadow	-11.7337
▁identification	-11.734
▁disturb	-11.7342
▁Executive	-11.7343
▁depth	-11.7346
▁trader	-11.7346
▁Enlightenment	-11.7347
Oxford	-11.7352
George	-11.7353
▁vastly	-11.7354
▁Orleans	-11.7356
trust	-11.7358
▁tenets	-11.7358
▁Antitrust	-11.7359
▁Rockwell	-11.7359
▁honesty	-11.7364
▁liquidated	-11.7364
▁1925	-11.7365
▁123	-11.7366
▁clergy	-11.7367
▁plainly	-11.7367
▁manifestation	-11.7369
▁lords	-11.7371
▁contributes	-11.7376
▁modify	-11.7378
while	-11.738
▁spare	-11.7382
▁10,000	-11.7383
▁Major	-11.7383
Böhm	-11.7383
▁judging	-11.7383
▁rejecting	-11.7384
▁deductive	-11.7386
▁petroleum	-11.7386
▁disappointed	-11.7387
▁god	-11.7389
▁invaded	-11.7389
▁feudalism	-11.739
▁aroused	-11.739
▁Sombart	-11.739
▁outflow	-11.7391
▁governors	-11.7391
these	-11.7391
ii	-11.7393
fold	-11.7396
▁(4)	-11.7398
▁1986	-11.7399
lay	-11.7399
▁centrally	-11.74
▁evaluate	-11.741
▁96	-11.7411
▁seeds	-11.7412
ew	-11.7412
Co	-11.7412
▁adjusting	-11.7415
▁deterioration	-11.7416
▁misled	-11.7416
▁pietist	-11.7418
▁civilizations	-11.7421
▁86	-11.7423
▁impulses	-11.7425
▁males	-11.7429
▁abstraction	-11.7429
▁1971.	-11.743
▁secretly	-11.7435
▁rested	-11.7437
▁noise	-11.7438
Don	-11.7439
▁Munich	-11.7439
如果	-11.744
▁47	-11.744
▁divisions	-11.744
▁Home	-11.7442
▁1981)	-11.7445
satisfaction	-11.7445
▁Rate	-11.7445
James	-11.7445
British	-11.7445
▁wives	-11.7446
▁teeth	-11.7446
di	-11.7448
car	-11.7448
▁individualistic	-11.7451
▁Haberler	-11.7453
▁Naturally	-11.7454
▁breach	-11.7455
▁Soviets	-11.7457
能	-11.7457
ec	-11.7458
▁cleared	-11.7459
IT	-11.7465
▁comprehension	-11.7467
▁155	-11.7468
▁Nozick	-11.7468
▁cool	-11.7469
▁Spooner	-11.7469
▁benevolent	-11.7472
▁channel	-11.7473
▁Regulation	-11.7475
▁intermediary	-11.7475
▁shipped	-11.7476
▁149	-11.7482
▁anew	-11.7484
▁stance	-11.7484
▁93	-11.7486
▁hearings	-11.7488
▁151	-11.749
▁calculating	-11.749
▁potatoes	-11.7491
▁advisers	-11.7491
▁hampered	-11.7493
▁Tullock	-11.7494
▁thirteen	-11.7495
▁TO	-11.7497
▁adults	-11.7497
▁invent	-11.7501
tal	-11.7502
▁springs	-11.7503
?)	-11.7503
▁yearly	-11.7505
▁beneath	-11.7505
▁Fritz	-11.7506
▁poetry	-11.7506
-19	-11.7506
▁Individualism	-11.7507
▁revived	-11.7508
▁laboratory	-11.7509
▁1850	-11.7512
mes	-11.7513
ition	-11.7513
theory	-11.7514
▁wisely	-11.7518
▁hunter	-11.752
▁Sennholz	-11.7521
▁Pro	-11.7524
▁fat	-11.7528
▁Arlington	-11.7535
▁divert	-11.7535
▁allegiance	-11.7536
▁inescapable	-11.7536
▁reluctance	-11.7536
Whether	-11.754
▁Klein	-11.7541
▁tale	-11.7542
▁1932)	-11.7543
▁flourishing	-11.7544
may	-11.7545
ique	-11.755
▁Printing	-11.7556
▁indulge	-11.7562
▁1927	-11.7564
▁biography	-11.7566
ide	-11.7567
▁adventure	-11.7567
▁cheapest	-11.7568
▁hyperinflation	-11.7571
▁1900	-11.7574
▁mad	-11.7574
▁accorded	-11.7576
▁offense	-11.758
▁recommendation	-11.7581
▁waged	-11.7582
ments	-11.7583
▁involuntary	-11.7587
▁exercises	-11.7588
▁Abraham	-11.7589
.22	-11.759
▁shrewd	-11.7591
▁thief	-11.7596
▁verdict	-11.7596
▁theological	-11.7602
▁conducive	-11.7607
ue	-11.7608
▁weights	-11.7613
▁centered	-11.7616
▁Yugoslavia	-11.7618
▁1934	-11.7618
ich	-11.7623
▁paradoxical	-11.7623
▁Popper	-11.7624
▁covers	-11.7626
▁demonstrating	-11.7627
▁repetition	-11.7627
▁dictum	-11.7627
▁introducing	-11.7627
▁Norton	-11.7628
paid	-11.7632
▁agreeable	-11.7632
▁Manchester	-11.7634
▁meal	-11.7635
▁ally	-11.7638
antamount	-11.7639
▁artistic	-11.7641
▁1926	-11.7642
asmuch	-11.7644
▁poet	-11.7645
▁42	-11.7647
▁civilians	-11.7648
▁1940.	-11.7656
▁Austro	-11.7657
▁electoral	-11.7658
iness	-11.766
▁beach	-11.7663
ab	-11.7663
▁discusses	-11.7664
pay	-11.7665
▁Bacon	-11.7667
▁Ed	-11.7667
Modern	-11.7667
▁Anyone	-11.767
▁guests	-11.767
▁autarky	-11.7671
▁Profits	-11.7671
ning	-11.7673
▁analyses	-11.7678
▁mercantile	-11.7682
▁troubled	-11.7684
▁Quite	-11.7686
▁52	-11.7686
▁Likewise	-11.7687
Can	-11.7689
▁habitually	-11.769
party	-11.7694
▁Alabama	-11.7701
▁Mont	-11.7702
▁coordinate	-11.7703
▁Iowa	-11.7705
▁laying	-11.7705
▁1971)	-11.7706
▁spell	-11.7708
▁successors	-11.771
▁Vermont	-11.7713
▁clauses	-11.7715
▁beginnings	-11.7719
▁remarkably	-11.7719
▁250	-11.7722
▁nomination	-11.7723
▁doubted	-11.7723
▁participating	-11.7724
▁protests	-11.7727
▁establishments	-11.7728
▁threatens	-11.7731
▁Panic	-11.7731
▁silk	-11.7733
▁adviser	-11.7734
▁Ro	-11.7735
▁greatness	-11.7737
historical	-11.7738
▁waves	-11.7739
▁Ten	-11.774
▁sacrificed	-11.7741
▁9.	-11.7741
▁mild	-11.7742
▁Attack	-11.7742
▁unanimous	-11.7744
▁Year	-11.7746
dy	-11.7747
OR	-11.7747
▁accuracy	-11.7749
▁Grew	-11.7749
▁rubber	-11.7749
▁44	-11.7755
▁barrel	-11.7755
▁stops	-11.7757
▁waters	-11.7761
Robert	-11.7763
should	-11.7763
▁Detroit	-11.7764
▁barrels	-11.7765
▁legitimately	-11.7767
▁1945,	-11.7767
▁bombing	-11.7773
▁ineffective	-11.7774
Con	-11.7775
▁Representative	-11.7775
▁Point	-11.7778
▁contingent	-11.778
▁dividing	-11.778
▁satisfactorily	-11.778
AN	-11.7784
▁110	-11.7787
▁resorting	-11.7789
▁400	-11.779
▁enhance	-11.779
▁understandable	-11.7791
▁subjectivism	-11.7792
▁104	-11.7793
▁epoch	-11.7794
▁dwell	-11.78
▁Pittsburgh	-11.7802
▁grandfather	-11.7803
▁1840	-11.7804
elle	-11.7807
ski	-11.7808
▁irresistible	-11.7811
▁biology	-11.7811
▁miserable	-11.7811
▁Calhoun	-11.7811
▁postulates	-11.7812
▁quarrel	-11.7813
▁reservation	-11.7813
▁intervals	-11.7818
▁stealing	-11.7821
▁handling	-11.7823
▁expose	-11.7823
ha	-11.7823
▁forthcoming	-11.7826
▁intolerable	-11.7828
science	-11.7828
▁catallactics	-11.7828
(3)	-11.7829
ot	-11.783
▁1927.	-11.783
▁wearing	-11.7831
▁1928,	-11.7833
head	-11.7837
▁influencing	-11.7838
round	-11.784
▁crack	-11.784
▁Sumter	-11.7842
▁intact	-11.7842
▁committing	-11.7842
▁implement	-11.7843
▁frustrated	-11.7844
▁mystical	-11.7844
▁birthday	-11.7844
▁Population	-11.7845
▁$1,000	-11.7846
▁postponed	-11.7846
▁missed	-11.7847
▁outward	-11.7853
ado	-11.7855
▁nationalized	-11.7855
▁Adm	-11.7856
▁expedition	-11.7858
▁appoint	-11.7859
▁Richardson	-11.786
▁filling	-11.7863
▁Ferguson	-11.7863
▁fabric	-11.7868
▁1919,	-11.7869
▁shake	-11.7869
▁sink	-11.7871
ney	-11.7872
▁enact	-11.7872
▁poorly	-11.7873
▁injurious	-11.7873
▁throne	-11.7873
,000,000,000	-11.7873
▁admitting	-11.7874
▁Charleston	-11.7875
▁munitions	-11.7877
▁preferable	-11.7877
▁inconceivable	-11.7878
▁156	-11.7878
▁counterfeit	-11.7878
▁diverted	-11.7879
▁orthodoxy	-11.788
▁beforehand	-11.7882
▁delusion	-11.7883
94	-11.7885
loss	-11.7885
gi	-11.7886
▁emperor	-11.7889
.”3	-11.7893
take	-11.7896
▁progressively	-11.7897
▁cope	-11.7898
water	-11.7898
▁impoverishment	-11.7904
▁76	-11.7905
▁integral	-11.7906
▁instituted	-11.7908
▁managerial	-11.7909
▁talks	-11.791
▁tribal	-11.7912
▁1949)	-11.7918
▁stations	-11.7921
▁shaped	-11.7926
Nevertheless	-11.7926
Again	-11.7927
▁caution	-11.7927
▁153	-11.7929
than	-11.7931
die	-11.7931
▁Compare	-11.7931
行	-11.7934
▁indicating	-11.7935
▁curiosity	-11.7936
▁spectacle	-11.7936
▁residence	-11.7936
▁noteworthy	-11.7936
▁metaphor	-11.7938
▁111	-11.7942
▁tolerance	-11.7943
▁1879	-11.7944
▁grass	-11.7948
▁131	-11.795
▁redeemed	-11.795
▁humanitarian	-11.7951
▁discriminatory	-11.7953
History	-11.7959
laws	-11.7966
▁lottery	-11.7967
▁substituting	-11.7967
▁map	-11.7967
conservative	-11.7969
▁reproduction	-11.797
▁abstain	-11.797
▁intercourse	-11.7971
▁rivers	-11.7971
uc	-11.7973
▁Cuba	-11.7979
▁1993	-11.7981
▁58	-11.7982
mb	-11.7985
▁specially	-11.7986
▁pioneer	-11.7988
▁Experience	-11.7989
tes	-11.7989
▁philosophic	-11.799
▁unduly	-11.799
induced	-11.7992
▁Cobden	-11.7995
▁expands	-11.7997
▁impetus	-11.7999
▁testified	-11.7999
▁proposing	-11.7999
▁displaced	-11.8001
▁constrained	-11.8005
▁appealing	-11.8007
▁Wirtschafts	-11.8008
▁Iran	-11.8011
▁orbit	-11.8012
▁1927,	-11.8012
▁Quaker	-11.8013
▁100,000	-11.8015
▁1944	-11.8017
▁148	-11.8023
▁goodness	-11.8024
increasing	-11.8027
▁159	-11.8027
system	-11.8028
CHAPTER	-11.803
step	-11.803
▁beneficence	-11.803
▁robbed	-11.803
▁beside	-11.8032
▁proclaim	-11.8035
▁Ge	-11.8035
_____.	-11.8038
▁Ayn	-11.804
▁parcel	-11.8041
▁PPM	-11.8044
ek	-11.8045
▁discovering	-11.8045
▁disputed	-11.8045
▁$20	-11.8045
che	-11.8046
high	-11.8047
▁flourish	-11.8047
deposit	-11.8048
▁journalist	-11.8049
▁rebel	-11.8049
▁Bauer	-11.8051
▁purposive	-11.8053
light	-11.8053
▁principally	-11.8054
▁schooling	-11.8056
▁grace	-11.8057
▁postpone	-11.8058
▁McGraw	-11.8062
▁beloved	-11.8062
▁concluding	-11.8062
▁enlarge	-11.8063
▁Hayekian	-11.8064
▁conquer	-11.8066
▁unintended	-11.8067
don	-11.8068
▁diamonds	-11.8068
▁1979	-11.8068
Are	-11.807
▁dimension	-11.8075
▁Turkey	-11.8075
▁interstate	-11.8076
ile	-11.8077
▁unreasonable	-11.8079
material	-11.808
▁dividend	-11.8081
▁attending	-11.8082
▁Count	-11.8082
▁specialists	-11.8082
▁Pigou	-11.8089
▁plentiful	-11.809
▁capacities	-11.8094
▁interior	-11.8094
▁Gulf	-11.8094
▁dissatisfaction	-11.8094
▁secondly	-11.8096
▁predominantly	-11.8096
▁Jonathan	-11.81
▁plight	-11.8104
▁Queen	-11.8105
▁Vi	-11.8106
sel	-11.8108
▁Letters	-11.811
▁responses	-11.8113
ory	-11.8113
▁susceptible	-11.8114
▁Geschichte	-11.8116
▁Woodrow	-11.8119
[11]	-11.8119
▁exporting	-11.812
▁fond	-11.8121
▁ambitions	-11.8121
▁mentions	-11.8122
Editor	-11.8124
uff	-11.8124
[12]	-11.8126
▁violations	-11.8127
▁boost	-11.8128
higher	-11.8128
standing	-11.8129
▁accommodate	-11.8135
▁paint	-11.8136
▁cow	-11.814
▁Legal	-11.814
▁definitive	-11.8141
▁renounce	-11.8141
▁smile	-11.8142
▁clash	-11.8143
▁dawn	-11.8144
▁ballot	-11.8146
▁Everybody	-11.8153
▁damages	-11.8156
▁loaf	-11.8157
▁diplomacy	-11.8158
▁dissertation	-11.8158
▁expounded	-11.816
▁faulty	-11.8163
▁souls	-11.8166
▁characterizes	-11.8167
▁71	-11.8169
▁pamphlets	-11.8171
ker	-11.8174
▁influx	-11.8175
▁uniformly	-11.8176
▁tear	-11.8176
▁disciple	-11.8177
▁intellectually	-11.8181
▁sites	-11.8182
▁reads	-11.8184
▁finances	-11.8187
▁143	-11.8189
▁reversal	-11.819
▁Soto	-11.8191
.’”	-11.8192
modern	-11.8192
Ethics	-11.8192
▁inferiority	-11.8192
▁egalitarianism	-11.8192
▁witnesses	-11.8193
▁foreseen	-11.8195
▁dictated	-11.8195
▁snow	-11.8195
gan	-11.8202
▁duly	-11.8202
▁subsidiary	-11.8203
▁arriving	-11.8203
▁Swedish	-11.8204
▁confuse	-11.8205
▁uniquely	-11.8209
eight	-11.8209
▁8.	-11.821
▁exertion	-11.821
▁attraction	-11.8211
.21	-11.8218
▁execute	-11.8218
▁compliance	-11.8222
▁rigidity	-11.8224
▁1970)	-11.8225
▁115	-11.8225
created	-11.8227
taking	-11.8228
ino	-11.8228
▁1953)	-11.8234
▁chart	-11.8234
▁resting	-11.8234
▁trap	-11.8236
▁125	-11.8237
▁emotion	-11.8238
▁exchangeable	-11.8239
▁Art	-11.8241
▁confront	-11.8245
▁Myth	-11.8245
av	-11.8245
▁wonders	-11.8245
▁Harris	-11.8248
▁resume	-11.8251
▁frozen	-11.8254
▁Academy	-11.8255
▁populace	-11.8255
▁impending	-11.8255
▁Dodd	-11.8255
▁VIII	-11.826
Still	-11.826
Law	-11.8261
▁adaptation	-11.8261
liche	-11.8266
▁jump	-11.8266
▁injure	-11.8272
▁narrowly	-11.8272
▁pig	-11.8272
▁1966)	-11.8276
ba	-11.8277
▁crazy	-11.8277
▁friction	-11.8277
▁succeeds	-11.8279
▁dispatch	-11.828
▁passionate	-11.8283
▁user	-11.8286
▁inventories	-11.8288
▁Negroes	-11.8289
▁Schwartz	-11.8289
▁1962)	-11.829
▁Wright	-11.8291
▁Antifederalist	-11.8293
▁shooting	-11.8293
▁imputation	-11.8294
Public	-11.8294
wood	-11.8295
▁172	-11.8295
ris	-11.83
▁Reverend	-11.83
▁continuity	-11.8302
▁journalists	-11.8302
▁villages	-11.8308
▁parasitic	-11.8311
▁floating	-11.8314
▁Ministry	-11.832
▁restoring	-11.832
▁confirmation	-11.8321
▁startling	-11.8322
▁Principle	-11.8322
par	-11.8326
▁wheel	-11.8327
Meanwhile	-11.8328
▁welcomed	-11.8328
Ed	-11.8328
▁wherein	-11.8329
▁1956	-11.8329
▁170	-11.8335
▁rationalism	-11.8338
▁Harrison	-11.8343
tur	-11.8344
▁ha	-11.8352
▁ensuing	-11.8352
▁Unlike	-11.8356
▁leg	-11.8357
Your	-11.8358
▁hopelessly	-11.8359
lic	-11.8364
▁spectacular	-11.8365
lived	-11.8368
▁award	-11.8377
▁es	-11.8378
▁reconcile	-11.8381
▁Wallace	-11.8384
▁1800	-11.8384
▁bag	-11.8384
▁denominator	-11.8385
▁145	-11.8388
▁1991	-11.8393
▁Tribune	-11.8393
▁83	-11.8395
welfare	-11.8397
▁Su	-11.8398
▁hoard	-11.84
▁warnings	-11.8401
▁1962	-11.8402
▁Greeks	-11.8405
▁exaggeration	-11.8406
▁classroom	-11.8408
▁Ben	-11.8411
▁Future	-11.8412
▁arch	-11.8414
14.	-11.8414
▁inflicted	-11.8416
9,	-11.8418
▁facility	-11.8418
▁shoulders	-11.8418
▁Les	-11.842
.24	-11.842
▁IX	-11.8421
▁withholding	-11.8421
▁managing	-11.8422
▁explore	-11.8423
▁budgets	-11.8423
▁Newton	-11.8432
▁tested	-11.8437
可以	-11.8446
▁Robertson	-11.8447
▁grateful	-11.8447
decentralization	-11.8451
▁outlay	-11.8451
▁disinterested	-11.8451
▁ranked	-11.8454
true	-11.8454
▁Foundations	-11.8456
▁contrasts	-11.8459
▁perish	-11.8462
▁moments	-11.8469
▁institute	-11.8469
)—	-11.8472
▁Krupp	-11.8472
▁Brazil	-11.8472
▁cherished	-11.8474
▁Class	-11.8475
▁naked	-11.8477
▁scrutiny	-11.8484
▁franchise	-11.8486
▁aspirations	-11.8486
▁reporting	-11.8488
industrial	-11.8489
▁voices	-11.8493
ron	-11.8493
▁temper	-11.8494
▁consult	-11.8495
▁Molinari	-11.8498
EN	-11.85
clearing	-11.8503
pl	-11.8503
▁richest	-11.8505
▁identifying	-11.8505
both	-11.8506
▁colleague	-11.8507
▁peacefully	-11.8508
▁141	-11.8508
▁Jacksonian	-11.8516
▁laugh	-11.8516
▁negotiate	-11.8517
▁Earl	-11.8517
▁leather	-11.8517
▁tracts	-11.8518
▁Series	-11.8518
▁readiness	-11.8518
gue	-11.8521
▁symptoms	-11.8523
▁greenbacks	-11.8523
13.	-11.8525
▁opera	-11.8529
very	-11.8529
▁56	-11.8532
▁chaotic	-11.8534
▁selfishness	-11.8534
volume	-11.8535
Great	-11.8536
Christian	-11.8536
nothing	-11.8537
▁waited	-11.8539
▁Rogers	-11.8539
▁revelation	-11.854
▁odds	-11.8542
▁appearing	-11.8544
unless	-11.8548
▁drama	-11.855
▁embodiment	-11.8551
▁Lionel	-11.8551
▁starving	-11.8551
▁intersection	-11.8551
▁rivalry	-11.8552
▁colleges	-11.8553
▁utilize	-11.8557
▁conceal	-11.8557
▁Sumner	-11.8559
▁macro	-11.8561
▁1952	-11.8561
▁Butler	-11.8564
▁99	-11.8565
▁akin	-11.857
▁1959	-11.8571
Henry	-11.8571
▁resolutions	-11.8574
▁differed	-11.8575
▁lumber	-11.858
▁capitalized	-11.8583
▁indebted	-11.8583
▁Making	-11.8584
▁chemistry	-11.8584
▁artists	-11.8586
▁subordination	-11.8586
▁revolutionaries	-11.8587
▁Staat	-11.8587
▁admired	-11.8587
▁Verlag	-11.8587
▁$35	-11.8588
▁priority	-11.8588
▁Berkeley	-11.859
▁fur	-11.859
▁constraints	-11.8593
▁suspicious	-11.8594
▁73	-11.8596
▁coupled	-11.8598
▁leap	-11.8599
▁crippling	-11.8601
▁1990.	-11.8601
ford	-11.8602
▁collecting	-11.8603
▁assess	-11.8606
▁operative	-11.861
▁slaughter	-11.8611
▁Friday	-11.8613
ott	-11.8614
▁heritage	-11.8618
▁storage	-11.8618
▁varieties	-11.8618
▁bars	-11.8625
▁Korean	-11.8625
▁guilds	-11.8628
▁traces	-11.8629
▁heterogeneous	-11.863
▁UN	-11.8633
▁guild	-11.8636
▁ambiguous	-11.8636
▁ensue	-11.8637
▁drift	-11.864
▁smell	-11.8641
▁oath	-11.8641
▁legislator	-11.8641
▁simpler	-11.8642
Due	-11.8643
▁marry	-11.8643
▁stamped	-11.8644
[13]	-11.8645
▁Geld	-11.8649
rat	-11.8649
▁1971	-11.865
▁stroke	-11.8651
▁autumn	-11.8651
▁Revolt	-11.8651
▁narrative	-11.8651
▁majorities	-11.8655
▁differing	-11.8657
range	-11.8658
▁NLRB	-11.866
▁Taxes	-11.8662
▁subjection	-11.8663
▁reckless	-11.8665
▁dictators	-11.8667
art	-11.8669
▁72	-11.8671
ING	-11.8671
▁presuppose	-11.8672
open	-11.8674
▁Congressman	-11.8675
▁modification	-11.8675
sic	-11.8676
▁Poverty	-11.8677
▁124	-11.8678
▁Th	-11.868
▁En	-11.868
▁Aldrich	-11.8681
▁enabl	-11.8682
▁energetic	-11.8685
▁proving	-11.8689
▁1926,	-11.869
15.	-11.8695
▁wit	-11.8695
▁exceeding	-11.8708
這些	-11.8708
▁computation	-11.8709
LE	-11.871
▁Inter	-11.8713
▁needless	-11.8714
rather	-11.8716
因	-11.8718
▁Buckley	-11.8718
▁buried	-11.8719
▁preparations	-11.872
▁cartelization	-11.872
ack	-11.872
internationalism	-11.8722
▁shouldn	-11.8722
▁overnight	-11.8723
▁1948)	-11.8725
▁mix	-11.8726
▁1934)	-11.8727
▁preposterous	-11.8731
▁indebtedness	-11.8733
▁patients	-11.8733
他	-11.8736
▁bow	-11.8737
style	-11.8739
▁Car	-11.874
▁cigarettes	-11.8741
▁maximization	-11.8743
▁auction	-11.8743
▁Ta	-11.8743
ub	-11.8744
▁sins	-11.8744
▁1954	-11.8747
▁Basic	-11.875
hu	-11.8755
▁Knies	-11.8755
len	-11.8758
▁fostered	-11.8759
▁Lake	-11.8761
▁centre	-11.8761
▁manual	-11.8762
▁forbid	-11.8763
▁bull	-11.8764
▁ratified	-11.8766
▁maximizing	-11.8767
▁decidedly	-11.8768
▁surrendered	-11.8768
▁1978.	-11.8769
▁Mayer	-11.8769
▁shrink	-11.8769
▁weigh	-11.877
▁Spirit	-11.8772
lar	-11.8773
▁murdered	-11.8774
▁additions	-11.8774
▁invite	-11.8777
▁pretext	-11.8778
▁veteran	-11.8778
▁characterize	-11.8778
▁Albany	-11.8783
▁retaining	-11.8784
▁materialistic	-11.8787
▁precarious	-11.8787
▁struggling	-11.8787
▁deferred	-11.8787
ven	-11.8788
▁1998)	-11.8791
▁Throughout	-11.8797
▁extravagant	-11.8799
▁cup	-11.88
▁fake	-11.8801
▁counting	-11.8802
▁1935	-11.8804
▁1820	-11.8805
▁Cannan	-11.8807
▁Literature	-11.8808
▁Nelson	-11.881
▁adhere	-11.8811
▁bushel	-11.8813
▁qualify	-11.8813
▁61	-11.8814
bi	-11.8816
owners	-11.8817
▁links	-11.8819
▁coat	-11.8819
▁unanimity	-11.882
▁myriad	-11.8821
▁unpredictable	-11.8822
▁childhood	-11.8822
▁XIV	-11.8824
▁mechanisms	-11.8824
▁rediscount	-11.8827
ock	-11.883
▁crushing	-11.8833
▁Sociology	-11.8835
God	-11.8835
▁pessimism	-11.8835
▁Food	-11.8838
▁Hugh	-11.8845
▁Building	-11.8849
▁w	-11.8853
▁Fred	-11.8855
Schumpeter	-11.8855
▁sunk	-11.8857
total	-11.8858
▁elderly	-11.8858
▁resigned	-11.8861
▁picketing	-11.8861
▁constraint	-11.8863
upon	-11.8865
▁Liberals	-11.8869
▁luxuries	-11.887
▁Kuhn	-11.8871
▁scrap	-11.8872
▁Mind	-11.8872
▁treasure	-11.8873
▁curse	-11.8875
▁consolidation	-11.8876
▁contemplate	-11.8878
▁aesthetic	-11.8879
[14]	-11.8884
▁Marginal	-11.8886
▁evade	-11.8887
▁pile	-11.8889
FIGURE	-11.889
▁Confidential	-11.889
▁paradise	-11.889
▁emigration	-11.889
▁unowned	-11.8892
▁ears	-11.8894
tan	-11.8895
▁Change	-11.8896
▁illusions	-11.8896
▁Carroll	-11.8897
▁198	-11.8899
▁regression	-11.8899
mi	-11.89
▁forecasts	-11.8903
▁Wood	-11.8903
▁108	-11.8905
▁railways	-11.8906
▁Brothers	-11.8906
ah	-11.8909
ade	-11.891
▁Barnes	-11.891
▁Gazette	-11.8911
▁accrue	-11.8913
▁finger	-11.8915
▁speculate	-11.8921
▁128	-11.8924
▁flaws	-11.8925
▁Saddam	-11.8925
▁Staff	-11.8925
▁complications	-11.8927
▁interrupted	-11.8927
▁Statistical	-11.8928
Everyone	-11.8928
▁repercussions	-11.893
▁rationalist	-11.8933
▁flowers	-11.8933
▁blocked	-11.8935
▁slump	-11.8943
▁nobles	-11.8944
▁Institution	-11.8947
Part	-11.8947
▁pension	-11.8948
▁professions	-11.895
5,000	-11.8951
▁1922,	-11.8952
.”—	-11.8953
▁concomitant	-11.8956
▁heading	-11.8956
▁Dreadwind	-11.8956
▁fanatical	-11.8956
▁ceilings	-11.8957
▁exciting	-11.896
▁indignation	-11.896
▁ingenuity	-11.896
▁nonsensical	-11.896
▁wore	-11.896
▁Gates	-11.896
▁hegemonic	-11.8961
▁frightened	-11.8961
▁convicted	-11.8961
▁synonymous	-11.8962
▁reinforced	-11.8962
▁Bratton	-11.8963
Also	-11.8964
▁78	-11.8964
hy	-11.8965
▁cites	-11.8968
▁Individual	-11.8968
▁rushed	-11.8969
En	-11.897
▁Carey	-11.897
▁Main	-11.8972
▁excesses	-11.8973
ions	-11.8975
▁organisation	-11.8975
▁listening	-11.8976
▁Ca	-11.8979
▁treason	-11.898
經濟	-11.8982
▁Thane	-11.8988
▁Elizabeth	-11.899
▁Calif	-11.8995
▁Survey	-11.8995
▁repression	-11.8995
▁46	-11.8997
▁heroes	-11.8997
▁Grand	-11.8997
▁comprised	-11.8997
▁heap	-11.8997
▁attendant	-11.8998
Chapter	-11.9
▁1977.	-11.9001
▁stepped	-11.9001
▁Staats	-11.9003
▁harmless	-11.9005
▁auto	-11.9005
▁anonymous	-11.9006
▁Golden	-11.9008
▁jointly	-11.9011
cal	-11.9014
.23	-11.9016
▁rude	-11.9016
Der	-11.9017
▁utopian	-11.9018
payments	-11.9019
▁Hansen	-11.9021
ang	-11.9022
▁malinvestment	-11.9024
▁Trotsky	-11.9027
▁ammunition	-11.9029
▁Creator	-11.903
▁unlawful	-11.903
▁unrestricted	-11.903
▁violates	-11.903
chief	-11.9033
ient	-11.9033
▁resumed	-11.9034
▁stabilizing	-11.9035
▁passengers	-11.9038
▁69	-11.904
▁contents	-11.904
▁Portugal	-11.9043
▁cream	-11.9044
▁momentous	-11.9047
▁lends	-11.9048
▁esteem	-11.9056
▁predatory	-11.9057
▁£1	-11.9057
▁1971,	-11.9058
▁Beard	-11.9059
vel	-11.9059
▁marvelous	-11.9061
▁158	-11.9064
▁Roy	-11.9064
▁hoping	-11.9065
▁honour	-11.9067
▁seasonal	-11.9068
▁Writings	-11.9068
great	-11.9068
▁167	-11.9071
▁persisted	-11.9072
▁Last	-11.9072
▁1973.	-11.9072
▁humble	-11.9073
▁grievances	-11.9075
▁Shelley	-11.908
▁privacy	-11.908
rie	-11.9081
▁Br	-11.9083
▁plate	-11.9083
▁pet	-11.9083
▁manifests	-11.9084
▁sabotage	-11.9085
▁descendants	-11.9085
▁wondered	-11.9085
▁59	-11.9087
res	-11.909
▁mischief	-11.9093
▁Aquinas	-11.9097
▁killer	-11.9099
▁Legislature	-11.91
▁discrepancy	-11.91
▁über	-11.91
.”4	-11.91
▁moon	-11.9101
Note	-11.9101
▁endorsement	-11.9101
▁professed	-11.9104
▁delighted	-11.9105
▁profitably	-11.9105
ken	-11.9107
▁Fox	-11.911
▁1930,	-11.9112
owner	-11.9113
▁Raymond	-11.9115
▁Cole	-11.9115
▁commented	-11.9115
▁intuition	-11.9118
▁observes	-11.9119
▁constituting	-11.9119
▁irony	-11.9119
▁tune	-11.9121
Dis	-11.9122
▁Franco	-11.9122
▁Roberts	-11.9123
▁females	-11.9125
▁diamond	-11.9128
▁54	-11.9133
▁priests	-11.9135
▁subsidizing	-11.9135
▁grandmother	-11.9135
▁$100,000	-11.9135
▁dictatorial	-11.9136
▁94	-11.9136
▁skyscraper	-11.9137
▁82	-11.9137
▁1976.	-11.9138
▁households	-11.9141
▁recovered	-11.9142
▁crushed	-11.9142
▁lawful	-11.9144
contradictory	-11.9147
French	-11.9147
▁distort	-11.915
tz	-11.915
ised	-11.9151
▁1928.	-11.9152
▁expecting	-11.9152
▁inclusion	-11.9152
▁Special	-11.9154
▁(16	-11.9154
▁grasped	-11.9155
▁guy	-11.9164
product	-11.9164
▁assignment	-11.9164
▁settling	-11.9171
▁imprisonment	-11.9171
▁beaten	-11.9172
▁tenure	-11.9175
▁reckoned	-11.9175
headed	-11.9179
▁embarked	-11.9179
collective	-11.9187
▁dispense	-11.919
7,	-11.9192
▁132	-11.9193
▁outlaw	-11.9194
uch	-11.9194
▁reproach	-11.9199
▁trillion	-11.92
▁advocacy	-11.9206
▁damaging	-11.9206
▁organisms	-11.9207
▁1975.	-11.9207
▁unanimously	-11.921
▁poorest	-11.9215
▁poll	-11.9215
▁ear	-11.9218
ov	-11.922
fu	-11.9222
▁Anglican	-11.9227
▁Rates	-11.9228
▁miss	-11.923
▁1922.	-11.9231
▁Moore	-11.9232
▁fled	-11.9233
▁Ann	-11.9234
▁islands	-11.9236
▁implying	-11.9236
▁prerequisite	-11.9236
▁bureau	-11.9236
prices	-11.9241
▁repudiation	-11.9242
▁attaches	-11.9245
▁1977)	-11.9246
▁provoked	-11.9246
▁dogs	-11.9249
ans	-11.9251
▁successively	-11.9252
▁launch	-11.9253
▁inducement	-11.9253
▁126	-11.9254
han	-11.9254
ert	-11.9255
▁willingly	-11.9256
▁197	-11.9258
▁guerrilla	-11.9258
▁whites	-11.926
▁peculiarly	-11.9261
month	-11.9261
▁correction	-11.9262
▁crowded	-11.9263
▁reviewed	-11.9264
▁roles	-11.9271
▁pipe	-11.9272
▁package	-11.9273
▁accomplishment	-11.9273
fer	-11.9274
▁dishonest	-11.9276
▁singer	-11.9277
▁desirability	-11.9278
▁régime	-11.9278
▁Prize	-11.9278
▁indictment	-11.9278
▁repaid	-11.9279
▁Volker	-11.9279
▁prone	-11.928
▁swiftly	-11.9281
▁Bas	-11.9284
▁defective	-11.9284
▁183	-11.9284
tin	-11.9284
▁focuses	-11.9285
▁64	-11.9286
▁Bre	-11.9288
nine	-11.9289
▁Mediterranean	-11.929
ina	-11.9291
▁announce	-11.9294
▁horrors	-11.9294
▁1944,	-11.9295
▁pecuniary	-11.9295
▁meanings	-11.9296
according	-11.9297
▁breath	-11.9297
Similarly	-11.9298
▁Greene	-11.9305
▁ripe	-11.931
▁penalize	-11.9311
▁1947)	-11.9312
▁sweep	-11.9313
▁seeming	-11.9313
substitutes	-11.9314
▁Leviathan	-11.9314
▁negation	-11.9314
▁extraordinarily	-11.9314
▁aprioristic	-11.9314
capitalism	-11.9314
get	-11.9316
▁symbols	-11.9316
▁inventory	-11.9316
▁drivers	-11.9318
▁concealed	-11.9319
building	-11.932
six	-11.9323
▁progression	-11.9324
▁Jacques	-11.9324
▁lucky	-11.9324
▁Insurance	-11.9324
▁spur	-11.9328
▁enlightenment	-11.933
▁Ha	-11.933
bearing	-11.933
▁dust	-11.933
Right	-11.9333
mis	-11.9334
indeed	-11.9336
▁manifestations	-11.9336
▁prolong	-11.9336
▁herd	-11.9344
▁casual	-11.9346
▁116	-11.9349
▁edifice	-11.935
▁legacy	-11.935
▁urgency	-11.935
tive	-11.935
Ho	-11.9351
▁overriding	-11.9351
voluntary	-11.9354
set	-11.9356
▁entailed	-11.9358
▁105	-11.9358
▁homeless	-11.9362
▁Eugene	-11.9362
▁147	-11.9363
▁conceivably	-11.9364
▁transforming	-11.9366
▁compound	-11.9367
going	-11.937
▁rice	-11.9371
▁Livingston	-11.9372
Kirzner	-11.9372
iz	-11.9373
▁initiate	-11.9377
▁refuge	-11.9378
▁Rodbertus	-11.938
▁dominion	-11.9381
▁pertinent	-11.9382
8,	-11.9384
▁Father	-11.9386
▁recurring	-11.9387
Oh	-11.9387
▁Imperial	-11.9391
▁1924,	-11.9391
▁arrives	-11.9392
▁1964	-11.9392
▁Li	-11.9394
▁irrespective	-11.9399
▁charitable	-11.9401
▁2:	-11.9404
▁Military	-11.9405
▁137	-11.9406
▁11.	-11.941
Value	-11.9412
▁delegate	-11.9414
▁Lassalle	-11.9414
▁generosity	-11.9414
▁sinister	-11.9414
▁cancel	-11.9417
▁cable	-11.9418
▁delicate	-11.9419
▁traditionally	-11.9421
▁Bell	-11.9421
.[2]	-11.9422
▁gratitude	-11.9422
▁sorry	-11.9422
▁pleases	-11.943
▁Clay	-11.943
▁coup	-11.9432
▁1917,	-11.9433
gle	-11.9434
▁1926.	-11.9437
▁disregarded	-11.9438
▁roll	-11.944
port	-11.9441
▁switch	-11.9445
▁erect	-11.9445
meaning	-11.9448
▁lo	-11.9448
namely	-11.945
▁173	-11.9452
▁predecessor	-11.9455
▁62	-11.9455
▁statutes	-11.9455
▁courageous	-11.9456
▁66	-11.9458
▁firing	-11.9459
▁multiplication	-11.9459
▁unrelated	-11.946
▁Howe	-11.9463
▁1985)	-11.9467
▁1957)	-11.9467
▁vulnerable	-11.9468
▁burn	-11.9469
tum	-11.9469
▁bloody	-11.9469
▁similarity	-11.9471
▁162	-11.9472
▁postal	-11.9472
▁impartial	-11.9474
▁questioning	-11.9475
▁Have	-11.9476
▁1993)	-11.9477
▁sand	-11.9479
▁Führer	-11.948
▁ECB	-11.948
▁lists	-11.9483
▁Kolko	-11.9483
▁hourly	-11.9486
ko	-11.9486
Roosevelt	-11.9487
mine	-11.9488
here	-11.9489
▁bloc	-11.9489
▁revert	-11.949
▁misfortune	-11.9491
▁Apparently	-11.9493
ped	-11.9493
▁nose	-11.9495
Liberalism	-11.9495
▁authentic	-11.9496
▁combining	-11.9496
▁controversies	-11.9496
▁judiciary	-11.9496
Mo	-11.9496
▁smoking	-11.9505
▁prophet	-11.9505
▁pact	-11.9508
ement	-11.952
Federal	-11.9523
▁171	-11.9526
▁perpetuate	-11.9528
▁temperature	-11.9528
▁Pan	-11.9532
▁$9	-11.9532
▁fever	-11.9533
▁valor	-11.9533
▁prisoner	-11.9534
▁Pitt	-11.9535
▁traveling	-11.9535
wissenschaften	-11.9536
▁mortal	-11.9542
▁listened	-11.9543
▁Calvin	-11.9545
▁requested	-11.9546
rick	-11.955
▁Morgans	-11.9554
▁posts	-11.9555
▁1949,	-11.9555
▁mania	-11.9555
Bank	-11.9556
▁rightful	-11.956
▁Being	-11.9562
▁1935)	-11.9564
particularly	-11.9564
▁abnormal	-11.9565
▁colour	-11.9565
▁van	-11.9565
▁musical	-11.9565
▁senator	-11.9566
▁blockade	-11.9566
▁impersonal	-11.9566
▁Recovery	-11.9569
▁appalling	-11.9569
▁jewelry	-11.9569
▁Selected	-11.9571
▁unnatural	-11.9573
▁Poor	-11.9573
▁upheld	-11.9573
▁detect	-11.9575
▁1974)	-11.9576
▁craft	-11.9577
▁exhibited	-11.9578
▁delight	-11.9579
▁rails	-11.9579
▁pretended	-11.958
▁hole	-11.9583
▁smart	-11.9584
▁142	-11.9589
▁Annual	-11.959
▁Transportation	-11.9591
▁constructing	-11.9593
▁Leland	-11.9593
▁Winston	-11.9594
▁lift	-11.9595
▁albeit	-11.9595
▁Caesar	-11.9597
▁invade	-11.9597
states	-11.9602
▁arrogant	-11.9603
▁respecting	-11.9604
▁Brunswick	-11.9606
▁connexion	-11.9606
▁intricate	-11.9606
▁sustenance	-11.9606
▁Federation	-11.9606
▁Management	-11.9607
▁moderation	-11.9609
▁discarded	-11.961
▁Reformation	-11.9611
▁1790	-11.9613
cha	-11.9617
▁77	-11.9617
▁realizes	-11.9618
ought	-11.9623
▁1980)	-11.9624
▁deception	-11.9625
▁load	-11.9627
▁tyrannical	-11.9627
▁averages	-11.9628
did	-11.9629
▁Greaves	-11.9633
▁provoke	-11.9636
▁mitigate	-11.9639
▁Ultimate	-11.964
▁vessel	-11.964
▁wretched	-11.9643
breaking	-11.9643
▁McCloskey	-11.9643
▁impracticable	-11.9643
▁transferring	-11.9644
▁defy	-11.9644
▁heir	-11.9648
▁dynamics	-11.9649
▁Sh	-11.965
▁Silver	-11.965
▁expansionary	-11.9652
▁justifiable	-11.9658
[15]	-11.9659
▁tens	-11.966
▁Houghton	-11.966
▁purchaser	-11.9661
▁lust	-11.9662
▁expend	-11.9667
▁Wars	-11.9669
▁1985.	-11.9671
▁religions	-11.9671
▁accelerating	-11.9672
▁proletarians	-11.9673
▁appealed	-11.9673
____.	-11.9673
▁freeze	-11.9673
▁cultivate	-11.9674
van	-11.9674
sum	-11.9676
▁embarrassment	-11.9678
Several	-11.968
▁misunderstood	-11.9681
▁omitted	-11.9681
▁patronage	-11.9681
▁harassment	-11.9681
Communist	-11.9681
▁attendance	-11.9681
▁criticizing	-11.9681
▁micro	-11.9682
▁planner	-11.9683
▁1988.	-11.9684
▁Stabilization	-11.9685
▁152	-11.9685
bu	-11.9689
▁disrupt	-11.9691
ants	-11.9692
▁vaguely	-11.9695
▁deficiencies	-11.9696
ward	-11.9697
.[1]	-11.97
▁lowers	-11.9704
▁161	-11.9704
▁tenant	-11.9708
▁interfering	-11.971
▁thoughtful	-11.9714
▁torture	-11.9715
▁fierce	-11.9715
▁gravity	-11.9718
▁horrible	-11.9718
▁ugly	-11.9718
▁unsatisfied	-11.9718
▁skepticism	-11.9718
▁dispersed	-11.9719
▁worthwhile	-11.972
▁undue	-11.972
Therefore	-11.972
▁promotes	-11.9722
▁undergo	-11.9725
.26	-11.9727
▁181	-11.9727
▁acceleration	-11.9728
▁1962.	-11.973
▁premiums	-11.9731
itz	-11.9733
▁extensively	-11.9736
▁incompetent	-11.9737
▁designs	-11.9743
▁Grant	-11.9744
ki	-11.9744
▁Ind	-11.9746
▁Article	-11.9752
▁Antifederal	-11.9753
▁pot	-11.9754
▁scholastic	-11.9754
balance	-11.9754
▁88	-11.9755
▁spectrum	-11.9756
▁victories	-11.9756
▁civic	-11.9756
▁severity	-11.9756
▁enduring	-11.9758
Richard	-11.9759
Peter	-11.9759
Thomas	-11.9759
Much	-11.976
▁inconvenience	-11.9761
sized	-11.9762
▁graduated	-11.9764
▁contends	-11.9765
▁planters	-11.9766
▁Light	-11.9769
▁101	-11.9769
▁radicalism	-11.9769
▁Mifflin	-11.9773
▁miners	-11.9783
Pro	-11.9783
▁riding	-11.979
ari	-11.9791
▁coach	-11.9793
▁barbarism	-11.9794
▁entertainment	-11.9795
▁financially	-11.9797
▁entertained	-11.9798
▁1776	-11.9799
▁progressing	-11.9799
▁stresses	-11.98
mentioned	-11.98
▁1939)	-11.9802
▁unusually	-11.9803
▁modifications	-11.9804
▁thick	-11.9805
▁manifestly	-11.9805
Say	-11.9806
▁84	-11.9813
▁visiting	-11.9817
▁commissions	-11.9819
▁participant	-11.9819
ram	-11.982
▁Wiley	-11.9821
–15	-11.9826
▁1984)	-11.9827
▁ominous	-11.9828
lan	-11.9828
▁1989.	-11.9828
▁faction	-11.9831
▁conjunction	-11.9831
▁servitude	-11.9831
▁Renaissance	-11.9831
▁metaphysics	-11.9832
▁citizenry	-11.9833
▁weighed	-11.9837
Indianapolis	-11.9838
▁wrought	-11.9838
knowledge	-11.984
▁138	-11.984
▁labeled	-11.9842
▁swing	-11.9844
▁Goethe	-11.9844
▁Italians	-11.9852
▁diseases	-11.9852
▁Adolf	-11.9854
▁hereditary	-11.9854
liness	-11.9855
▁unconditional	-11.9855
▁authoritative	-11.9856
▁57	-11.986
▁1913,	-11.9861
▁withheld	-11.9861
▁174	-11.9862
▁Chronicle	-11.9868
▁poem	-11.9868
▁abandoning	-11.9869
▁imitation	-11.9869
▁affection	-11.987
▁egoism	-11.9871
▁Following	-11.9872
▁parental	-11.9872
▁macroeconomics	-11.9876
▁hall	-11.9877
▁Loan	-11.9878
Munich	-11.9878
Business	-11.9878
▁185	-11.9879
▁Lo	-11.9882
▁robber	-11.9882
styled	-11.9883
▁acquaintance	-11.9883
▁1970.	-11.9884
▁Religion	-11.9886
▁Protestants	-11.9887
▁homesteading	-11.9889
▁seats	-11.9889
ita	-11.9889
▁1967.	-11.9893
▁reckon	-11.9894
equality	-11.9895
▁coupons	-11.9895
▁bail	-11.9896
▁1945.	-11.9897
▁inverse	-11.9898
▁Consumers	-11.9903
▁retire	-11.9903
▁disguise	-11.9904
AL	-11.9904
▁quoting	-11.9904
▁unwise	-11.9905
▁livelihood	-11.9908
▁relies	-11.9908
▁bishops	-11.9912
▁stored	-11.9912
▁Dec	-11.9913
▁confiscate	-11.9915
▁pensions	-11.9917
▁twofold	-11.9917
▁Gabriel	-11.9917
produced	-11.9917
consuming	-11.9918
away	-11.9919
▁ARET	-11.992
▁1894	-11.9921
paying	-11.9925
▁hell	-11.9926
put	-11.9928
▁Bruce	-11.993
.27	-11.993
▁violently	-11.993
▁Webster	-11.9933
▁emphasizing	-11.9934
▁holy	-11.9935
▁Baruch	-11.9937
▁advise	-11.9939
▁106	-11.9939
▁inspire	-11.9941
ray	-11.9941
▁Machiavelli	-11.9942
工	-11.9943
▁Zeitschrift	-11.9946
▁devil	-11.9947
▁impoverished	-11.9948
▁undertook	-11.9949
▁dissolved	-11.9949
▁nearest	-11.995
▁nonmonetary	-11.995
▁smoothly	-11.9954
Take	-11.9958
Freedom	-11.9959
▁1987.	-11.9962
▁Above	-11.9962
unit	-11.9963
▁129	-11.9965
▁flying	-11.9966
▁112	-11.9967
des	-11.9968
▁detriment	-11.9972
▁Jena	-11.9977
▁Productivity	-11.9977
▁priced	-11.9979
▁Colonies	-11.9984
▁patience	-11.9984
▁accumulating	-11.9984
▁Speaker	-11.9984
▁societal	-11.9985
▁daring	-11.9985
▁1925.	-11.9988
▁Pp	-11.9988
dans	-11.999
▁egg	-11.9991
▁exporters	-11.9992
▁averaged	-11.9996
▁measurable	-11.9997
▁1944.	-11.9998
▁variant	-12.0001
▁uneconomic	-12.0003
▁Rich	-12.0007
▁canon	-12.001
▁Next	-12.0012
▁answering	-12.0013
▁107	-12.0014
▁dread	-12.0015
▁221	-12.002
▁executives	-12.0022
▁strata	-12.0023
▁Founding	-12.0023
▁Proceedings	-12.0024
▁Nonetheless	-12.0024
une	-12.0026
▁Dean	-12.0028
▁agreeing	-12.0029
left	-12.0031
▁1973	-12.0031
▁Specifically	-12.0032
▁prudent	-12.0034
▁weakening	-12.0036
▁inconsistency	-12.0036
▁133	-12.0036
▁administer	-12.0039
▁stars	-12.0043
▁anticipating	-12.0043
▁Secret	-12.0046
▁reprint	-12.0049
▁clock	-12.0049
16.	-12.0051
▁1972)	-12.0053
▁Lexington	-12.0053
dic	-12.0054
▁aircraft	-12.0054
▁captain	-12.0055
▁equitable	-12.0056
3;	-12.0056
▁Hermann	-12.0057
▁Hutchinson	-12.0059
▁Sidney	-12.006
every	-12.006
▁Heinrich	-12.0062
▁Agreement	-12.0062
▁detective	-12.0062
▁processing	-12.0062
▁prescription	-12.0062
Various	-12.0062
▁transmitted	-12.0064
▁realism	-12.0065
▁pose	-12.0067
▁determinism	-12.0068
▁1918,	-12.007
▁1973)	-12.0072
pt	-12.0072
▁12.	-12.0074
▁factual	-12.0075
▁contra	-12.0075
objective	-12.0076
▁1951)	-12.0076
▁ranging	-12.0078
cr	-12.0081
▁magazines	-12.0081
▁136	-12.0083
▁shirt	-12.0083
▁pie	-12.0084
▁overproduction	-12.0087
▁Too	-12.0088
▁dies	-12.0088
▁revenge	-12.0088
▁assigns	-12.0089
stein	-12.0092
▁wares	-12.0093
central	-12.0095
▁Back	-12.0095
▁flower	-12.0096
II	-12.0099
▁horizon	-12.0101
▁Fascist	-12.0101
▁fairness	-12.0102
▁historicism	-12.0103
▁beef	-12.0104
▁furnishes	-12.0104
▁arbitrariness	-12.0104
▁das	-12.0105
mm	-12.0105
▁196	-12.0106
▁designate	-12.0111
這個	-12.0111
▁campaigns	-12.0111
Will	-12.0111
▁commitments	-12.0112
▁1990)	-12.0113
▁introduces	-12.0115
Adam	-12.0117
▁guards	-12.0118
▁relativism	-12.0118
▁Tariff	-12.0119
emphasis	-12.0121
▁resident	-12.0123
▁exhaust	-12.0124
▁drunk	-12.0124
▁tyrants	-12.0125
▁stones	-12.0125
▁assertions	-12.0129
▁disguised	-12.0129
▁Ga	-12.0129
▁Stigler	-12.013
▁profess	-12.013
▁Means	-12.0134
▁Appendix	-12.0135
▁appropriately	-12.0135
▁endanger	-12.0135
lock	-12.0136
▁egoistic	-12.0137
▁intimidation	-12.014
▁preoccupation	-12.014
▁copyright	-12.0141
▁scientifically	-12.0145
▁shell	-12.0145
▁Farm	-12.0146
▁Lutheran	-12.0146
road	-12.0146
▁outlawing	-12.0149
▁scores	-12.015
▁dwelling	-12.0151
▁understands	-12.0152
bar	-12.0155
▁supposition	-12.0156
▁114	-12.0157
Political	-12.0158
▁informal	-12.0159
▁outer	-12.0161
▁1981.	-12.0163
▁belligerent	-12.0163
▁Causes	-12.0165
White	-12.0166
▁230	-12.0166
▁importing	-12.0167
0.	-12.0167
board	-12.0168
18.	-12.0169
▁occasioned	-12.017
▁Deutsche	-12.0171
inflationary	-12.0171
▁relying	-12.0172
▁186	-12.0175
▁lights	-12.0177
form	-12.0177
fa	-12.0178
▁creativity	-12.0179
▁gesture	-12.018
ill	-12.018
▁Warburg	-12.0181
ties	-12.0185
▁deviations	-12.0185
▁accomplishments	-12.0185
▁implemented	-12.0185
▁Cross	-12.0186
▁drops	-12.0186
RE	-12.0187
▁fitting	-12.0188
ou	-12.019
▁incumbent	-12.019
▁hasten	-12.019
▁1972	-12.0192
▁compact	-12.0195
bust	-12.0197
perfect	-12.0197
Madrid	-12.0201
dominated	-12.0202
▁Plymouth	-12.0202
▁polls	-12.0203
▁clamor	-12.0204
Given	-12.0204
ette	-12.0205
20.	-12.0206
Does	-12.0207
▁congestion	-12.0208
Price	-12.0208
mark	-12.0208
iron	-12.021
▁Rhodes	-12.0211
.[3]	-12.0212
▁Probably	-12.0214
▁pan	-12.0215
$	-12.0215
▁computers	-12.0217
▁liquidate	-12.0218
▁Murphy	-12.0218
▁adversaries	-12.0218
▁commonplace	-12.022
▁divergence	-12.022
▁Conceived	-12.0225
▁withhold	-12.0228
▁woods	-12.023
ssen	-12.0232
▁cared	-12.0239
-17	-12.0239
▁periodic	-12.024
▁1964,	-12.0241
▁resign	-12.0243
▁register	-12.0245
burg	-12.0247
▁pragmatic	-12.025
▁Fortunately	-12.025
▁constitutions	-12.0251
▁Fall	-12.0251
Toward	-12.0255
▁fluctuate	-12.0255
▁Legislation	-12.0258
▁appetite	-12.0259
▁balancing	-12.026
▁workman	-12.0261
▁precipitate	-12.0261
▁pessimistic	-12.0262
▁handsome	-12.0262
▁Lectures	-12.0263
▁Academic	-12.0264
▁stern	-12.0264
▁outgrowth	-12.0264
slehre	-12.0266
tra	-12.027
▁math	-12.0271
▁Sun	-12.0275
▁nationalistic	-12.0278
▁Rudolf	-12.0279
▁screen	-12.028
[16]	-12.0285
▁meddling	-12.0285
▁Quantity	-12.0286
▁henceforth	-12.0287
▁Jonson	-12.0287
▁uncle	-12.0287
sighted	-12.0289
▁sir	-12.029
▁counteract	-12.0292
▁senseless	-12.0295
▁strangers	-12.0295
▁vigor	-12.0297
▁behaviour	-12.0297
▁lucrative	-12.0297
▁1981	-12.0298
▁2000	-12.0299
▁despised	-12.03
▁Tooke	-12.03
Los	-12.03
▁darkness	-12.0302
▁focusing	-12.0302
▁monopolists	-12.0305
▁incidental	-12.0313
▁traveled	-12.0314
Men	-12.032
either	-12.0321
▁ma	-12.0322
▁Jeffrey	-12.0322
其	-12.0322
▁lately	-12.0323
▁Poles	-12.0323
▁Aaron	-12.0324
▁supposing	-12.0327
Throughout	-12.0327
▁89	-12.0327
South	-12.0328
something	-12.0328
Catholic	-12.0329
▁eloquent	-12.0334
gar	-12.0334
▁synthesis	-12.0335
▁meets	-12.0337
價	-12.0337
▁Rochelle	-12.0337
▁shopping	-12.0338
▁enactment	-12.034
▁repudiated	-12.034
.50	-12.034
▁1959)	-12.0343
▁Collect	-12.0343
▁Tracy	-12.0345
▁flowed	-12.0346
▁Sa	-12.0348
▁cells	-12.035
▁1819	-12.035
▁hang	-12.0353
▁honestly	-12.0354
▁tin	-12.0355
▁opens	-12.0356
▁cripple	-12.0357
▁poison	-12.0358
▁owning	-12.0358
▁drafts	-12.0361
▁affords	-12.0363
capitalistic	-12.0364
▁Ko	-12.0368
▁1999	-12.0369
producing	-12.0369
▁Am	-12.0373
▁generating	-12.0373
▁eligible	-12.0377
▁bookkeeping	-12.0379
▁proclamation	-12.038
▁mandate	-12.0382
▁177	-12.0386
▁participated	-12.0387
▁unthinkable	-12.0393
▁1949.	-12.0396
▁brilliantly	-12.0396
▁$50	-12.0397
▁Garden	-12.0398
▁plague	-12.0398
International	-12.0398
▁Im	-12.0401
▁189	-12.0401
▁1948.	-12.0405
▁entrenched	-12.0408
.29	-12.0408
▁critically	-12.041
▁127	-12.041
room	-12.0413
▁coerce	-12.0414
▁Saving	-12.0417
▁attributable	-12.0417
▁Ltd	-12.0418
▁antagonistic	-12.0419
▁Va	-12.0421
▁ranking	-12.0423
▁skeptical	-12.0424
▁ut	-12.0425
▁Walrasian	-12.0426
▁squarely	-12.0426
▁1955	-12.0429
。(	-12.0432
▁interfered	-12.0433
▁virtuous	-12.0438
stone	-12.044
▁successes	-12.0443
▁excessively	-12.0443
▁1968.	-12.0443
▁rooms	-12.0443
▁1:	-12.0445
▁Unit	-12.0445
▁cook	-12.0446
▁Ernest	-12.0451
ag	-12.0454
▁humor	-12.0455
▁inequalities	-12.0458
▁surgery	-12.0458
▁Anne	-12.0459
▁alterations	-12.0461
▁warn	-12.0461
▁1780	-12.0462
▁exemption	-12.0462
▁monarchical	-12.0462
▁paragraphs	-12.0464
▁excludes	-12.0465
▁exportation	-12.0466
handed	-12.0466
▁salesman	-12.0468
▁Grey	-12.0468
▁unforeseen	-12.0468
revolution	-12.0469
▁scandal	-12.0472
ola	-12.0478
▁Beyond	-12.0486
▁landowner	-12.0486
▁1819,	-12.0488
▁Estate	-12.0491
▁Ru	-12.0492
Lesson	-12.0495
Hungary	-12.0495
president	-12.0496
▁Si	-12.0497
▁depreciating	-12.0498
▁extravagance	-12.0498
▁strife	-12.0498
▁administrators	-12.0499
personal	-12.05
▁Hobbes	-12.0502
▁1963	-12.0503
IC	-12.0503
politik	-12.0504
▁Athens	-12.0505
▁1982.	-12.0505
▁68	-12.0506
▁texts	-12.0509
▁201	-12.051
▁Baker	-12.0514
fully	-12.0517
▁1912,	-12.0518
ern	-12.0519
▁span	-12.0519
▁Generally	-12.0519
▁trait	-12.052
▁prudence	-12.052
▁1950)	-12.052
▁apologists	-12.0524
▁loot	-12.0524
▁102	-12.0528
▁1815	-12.0528
因為	-12.0534
▁discontent	-12.0534
competitive	-12.0534
Third	-12.0535
▁wishing	-12.0537
▁arena	-12.0538
▁incur	-12.0539
▁insoluble	-12.0539
▁unsold	-12.0539
商品	-12.054
▁mold	-12.0541
▁noticeable	-12.0543
▁segment	-12.0543
▁losers	-12.0545
▁facilitated	-12.0547
▁Salamanca	-12.0548
▁210	-12.0549
-5	-12.0549
▁stranger	-12.055
▁atomic	-12.0551
▁illustrations	-12.0551
▁crossed	-12.0554
▁Colorado	-12.0559
▁14.	-12.0559
▁1966.	-12.0561
▁discourse	-12.0562
▁187	-12.0563
▁Cairnes	-12.0564
▁directs	-12.0569
▁169	-12.0571
▁216	-12.0572
▁191	-12.0577
▁multiplicity	-12.058
▁penetrating	-12.058
▁garbage	-12.058
▁baseball	-12.058
Charles	-12.0581
▁Hungarian	-12.0582
▁winds	-12.0582
▁1960)	-12.0582
▁sickness	-12.0582
▁explored	-12.0585
jo	-12.0585
▁Small	-12.0587
▁supplemented	-12.0587
▁reckoning	-12.0589
▁grab	-12.0589
IR	-12.0589
▁obtainable	-12.0589
lum	-12.0591
▁tape	-12.0591
▁remunerative	-12.0592
▁seas	-12.0593
▁mobilization	-12.0596
▁1924.	-12.0597
far	-12.0601
.32	-12.0602
▁purity	-12.0602
▁Self	-12.0606
fe	-12.0608
ó	-12.0609
▁Higgs	-12.0609
nation	-12.0611
▁Record	-12.0616
▁Florence	-12.0617
▁175	-12.062
du	-12.062
▁secrecy	-12.0621
▁paramount	-12.0621
▁Godwin	-12.0621
▁Kohler	-12.0621
▁Icelandic	-12.0622
▁intercepts	-12.0623
neutral	-12.0623
▁commanded	-12.0623
economy	-12.0624
Marshall	-12.0624
productivity	-12.0624
▁Laissez	-12.0625
▁hail	-12.0626
▁slip	-12.0626
▁Christopher	-12.0629
▁warranted	-12.063
▁Hudson	-12.0633
▁190	-12.0636
holders	-12.0637
1)	-12.0639
▁breed	-12.064
▁locked	-12.0641
▁foreigner	-12.0642
▁157	-12.0643
▁converting	-12.0644
▁colors	-12.0645
Bo	-12.0645
seven	-12.0645
imposed	-12.0649
▁grip	-12.065
ft	-12.0653
▁Often	-12.0658
▁Working	-12.066
.[4]	-12.0662
▁Dictionary	-12.0662
▁funeral	-12.0662
▁disarmament	-12.0662
▁basketball	-12.0662
▁evolve	-12.0663
▁eve	-12.0663
Entrepreneurship	-12.0663
▁Catholicism	-12.0663
▁Enoch	-12.0666
▁prosecution	-12.0666
▁starve	-12.0667
could	-12.0667
▁intimately	-12.0668
AT	-12.0668
▁prevention	-12.0668
▁eagerness	-12.0669
▁146	-12.0669
0,	-12.0672
▁factions	-12.0673
▁shame	-12.0673
▁columns	-12.0674
later	-12.0676
▁monetarists	-12.0679
▁Kaiser	-12.068
▁hospitals	-12.0683
▁tension	-12.0683
▁incorporate	-12.0686
▁98	-12.0688
▁imputed	-12.069
▁alliances	-12.0692
Ex	-12.0695
ev	-12.0699
▁contrived	-12.0699
▁natives	-12.0699
▁void	-12.0701
▁angle	-12.0701
▁corrective	-12.0702
▁explosion	-12.0703
▁fertility	-12.0703
▁electorate	-12.0703
▁interdependence	-12.0704
▁slope	-12.0704
▁cement	-12.0704
▁originating	-12.0705
▁heights	-12.0705
▁protectionists	-12.0706
▁Presidential	-12.0707
▁dominating	-12.0707
▁momentary	-12.0708
▁Doctrine	-12.0708
▁1946.	-12.0709
Salerno	-12.071
▁blessing	-12.0711
▁229	-12.0711
group	-12.0711
▁235	-12.0712
eck	-12.0713
▁relatives	-12.0717
▁1861	-12.0719
▁contrasting	-12.0719
▁hammer	-12.072
▁Large	-12.0721
▁fearful	-12.0722
▁maker	-12.0723
▁Carnegie	-12.0724
▁Thompson	-12.0725
▁discounting	-12.0726
▁persuasive	-12.0727
ideal	-12.0727
▁denominations	-12.0732
▁1920,	-12.0739
▁1963,	-12.074
▁reproduce	-12.0741
▁pretense	-12.0745
▁constancy	-12.0745
▁roof	-12.0745
▁diversion	-12.0745
html	-12.0745
▁ridicule	-12.0745
operative	-12.0746
▁hazard	-12.0748
▁ironic	-12.0749
▁217	-12.0749
▁politico	-12.0749
ix	-12.075
▁superstition	-12.075
▁teenager	-12.0752
Leipzig	-12.0753
David	-12.0754
▁1963.	-12.0755
▁gr	-12.0756
▁Pe	-12.0759
▁composite	-12.0759
▁Turner	-12.0764
▁Wilkes	-12.0765
▁Conversely	-12.0766
▁dirty	-12.0771
nes	-12.0773
▁repeating	-12.0774
▁reporter	-12.0775
可能	-12.0777
▁impel	-12.078
▁alleviate	-12.0782
▁precepts	-12.0785
▁feeble	-12.0785
▁guise	-12.0786
▁ministry	-12.0786
▁Chiang	-12.0786
▁impelled	-12.0787
▁Strauss	-12.0787
▁cares	-12.0788
▁Already	-12.0788
▁deduce	-12.079
▁weaknesses	-12.0791
▁rob	-12.0792
▁concerted	-12.0795
win	-12.0795
1;	-12.0795
▁impost	-12.0795
▁weighing	-12.0797
Friedman	-12.0797
▁Knopf	-12.0799
▁1925,	-12.0803
▁usher	-12.0804
▁Could	-12.0806
▁birds	-12.0808
▁Englishman	-12.0809
▁rage	-12.0812
▁entertain	-12.0813
102	-12.0815
▁223	-12.0816
▁reformer	-12.0819
rt	-12.0819
mente	-12.082
▁Origin	-12.0821
▁online	-12.0822
▁assassination	-12.0829
▁elevated	-12.083
dr	-12.0831
▁Andros	-12.0832
▁225	-12.0832
▁flawed	-12.0837
ob	-12.0841
▁myths	-12.0844
▁strengthening	-12.0845
ons	-12.0845
▁1969.	-12.0845
▁web	-12.0846
Germany	-12.0847
▁Six	-12.0848
▁Barry	-12.0852
▁grim	-12.0853
▁misrepresent	-12.0856
▁dig	-12.0858
▁Manufacturers	-12.0859
17.	-12.0859
.28	-12.0863
▁conclusive	-12.0867
▁dressed	-12.0868
▁District	-12.0869
▁pump	-12.087
▁antiquity	-12.087
▁inexorable	-12.087
▁economize	-12.0871
▁deficient	-12.0871
▁interplay	-12.0871
▁saves	-12.0871
fund	-12.0871
▁embarrassing	-12.0873
▁abide	-12.0874
▁Gilbert	-12.0875
▁nearby	-12.0876
▁awarded	-12.0877
▁investigated	-12.0879
▁lifelong	-12.0881
bel	-12.0882
▁strip	-12.0884
policy	-12.0885
▁Weimar	-12.0897
▁lively	-12.0898
▁discredit	-12.0898
▁commanding	-12.09
他們	-12.0902
▁Stamp	-12.0903
▁Colonial	-12.0905
▁publishers	-12.0906
▁literal	-12.0909
▁synthetic	-12.0911
▁ceremony	-12.0912
▁destination	-12.0912
▁plastic	-12.0912
▁cessation	-12.0912
▁bride	-12.0913
▁motto	-12.0913
7;	-12.0915
▁Address	-12.0916
▁193	-12.0917
▁13.	-12.0919
▁apprehension	-12.0919
▁warring	-12.0922
▁abused	-12.0926
▁aren	-12.0927
▁cows	-12.0928
inger	-12.0928
paper	-12.093
▁shed	-12.0934
▁1954)	-12.0934
▁Resources	-12.0934
rule	-12.0935
▁cons	-12.0937
▁dialectic	-12.0938
▁1958	-12.0942
▁247	-12.0942
▁manipulated	-12.0945
▁Aristotelian	-12.0945
▁commentators	-12.0946
[17]	-12.0946
▁compels	-12.0948
▁mobile	-12.0949
▁swift	-12.095
▁1992.	-12.0952
▁congress	-12.0952
▁Scientific	-12.0955
▁deputy	-12.0955
▁Agricultural	-12.0957
Per	-12.0961
▁politique	-12.0962
ese	-12.0963
▁aggressors	-12.0963
▁faults	-12.0964
▁debased	-12.0964
▁Eventually	-12.0966
▁sack	-12.0967
▁1979.	-12.0977
▁powerless	-12.0979
▁holiday	-12.0979
▁residual	-12.098
ana	-12.0983
▁1914.	-12.099
▁impress	-12.0993
▁aggravate	-12.0993
▁monarchs	-12.0995
air	-12.0996
▁futility	-12.0998
▁1952.	-12.1
▁technologies	-12.1
▁AL	-12.1003
▁Pont	-12.1008
▁Mills	-12.101
▁reviews	-12.1011
▁constituents	-12.1012
▁exposure	-12.1012
▁1945)	-12.1013
Joseph	-12.1018
correct	-12.1018
▁Cincinnati	-12.102
▁enjoyments	-12.1022
▁Upon	-12.1022
▁builds	-12.1027
ois	-12.1029
▁Newsweek	-12.103
▁Guild	-12.1033
▁Avenue	-12.104
▁benevolence	-12.104
▁Story	-12.1041
▁resignation	-12.1042
▁Stability	-12.1042
▁curtailment	-12.1042
▁invoked	-12.1043
▁senators	-12.1044
▁unitary	-12.1047
▁Mac	-12.1048
▁anticipations	-12.1048
.30	-12.1049
▁Contemporary	-12.1051
ret	-12.1051
▁queen	-12.1051
▁sinking	-12.1052
▁legs	-12.1058
cul	-12.1059
▁gifted	-12.1061
English	-12.1064
▁Hand	-12.1064
▁vehicles	-12.1065
▁pietists	-12.1066
▁Protestantism	-12.1072
q	-12.1073
▁rev	-12.1074
▁cap	-12.1075
▁Bishop	-12.1075
▁23.	-12.1076
▁classify	-12.1076
▁paths	-12.1077
▁discredited	-12.1083
▁hysteria	-12.1083
▁competence	-12.1083
▁panel	-12.1084
▁preferring	-12.1085
▁betrayed	-12.1086
▁deed	-12.1087
▁15.	-12.1087
▁lifted	-12.1089
▁adventures	-12.1089
▁consulted	-12.109
05	-12.1094
▁1912	-12.1094
▁restricts	-12.1095
▁1789	-12.1096
▁pursuits	-12.1097
▁fits	-12.1098
▁hoards	-12.1099
clock	-12.11
▁league	-12.1105
▁consumes	-12.1105
▁feeding	-12.1105
▁1956)	-12.1105
Further	-12.1108
▁Lew	-12.1109
surplus	-12.1111
nic	-12.1111
▁1955)	-12.1112
▁Brussels	-12.1114
▁invasions	-12.1118
▁impart	-12.1118
▁1984.	-12.1118
Nearly	-12.1118
qu	-12.1124
big	-12.1124
▁Majesty	-12.1126
▁glaring	-12.1126
▁software	-12.1126
▁unfavourable	-12.1126
▁transmission	-12.1126
▁solvency	-12.1126
▁168	-12.1126
▁inquiries	-12.1126
▁stir	-12.1127
▁222	-12.1127
▁MA	-12.1127
▁citizenship	-12.1127
▁justifies	-12.1128
era	-12.1131
▁underground	-12.1133
▁207	-12.1135
▁recipe	-12.1135
▁excluding	-12.1138
▁Englishmen	-12.1139
[18]	-12.1139
▁Five	-12.114
▁receivers	-12.115
▁1966,	-12.1152
Japanese	-12.1154
▁1944)	-12.1154
▁1994.	-12.1157
▁underdeveloped	-12.1158
▁signify	-12.1161
▁stressing	-12.1162
_______________	-12.1164
▁dire	-12.1164
▁Henderson	-12.1168
▁Rebellion	-12.1169
▁doubling	-12.1169
▁happier	-12.1169
▁jargon	-12.1169
▁BUS	-12.1171
品	-12.1172
▁utopia	-12.1173
using	-12.1173
▁headquarters	-12.1177
▁rigorously	-12.1177
▁inadequacy	-12.1178
▁curtailed	-12.1179
▁determinant	-12.1179
▁uphold	-12.118
▁211	-12.1181
▁uncompromising	-12.1182
▁minting	-12.1185
▁Payments	-12.1187
▁1983.	-12.119
▁vi	-12.119
▁bird	-12.1191
▁slogans	-12.1193
▁confrontation	-12.1194
▁Pol	-12.1196
▁coercively	-12.1196
▁incidence	-12.1199
Until	-12.1199
dom	-12.1201
Whatever	-12.1201
Paul	-12.1202
....”	-12.1205
▁Master	-12.1206
▁projected	-12.1207
▁throws	-12.1207
▁(3	-12.1208
▁governs	-12.1211
▁Consequences	-12.1213
▁Harriman	-12.1213
▁calamity	-12.1213
▁identifies	-12.1213
▁variance	-12.1213
ending	-12.1215
ust	-12.1216
fire	-12.1218
▁internationally	-12.122
▁1995.	-12.122
▁da	-12.1222
▁hanging	-12.1222
▁sample	-12.1222
▁edict	-12.1223
▁Current	-12.1227
▁Mint	-12.1231
▁Mun	-12.1233
▁routes	-12.1234
▁1974.	-12.1235
▁immigrant	-12.1235
▁prop	-12.1239
ric	-12.1244
▁Raico	-12.1254
▁needful	-12.1255
▁neck	-12.1256
▁1994	-12.1256
▁Utopian	-12.1257
▁experiencing	-12.1257
▁grandiose	-12.1257
▁situated	-12.1257
▁contractors	-12.1257
▁sympathies	-12.1258
▁unification	-12.1258
▁thirst	-12.1259
Carl	-12.1259
▁Hülsmann	-12.126
▁blast	-12.126
▁245	-12.1261
▁republics	-12.1261
▁hadn	-12.1261
ación	-12.1261
▁ration	-12.1262
▁Von	-12.1262
▁97	-12.1262
▁thrive	-12.1262
▁constructions	-12.1264
Winds	-12.1264
▁ongoing	-12.1265
▁hurricane	-12.1266
▁malinvestments	-12.1266
▁disruption	-12.1267
▁Interventionism	-12.1267
▁ver	-12.127
▁guides	-12.127
chi	-12.1272
▁soundness	-12.1272
▁tank	-12.1275
enthusiastically	-12.1277
existing	-12.1278
▁gospel	-12.1278
▁discern	-12.1286
▁1946),	-12.1287
▁1865	-12.1288
.”5	-12.129
▁McCulloch	-12.129
▁academics	-12.1293
▁Dollar	-12.1294
gra	-12.1294
▁cultures	-12.1295
▁1965.	-12.1296
▁perceptive	-12.1297
▁Conservatism	-12.1299
▁magistrates	-12.13
▁intelligible	-12.13
▁thieves	-12.13
▁distributing	-12.13
▁labels	-12.1302
▁seizing	-12.1303
▁loves	-12.1303
▁extremes	-12.1304
▁plow	-12.1304
tter	-12.1304
▁objectionable	-12.1305
▁takeover	-12.131
▁tongue	-12.1311
▁streams	-12.1311
▁215	-12.1311
▁clearings	-12.1312
▁adopts	-12.1314
▁specialize	-12.1314
▁rigidly	-12.1314
bound	-12.1315
▁Attorney	-12.1316
og	-12.1317
▁Campbell	-12.1318
▁reasoned	-12.1318
bri	-12.1321
▁retailers	-12.1326
104	-12.1326
▁sa	-12.1326
▁fan	-12.1328
▁injunction	-12.1335
aggression	-12.1335
▁Comment	-12.1337
▁rape	-12.1343
▁Baron	-12.1344
▁retrospect	-12.1344
Driscoll	-12.1344
▁Serfdom	-12.1344
▁indices	-12.1345
▁regimentation	-12.1345
▁empowered	-12.1346
▁209	-12.1348
▁Group	-12.1348
▁Graham	-12.1349
101	-12.1349
▁121	-12.1352
▁Program	-12.1353
▁countryside	-12.1354
▁Concept	-12.1356
▁Leon	-12.1356
▁248	-12.1358
Hawaiian	-12.1362
+	-12.1362
▁necessaries	-12.1364
▁telegraph	-12.1365
fin	-12.137
▁1972.	-12.1371
dem	-12.1372
▁1991.	-12.1373
zi	-12.1376
▁populations	-12.1378
▁ills	-12.1381
▁fans	-12.1381
▁1941)	-12.1384
.”6	-12.1387
▁drag	-12.1388
▁supporter	-12.1388
ibus	-12.1389
▁Internet	-12.1389
▁forgot	-12.1389
▁troublesome	-12.139
▁collector	-12.1392
▁depict	-12.1393
▁263	-12.1399
▁approximation	-12.14
▁baker	-12.14
▁correspondent	-12.1401
▁fuller	-12.1401
▁rear	-12.1402
▁Unions	-12.1402
▁absorption	-12.1404
▁Mer	-12.1405
▁$12	-12.1406
Hutt	-12.1406
iest	-12.1409
▁dreamed	-12.141
▁Railway	-12.1411
▁syndicalism	-12.1413
▁deserved	-12.1413
▁refugees	-12.1415
▁Cal	-12.1416
▁berries	-12.1418
ische	-12.1421
▁Hamburg	-12.1422
▁humane	-12.1423
▁manipulate	-12.1429
sacrifice	-12.143
▁aged	-12.143
▁perverse	-12.1431
ja	-12.1431
True	-12.1432
comparably	-12.1433
▁Alliance	-12.1433
▁irredeemable	-12.1433
▁stomach	-12.1433
▁Harmony	-12.1433
shop	-12.1435
▁Health	-12.1436
▁1786	-12.1436
▁Transaction	-12.1438
▁depicted	-12.1438
▁Welles	-12.144
▁abortion	-12.144
apart	-12.144
▁flourished	-12.144
gram	-12.1441
▁Miles	-12.1443
106	-12.1443
service	-12.1445
▁yellow	-12.1446
▁bubbles	-12.1447
.[5]	-12.1447
▁substantive	-12.1449
▁occupies	-12.1449
▁fullest	-12.145
sche	-12.145
▁j	-12.1451
▁fare	-12.1452
▁Portuguese	-12.1453
▁179	-12.1463
▁vitally	-12.1464
06	-12.1467
▁1998	-12.1468
▁statists	-12.1468
▁sketch	-12.1469
▁227	-12.1472
▁hill	-12.1473
economics	-12.1475
103	-12.1475
▁Effects	-12.1475
log	-12.1475
▁fluid	-12.1477
SE	-12.1478
▁McMeel	-12.1478
▁Rizzo	-12.1478
▁Securities	-12.1478
▁licensing	-12.1478
▁spiral	-12.1478
▁piano	-12.1478
▁safekeeping	-12.1478
▁trash	-12.1478
gy	-12.1482
▁reacted	-12.149
▁foods	-12.1492
▁Philosophical	-12.1492
▁marched	-12.1494
▁tip	-12.1495
▁heed	-12.1496
▁224	-12.1496
Me	-12.1499
fulness	-12.15
▁139	-12.15
▁warrants	-12.1501
▁parade	-12.1501
▁Debt	-12.1502
▁ostensibly	-12.1503
▁instantaneous	-12.1505
▁Star	-12.1508
▁airline	-12.1508
▁shoot	-12.1509
1⁄2	-12.151
▁warlike	-12.1511
▁ordering	-12.1513
▁Gerald	-12.1519
▁marketability	-12.1521
▁Lutherans	-12.1522
▁chef	-12.1523
▁cooperating	-12.1523
▁Monday	-12.1523
▁video	-12.1524
▁imprisoned	-12.1524
▁stipulated	-12.1525
▁Parker	-12.1525
▁bestowed	-12.1525
book	-12.1526
▁envisioned	-12.1526
▁laughed	-12.153
▁arouse	-12.1531
▁wealthier	-12.1532
▁tactic	-12.1532
▁undertaker	-12.1532
▁Po	-12.1534
▁beneficent	-12.1534
▁Felix	-12.1536
▁simplified	-12.1539
▁1844	-12.154
▁tears	-12.1542
▁103	-12.1542
▁Da	-12.1542
iter	-12.1546
▁1930.	-12.1548
▁shocks	-12.1548
▁tenth	-12.155
▁shore	-12.155
▁windows	-12.1553
▁234	-12.1555
▁bombs	-12.1559
▁certificate	-12.1559
▁Dickinson	-12.156
▁1951.	-12.156
▁1961)	-12.1561
▁Countries	-12.1564
▁1974	-12.1567
▁descriptive	-12.1568
▁vacuum	-12.1568
▁veritable	-12.1568
▁replies	-12.1568
▁persistence	-12.1568
▁mortality	-12.1568
▁heresy	-12.1569
▁inaugurated	-12.1569
▁Budget	-12.157
▁confession	-12.1571
▁yoke	-12.1571
▁bids	-12.1571
▁sincerely	-12.1573
▁personalities	-12.1574
.”7	-12.1574
▁depressing	-12.1574
Time	-12.1574
▁exile	-12.1577
▁236	-12.1578
▁perpetually	-12.1579
▁21.	-12.1579
wages	-12.1579
▁legalized	-12.158
liberals	-12.1582
▁legend	-12.1583
▁joke	-12.1583
▁Chap	-12.1588
▁pioneers	-12.1588
▁257	-12.159
▁1976)	-12.1591
▁blessed	-12.1593
▁interferes	-12.1593
▁mentally	-12.1596
▁comrades	-12.1596
▁lump	-12.1596
eth	-12.1597
▁Nomura	-12.1599
▁overlooks	-12.1602
▁harmed	-12.1604
theorie	-12.1605
▁Scholar	-12.1607
existent	-12.1607
eminently	-12.1608
▁confines	-12.1608
▁revive	-12.1609
▁Heaven	-12.1613
▁unjustified	-12.1613
▁1921,	-12.1614
▁philosophies	-12.1614
▁embarrassed	-12.1615
▁1963)	-12.1616
[19]	-12.1616
▁Kritik	-12.1616
▁shapes	-12.1616
defined	-12.1616
uer	-12.1616
▁principled	-12.1617
▁crippled	-12.1617
short	-12.1618
ante	-12.1618
▁ruins	-12.1618
▁nationwide	-12.1619
Whenever	-12.162
▁depreciate	-12.1622
▁allocations	-12.1622
▁Radical	-12.1625
action	-12.1625
▁materially	-12.1626
▁wagon	-12.1626
ST	-12.1629
▁annexation	-12.1629
▁1938)	-12.163
US	-12.163
▁144	-12.163
▁Way	-12.1631
105	-12.1631
▁vices	-12.1633
.[6]	-12.1634
▁targets	-12.1635
▁Nationalism	-12.1636
▁reservations	-12.1636
▁maladjustments	-12.1638
▁Dan	-12.164
▁abstractions	-12.164
▁Frankfurt	-12.1643
▁conducting	-12.1643
▁lease	-12.1644
▁Bullitt	-12.1644
▁134	-12.1645
problem	-12.1646
.31	-12.1647
▁reflections	-12.1647
▁Sp	-12.1648
▁intensify	-12.165
▁accompany	-12.165
pers	-12.1651
▁expansionist	-12.1651
▁aversion	-12.1652
▁194	-12.1654
▁imitate	-12.1655
▁Municipal	-12.1655
▁inflict	-12.1657
▁awkward	-12.1657
ct	-12.1658
▁powder	-12.1658
▁rampant	-12.1658
▁yardstick	-12.1658
▁Northwest	-12.1659
▁brutality	-12.166
▁flock	-12.1662
▁augmented	-12.1664
▁cloud	-12.1664
▁1954.	-12.1666
Labor	-12.1666
▁Sowell	-12.1668
▁1992	-12.1671
▁conveniently	-12.1671
working	-12.1672
▁Edwards	-12.1673
▁ruinous	-12.1678
▁greedy	-12.168
▁Winthrop	-12.1683
read	-12.1688
▁1969	-12.1691
▁mounting	-12.1692
▁sec	-12.1693
▁1985	-12.1695
▁phony	-12.1696
▁Gould	-12.1698
▁Industries	-12.1698
af	-12.1699
▁stubborn	-12.1699
▁sing	-12.17
▁vegetables	-12.1702
▁ambiguity	-12.1704
▁degradation	-12.1704
▁Blanc	-12.1704
▁Geldes	-12.1706
does	-12.1707
▁installed	-12.1708
subjective	-12.171
Fortunately	-12.1713
Kansas	-12.1713
rag	-12.1714
▁tour	-12.1717
RO	-12.1717
▁motivations	-12.1719
▁loc	-12.172
▁Except	-12.1723
▁Matthew	-12.1724
▁foe	-12.1724
gl	-12.1724
▁intangible	-12.1727
▁poets	-12.1729
▁Victor	-12.1732
▁sects	-12.1734
▁injustices	-12.1734
▁wrongly	-12.1735
▁augment	-12.1736
▁defender	-12.1736
▁sounded	-12.1737
▁1898	-12.1737
▁Period	-12.1738
▁interact	-12.1741
▁purse	-12.1742
▁Contrary	-12.1742
table	-12.1743
▁Holmes	-12.1744
▁morale	-12.1744
▁acquiesce	-12.1746
▁1895	-12.1747
▁Duncker	-12.175
▁spokesman	-12.175
▁uneasy	-12.1751
▁intentional	-12.1752
▁Edinburgh	-12.1752
▁understandably	-12.1753
▁eaten	-12.1754
▁218	-12.1755
▁spared	-12.1756
▁Charter	-12.1757
▁cheating	-12.1757
▁fingers	-12.1761
Private	-12.1761
▁onerous	-12.1761
Congress	-12.1762
▁1952)	-12.1763
empirical	-12.1763
▁appropriations	-12.1763
black	-12.1764
▁ho	-12.1764
▁crew	-12.1764
▁neighbour	-12.1764
▁images	-12.1765
liberalism	-12.1765
▁Lesson	-12.1766
Did	-12.1766
▁Hilferding	-12.1768
ea	-12.1769
23.	-12.1774
▁Collective	-12.1775
▁shippers	-12.1776
▁stark	-12.1777
Source	-12.178
▁mergers	-12.178
lessness	-12.1783
▁sheets	-12.1783
arian	-12.1784
▁wreck	-12.1787
▁misinterpret	-12.1788
ei	-12.1789
▁chartered	-12.1792
▁confers	-12.1795
ned	-12.1796
▁challenging	-12.1796
▁straw	-12.1796
▁improbable	-12.1796
▁breakfast	-12.1796
[...]
