<unk>	0
<s>	0
</s>	0
▁the	-2.94179
,	-3.01121
▁	-3.21804
▁of	-3.29403
.	-3.31069
▁to	-3.84588
▁and	-3.88893
▁in	-4.1165
▁a	-4.24572
▁is	-4.52204
▁that	-4.57102
s	-4.90334
▁for	-5.03346
▁be	-5.1127
▁as	-5.14131
▁it	-5.16524
-	-5.22923
▁by	-5.23538
▁“	-5.25488
▁not	-5.32719
▁was	-5.37741
▁on	-5.44706
’	-5.49727
▁are	-5.50974
▁with	-5.52602
▁The	-5.54336
▁or	-5.55613
▁which	-5.56512
▁this	-5.58376
▁from	-5.75076
▁have	-5.77573
▁his	-5.79757
▁an	-5.81781
:	-5.84615
▁(	-5.85537
▁at	-5.88498
▁he	-5.91362
▁would	-5.91622
▁their	-5.9177
;	-5.93746
▁all	-5.97238
”	-5.99192
▁they	-5.9926
—	-6.09794
▁one	-6.10206
▁more	-6.16746
▁were	-6.17105
▁will	-6.1738
▁but	-6.17987
▁had	-6.19044
▁has	-6.19256
▁we	-6.19365
▁its	-6.26399
▁no	-6.27177
▁only	-6.28353
▁money	-6.31366
▁other	-6.33264
▁can	-6.33887
▁I	-6.39581
▁who	-6.41927
▁than	-6.43196
▁been	-6.45608
The	-6.45918
▁It	-6.49405
▁In	-6.55025
.”	-6.55808
▁any	-6.57135
▁there	-6.57742
▁if	-6.58913
▁so	-6.59009
▁government	-6.61595
▁these	-6.63778
▁them	-6.6733
▁such	-6.67679
)	-6.71309
▁what	-6.74147
▁economic	-6.74966
▁But	-6.77942
▁market	-6.78879
▁must	-6.79154
▁may	-6.80178
▁into	-6.80188
▁time	-6.82763
,”	-6.85291
▁our	-6.86354
▁out	-6.88491
▁p	-6.88896
▁could	-6.89072
▁do	-6.89413
?	-6.89776
▁people	-6.90436
▁production	-6.90728
▁when	-6.94394
▁goods	-6.96027
▁also	-6.96785
▁some	-6.97445
▁even	-6.9774
▁most	-6.98708
▁about	-7.00385
▁price	-7.005
▁value	-7.01144
▁capital	-7.02271
▁A	-7.03327
▁those	-7.03796
▁This	-7.04466
▁prices	-7.07673
▁then	-7.1
▁should	-7.10192
▁same	-7.11187
▁between	-7.11402
▁new	-7.14328
▁because	-7.14541
▁state	-7.14987
▁He	-7.16549
▁own	-7.17027
▁first	-7.17074
ing	-7.17435
▁up	-7.20272
▁system	-7.20578
▁very	-7.2287
▁theory	-7.23006
▁free	-7.23191
▁interest	-7.23286
▁two	-7.24549
▁way	-7.2484
▁fact	-7.25022
▁power	-7.25095
▁over	-7.25659
▁against	-7.28706
▁man	-7.28866
▁does	-7.28965
▁made	-7.29209
▁world	-7.30393
▁much	-7.30765
▁gold	-7.33472
▁him	-7.34734
▁New	-7.35432
▁you	-7.37224
▁many	-7.37768
▁labor	-7.38393
▁us	-7.38527
t	-7.38894
▁make	-7.38951
▁means	-7.39068
e	-7.39799
▁under	-7.39822
▁If	-7.39991
▁war	-7.42191
▁exchange	-7.42497
▁well	-7.42507
▁pp	-7.43136
▁now	-7.43934
▁good	-7.44695
▁American	-7.45594
▁great	-7.45771
the	-7.46073
▁They	-7.46098
▁without	-7.46342
▁social	-7.46598
▁demand	-7.4691
▁use	-7.46917
▁case	-7.48211
▁years	-7.4894
▁did	-7.49555
▁being	-7.49815
▁upon	-7.51007
▁less	-7.51191
▁cannot	-7.51409
▁each	-7.51648
▁economy	-7.51699
▁work	-7.51927
▁public	-7.52341
▁part	-7.52519
▁men	-7.53711
▁political	-7.53913
▁every	-7.54974
▁rate	-7.55065
▁Mises	-7.56122
▁York	-7.56141
▁business	-7.56322
▁point	-7.56479
▁And	-7.56593
In	-7.57848
ed	-7.58154
▁long	-7.58266
▁order	-7.58926
▁property	-7.58978
▁how	-7.59611
▁increase	-7.60275
▁State	-7.62039
▁individual	-7.62342
▁through	-7.62379
▁law	-7.62471
▁society	-7.6281
▁see	-7.62812
▁country	-7.63013
▁another	-7.63384
▁For	-7.6545
▁human	-7.66012
▁course	-7.66571
a	-7.66895
▁policy	-7.67453
▁different	-7.67615
▁general	-7.68099
▁supply	-7.68379
▁bank	-7.68891
▁after	-7.70467
▁life	-7.70668
▁however	-7.70704
▁far	-7.70745
▁‘	-7.7087
▁present	-7.7099
'	-7.71601
▁private	-7.7165
▁always	-7.72396
▁where	-7.72861
▁trade	-7.73543
▁still	-7.73712
▁might	-7.73916
▁before	-7.73991
▁like	-7.74517
▁never	-7.75237
▁my	-7.7637
▁States	-7.76577
▁possible	-7.76587
▁right	-7.76616
▁action	-7.77313
▁credit	-7.77642
▁banks	-7.78413
▁monetary	-7.79501
▁say	-7.80177
▁problem	-7.8038
▁while	-7.8102
▁As	-7.81336
▁United	-7.81875
▁income	-7.82042
▁both	-7.82057
▁itself	-7.83024
).	-7.83035
▁said	-7.8468
▁We	-7.85041
▁There	-7.85357
▁too	-7.85854
▁take	-7.86254
▁therefore	-7.86467
▁important	-7.87354
▁just	-7.87439
▁since	-7.87582
▁future	-7.87825
n	-7.88052
It	-7.88119
▁real	-7.88371
▁place	-7.89033
▁result	-7.89879
▁question	-7.91583
▁foreign	-7.9177
“	-7.92103
▁certain	-7.92276
▁land	-7.93226
ly	-7.93717
▁view	-7.94205
d	-7.95
▁whole	-7.95515
▁process	-7.95918
▁given	-7.9616
▁others	-7.96442
▁themselves	-7.96447
▁economics	-7.96913
▁true	-7.96984
▁end	-7.97343
A	-7.97587
in	-7.97624
▁become	-7.97677
▁rates	-7.97798
S	-7.9814
▁rather	-7.98846
▁things	-7.99112
▁conditions	-7.9947
▁example	-7.99485
▁inflation	-8.00006
▁history	-8.00184
▁whether	-8.00925
and	-8.01387
▁nature	-8.01604
▁German	-8.02246
▁de	-8.02327
▁countries	-8.02476
▁among	-8.02791
▁year	-8.02984
▁later	-8.03872
▁necessary	-8.04155
▁higher	-8.05001
▁used	-8.05774
▁form	-8.05972
▁large	-8.06058
▁during	-8.07047
),	-8.07092
▁pay	-8.07505
I	-8.07678
▁himself	-8.08065
▁sense	-8.08189
▁amount	-8.08638
▁hand	-8.0907
▁standard	-8.09157
▁nothing	-8.09959
▁control	-8.1026
▁reason	-8.10311
▁me	-8.10331
▁further	-8.116
▁tax	-8.12689
▁little	-8.12708
▁least	-8.1279
▁particular	-8.12833
▁change	-8.1297
▁natural	-8.13136
▁thus	-8.13153
▁here	-8.13164
▁period	-8.13548
]	-8.14254
▁need	-8.14988
▁know	-8.15144
▁thought	-8.15231
▁better	-8.15675
▁again	-8.165
▁high	-8.16553
▁come	-8.17305
▁wage	-8.17355
▁last	-8.17564
1	-8.17813
▁per	-8.17899
▁freedom	-8.17916
▁few	-8.19035
▁effect	-8.19663
▁down	-8.19761
▁national	-8.19897
▁called	-8.20899
▁percent	-8.21082
▁old	-8.21192
▁number	-8.21212
▁get	-8.21481
▁consumers	-8.21835
▁Economic	-8.21935
▁industry	-8.22102
▁terms	-8.22773
▁greater	-8.23059
▁total	-8.23103
▁rise	-8.23129
▁put	-8.23176
▁either	-8.2346
▁War	-8.23572
▁wages	-8.24256
▁already	-8.24504
▁short	-8.24536
▁find	-8.24592
▁position	-8.2505
▁On	-8.25247
▁various	-8.25394
▁day	-8.25645
▁best	-8.25984
▁currency	-8.26053
▁services	-8.26431
▁her	-8.27067
▁principle	-8.27075
▁Austrian	-8.27618
▁rights	-8.27758
▁go	-8.27845
▁give	-8.28517
▁ever	-8.28549
or	-8.28635
▁University	-8.28757
▁cost	-8.29111
▁able	-8.2929
▁merely	-8.29385
▁costs	-8.29623
▁investment	-8.29683
▁within	-8.29988
▁found	-8.3004
▁economists	-8.30309
▁force	-8.3048
▁product	-8.30539
▁idea	-8.30577
▁three	-8.31091
▁To	-8.31254
▁British	-8.31263
▁above	-8.31534
▁What	-8.31694
▁set	-8.3173
▁back	-8.32042
▁laws	-8.32482
▁self	-8.33008
▁Germany	-8.33206
▁factors	-8.33389
▁changes	-8.33898
▁Thus	-8.34137
▁paper	-8.34149
▁level	-8.34149
▁increased	-8.34181
▁almost	-8.34324
▁wealth	-8.34327
▁banking	-8.34335
▁knowledge	-8.34478
▁person	-8.34516
▁book	-8.34676
▁central	-8.34774
▁profit	-8.34811
▁why	-8.34995
▁thing	-8.35046
▁individuals	-8.35405
▁consumption	-8.35529
▁common	-8.36441
▁analysis	-8.36532
▁quantity	-8.36861
▁simply	-8.37218
▁[	-8.37417
▁century	-8.37632
▁Press	-8.37678
–	-8.37797
But	-8.37918
▁John	-8.38341
This	-8.38763
▁matter	-8.38961
▁England	-8.39044
▁once	-8.39211
▁Economics	-8.39689
▁until	-8.39909
▁shall	-8.40422
▁modern	-8.40524
▁B	-8.40846
▁something	-8.41024
▁often	-8.41027
▁workers	-8.41034
▁want	-8.41195
▁small	-8.41201
▁When	-8.4155
▁enough	-8.41848
▁though	-8.42308
▁Bank	-8.42471
▁think	-8.42675
▁kind	-8.43076
▁competition	-8.43198
▁U	-8.43416
▁stock	-8.43499
▁America	-8.43547
p	-8.43754
▁resources	-8.43769
▁international	-8.44175
▁yet	-8.44309
er	-8.44937
▁cause	-8.45378
▁act	-8.45444
▁Rothbard	-8.45671
▁situation	-8.46166
▁problems	-8.46663
▁whose	-8.46963
▁socialism	-8.46987
▁clear	-8.4722
▁subject	-8.47654
▁That	-8.47705
▁became	-8.48123
▁second	-8.4854
!	-8.48542
▁states	-8.48675
▁taken	-8.48702
▁expansion	-8.48704
▁interests	-8.48909
▁Mr	-8.4964
▁lower	-8.49823
▁ideas	-8.50485
▁toward	-8.5096
▁making	-8.51038
▁liberty	-8.51229
▁mind	-8.51334
▁full	-8.51401
▁came	-8.5142
▁longer	-8.5163
▁left	-8.52049
▁nation	-8.52819
▁class	-8.52913
▁off	-8.53227
▁No	-8.53336
▁group	-8.53525
New	-8.53713
▁non	-8.53932
to	-8.54393
y	-8.5484
▁early	-8.54969
▁really	-8.55363
▁produce	-8.55607
▁Europe	-8.56152
▁Government	-8.56252
▁These	-8.56426
▁makes	-8.56433
▁Congress	-8.56863
▁development	-8.56899
▁fall	-8.56994
▁argument	-8.5719
▁today	-8.57193
▁done	-8.57299
▁Federal	-8.57625
▁notes	-8.5785
▁M	-8.58446
▁von	-8.5865
▁profits	-8.58687
▁labour	-8.59033
▁employment	-8.59278
▁your	-8.59387
2	-8.59465
▁indeed	-8.59498
▁French	-8.5974
i	-8.60131
▁Ibid	-8.60194
▁One	-8.60277
▁products	-8.60303
▁nor	-8.60396
▁times	-8.60432
▁available	-8.60559
▁equal	-8.60686
▁quite	-8.60866
▁brought	-8.61285
▁influence	-8.6166
▁issue	-8.61783
▁support	-8.62025
▁utility	-8.62122
▁seems	-8.62284
▁considered	-8.62366
▁words	-8.62498
▁legal	-8.62545
▁extent	-8.62596
▁return	-8.62619
▁having	-8.62939
▁especially	-8.62966
▁based	-8.63164
▁monopoly	-8.63347
▁See	-8.6362
▁away	-8.64767
▁seen	-8.64908
▁population	-8.65012
▁Theory	-8.6505
▁existence	-8.65323
▁science	-8.65372
▁account	-8.65377
▁France	-8.65984
▁special	-8.66039
▁taxes	-8.66134
▁members	-8.66282
▁living	-8.66353
▁productive	-8.66369
▁turn	-8.67791
▁keep	-8.68261
▁forces	-8.68497
▁actions	-8.68691
If	-8.68787
▁paid	-8.68857
▁believe	-8.68901
▁following	-8.6898
▁President	-8.69421
▁according	-8.69765
▁produced	-8.70285
▁rule	-8.70437
▁doctrine	-8.70491
▁else	-8.70715
▁commodities	-8.70784
We	-8.70834
▁call	-8.70852
as	-8.70859
▁consumer	-8.70919
▁bring	-8.70937
▁regard	-8.71745
▁began	-8.71777
▁moral	-8.71934
▁D	-8.71945
▁anything	-8.72536
▁His	-8.73071
▁she	-8.73082
▁Reserve	-8.7315
/	-8.73409
▁commodity	-8.73542
▁service	-8.73655
▁J	-8.73706
▁C	-8.73918
▁socialist	-8.74069
▁movement	-8.74248
▁wants	-8.74376
▁basis	-8.74447
▁Hayek	-8.7455
▁effects	-8.74988
▁buy	-8.75041
▁becomes	-8.75138
▁At	-8.7523
▁deposits	-8.75551
▁World	-8.75591
▁due	-8.75618
▁values	-8.75711
▁S	-8.7582
▁All	-8.75856
▁cases	-8.75868
▁unit	-8.75883
▁policies	-8.76177
▁experience	-8.7665
▁equilibrium	-8.76941
▁Marx	-8.77052
▁opinion	-8.77303
▁Keynes	-8.77305
▁groups	-8.7759
▁etc	-8.77867
▁purpose	-8.77906
▁concept	-8.77917
▁actually	-8.78198
▁past	-8.78275
▁latter	-8.78553
▁material	-8.78911
▁importance	-8.78914
▁soon	-8.7899
▁held	-8.79054
▁nations	-8.79237
▁impossible	-8.79413
▁known	-8.79416
▁took	-8.79595
▁marginal	-8.79943
▁instead	-8.80046
▁N	-8.80113
▁million	-8.80266
There	-8.80323
▁English	-8.80413
▁several	-8.8053
▁personal	-8.80771
▁loans	-8.80798
▁military	-8.81109
▁perhaps	-8.81652
▁run	-8.81708
▁However	-8.82095
▁single	-8.82161
▁difference	-8.82249
▁method	-8.8228
es	-8.82545
...	-8.83189
▁went	-8.8329
▁cash	-8.83323
▁F	-8.83452
▁i	-8.83456
▁governments	-8.83655
▁historical	-8.83777
▁term	-8.83855
▁principles	-8.84193
▁Yet	-8.84321
▁Economy	-8.84453
▁structure	-8.84794
▁debt	-8.84948
▁H	-8.85148
3	-8.85226
▁silver	-8.85372
g	-8.8538
▁mean	-8.8546
▁determined	-8.85592
▁London	-8.85825
▁2	-8.86068
▁firm	-8.86143
▁average	-8.86249
▁truth	-8.86658
th	-8.86725
▁school	-8.86912
▁dollars	-8.86994
▁lead	-8.87109
▁attempt	-8.8724
▁consider	-8.87369
▁generally	-8.8738
▁plan	-8.87456
▁original	-8.87473
▁party	-8.87609
is	-8.87919
▁W	-8.87991
▁Money	-8.88005
▁current	-8.88138
▁financial	-8.88167
▁needs	-8.88196
▁going	-8.88228
▁precisely	-8.88322
▁direct	-8.88338
▁markets	-8.88357
▁side	-8.88476
▁capitalism	-8.88614
▁Smith	-8.88668
▁led	-8.88677
▁similar	-8.88785
▁next	-8.88929
▁purchasing	-8.88947
▁results	-8.8895
▁provide	-8.88962
▁established	-8.88974
▁home	-8.8905
▁growth	-8.89524
▁answer	-8.89701
▁Roosevelt	-8.90169
?”	-8.90327
▁Journal	-8.90508
▁alone	-8.90854
▁Britain	-8.90893
▁peace	-8.90975
▁role	-8.91068
▁community	-8.91166
▁An	-8.91175
▁working	-8.91294
▁low	-8.91485
▁wrote	-8.91655
▁clearly	-8.91907
▁Even	-8.92044
▁whatever	-8.92199
that	-8.92654
▁E	-8.92892
▁hands	-8.93052
▁concerned	-8.93058
▁function	-8.93067
▁let	-8.93096
▁consequences	-8.93304
▁difficult	-8.93396
▁whom	-8.93512
▁necessarily	-8.93872
▁Great	-8.93883
As	-8.94228
▁welfare	-8.94277
▁majority	-8.94374
▁"	-8.94507
r	-8.94648
▁dollar	-8.94664
▁forced	-8.94737
▁balance	-8.94766
▁loss	-8.94798
▁instance	-8.94861
▁methods	-8.94899
▁discussion	-8.94978
▁actual	-8.95153
▁former	-8.95201
▁funds	-8.95323
▁So	-8.95345
▁relative	-8.95357
▁unemployment	-8.95473
▁character	-8.95658
▁National	-8.95661
▁poor	-8.95666
▁productivity	-8.95739
▁affairs	-8.95973
▁created	-8.96144
▁ed	-8.96423
▁authority	-8.96519
▁P	-8.96751
▁division	-8.96825
▁provided	-8.96838
▁increasing	-8.97114
▁deal	-8.97277
▁help	-8.97303
▁exist	-8.97476
▁particularly	-8.9751
▁completely	-8.97645
▁entirely	-8.97709
▁cent	-8.9772
▁entire	-8.97767
▁activity	-8.97769
▁complete	-8.97817
▁practice	-8.97864
▁claim	-8.9802
▁beyond	-8.98053
▁developed	-8.98071
▁show	-8.98189
▁degree	-8.98327
.)	-8.98377
▁days	-8.98415
b	-8.98608
▁required	-8.98753
▁payments	-8.98788
▁factor	-8.98864
▁published	-8.99019
C	-8.99052
m	-8.99153
▁respect	-8.99275
▁fixed	-8.99282
▁am	-8.99293
▁existing	-8.99387
▁name	-8.9958
▁limited	-8.99731
▁half	-8.99795
▁everyone	-8.99863
▁ownership	-8.99868
▁entrepreneurs	-9.0011
▁savings	-9.00256
▁physical	-9.0042
▁William	-9.00674
▁relations	-9.00743
▁rest	-9.00762
▁fundamental	-9.00818
▁federal	-9.00827
▁major	-9.00971
▁sell	-9.01162
▁progress	-9.01186
▁study	-9.01523
▁Washington	-9.01524
▁choice	-9.017
▁certainly	-9.01714
▁persons	-9.01738
▁union	-9.01841
▁activities	-9.01844
▁spending	-9.01849
▁citizens	-9.01901
▁1	-9.02064
▁ends	-9.02066
▁specific	-9.02205
▁contrary	-9.02296
▁volume	-9.0255
▁anti	-9.02593
▁final	-9.027
What	-9.02733
▁together	-9.03123
▁producers	-9.03255
▁industrial	-9.03288
4	-9.03734
▁simple	-9.0383
▁European	-9.03916
▁History	-9.03969
▁R	-9.04021
▁needed	-9.04158
▁intellectual	-9.04315
▁likely	-9.04338
▁word	-9.04348
▁finally	-9.04474
▁open	-9.04664
▁hold	-9.0511
▁Professor	-9.05426
▁main	-9.05554
▁beginning	-9.05612
▁benefit	-9.05775
▁expected	-9.05822
▁neither	-9.0584
▁organization	-9.05943
▁family	-9.05947
▁libertarian	-9.05953
▁relation	-9.06202
▁condition	-9.06229
▁liberal	-9.06264
▁saving	-9.06364
▁field	-9.06371
▁highly	-9.06379
▁output	-9.06396
▁seem	-9.06695
▁measure	-9.06896
▁II	-9.07035
al	-9.07251
▁understanding	-9.07284
▁billion	-9.07408
▁institutions	-9.07448
▁directly	-9.07449
▁probably	-9.07532
▁essential	-9.07599
▁increases	-9.07599
▁understand	-9.07832
▁circumstances	-9.079
▁age	-9.07968
▁along	-9.08151
▁By	-9.08233
▁un	-9.08291
▁additional	-9.08323
▁industries	-9.0844
▁philosophy	-9.08538
▁four	-9.08699
▁doing	-9.08707
▁remain	-9.08714
▁says	-9.08817
▁line	-9.08975
▁reasons	-9.08987
▁causes	-9.09148
▁advantage	-9.09197
▁Review	-9.09204
▁enterprise	-9.09412
▁decision	-9.09588
▁assume	-9.09588
▁firms	-9.09674
▁moment	-9.09957
▁look	-9.10046
▁continued	-9.10143
▁otherwise	-9.10263
▁explanation	-9.1031
▁House	-9.10445
的	-9.10524
▁circulation	-9.10573
▁Law	-9.1071
▁around	-9.10723
For	-9.10732
▁prevent	-9.10834
it	-9.10984
▁works	-9.11116
▁facts	-9.11173
▁powers	-9.11182
▁attention	-9.1155
▁worth	-9.11563
▁comes	-9.1172
▁employed	-9.11911
▁commercial	-9.11953
ism	-9.11987
▁wrong	-9.12134
▁measures	-9.12276
▁domestic	-9.12644
c	-9.12818
▁including	-9.13337
▁third	-9.13338
▁chapter	-9.13558
▁events	-9.13577
▁continue	-9.13744
re	-9.13775
▁strong	-9.13946
▁program	-9.14064
▁justice	-9.1415
▁reserves	-9.14259
▁George	-9.14277
▁involved	-9.14357
▁children	-9.14403
▁information	-9.14429
▁received	-9.1445
▁independent	-9.14682
▁conduct	-9.14848
▁although	-9.14917
▁Constitution	-9.15193
an	-9.1521
▁economist	-9.15388
▁depression	-9.15418
▁Act	-9.15424
▁attack	-9.1544
▁desire	-9.1549
▁everything	-9.15494
▁Ludwig	-9.15495
▁takes	-9.15594
▁late	-9.15614
▁G	-9.15652
▁calculation	-9.15779
▁favor	-9.15879
▁earlier	-9.15952
▁effort	-9.16035
▁taxation	-9.1605
▁statement	-9.16169
▁assumption	-9.16224
▁failure	-9.16268
▁note	-9.16323
▁fully	-9.16388
▁live	-9.16404
ness	-9.16419
▁approach	-9.16459
▁popular	-9.16689
▁parties	-9.16759
▁sort	-9.16825
▁crisis	-9.16859
▁task	-9.16958
▁General	-9.17069
▁ways	-9.17164
▁boom	-9.17178
▁Chicago	-9.17694
▁reality	-9.17959
▁South	-9.18006
ers	-9.18046
▁3	-9.18047
▁School	-9.18047
▁appear	-9.18074
of	-9.18173
▁gain	-9.18552
▁explain	-9.18649
▁obvious	-9.1876
▁payment	-9.18765
▁owners	-9.18802
▁Institute	-9.18843
▁security	-9.18866
▁follows	-9.18877
▁proportion	-9.18963
▁bad	-9.18982
▁thinking	-9.19007
▁doubt	-9.19021
▁mass	-9.19104
▁reserve	-9.19246
▁recent	-9.19284
▁points	-9.1939
▁capitalist	-9.19504
▁satisfaction	-9.19555
▁leading	-9.19871
▁Political	-9.19909
▁saw	-9.1999
▁try	-9.20042
▁asked	-9.20081
▁tendency	-9.20086
▁tend	-9.20215
▁share	-9.2032
To	-9.20347
▁step	-9.20385
▁L	-9.20411
▁taking	-9.2049
▁contrast	-9.20913
▁below	-9.20947
▁article	-9.21081
o	-9.21111
▁usually	-9.21222
▁Liberty	-9.21347
▁wanted	-9.21493
▁forms	-9.21543
▁et	-9.21544
▁classes	-9.21551
▁type	-9.2156
▁anyone	-9.21757
▁create	-9.21923
▁president	-9.22216
▁Japanese	-9.22232
On	-9.22378
▁immediately	-9.22418
▁direction	-9.22459
▁raise	-9.22545
▁food	-9.22649
▁theories	-9.2339
▁addition	-9.23419
▁success	-9.23814
▁sum	-9.23817
▁Such	-9.2388
▁phenomena	-9.23888
▁contract	-9.2392
▁mere	-9.23963
▁views	-9.24042
▁maintain	-9.24073
▁Then	-9.24126
▁owner	-9.24152
▁God	-9.24171
▁leaders	-9.24302
▁defense	-9.24373
▁unions	-9.24511
▁got	-9.24555
▁women	-9.24628
▁greatest	-9.24631
▁benefits	-9.24932
▁manner	-9.25036
▁basic	-9.25106
▁With	-9.25136
▁democracy	-9.25191
▁allowed	-9.25345
▁protection	-9.25433
▁intervention	-9.25512
▁correct	-9.25599
▁purposes	-9.25803
▁10	-9.26144
▁How	-9.26225
▁office	-9.2637
on	-9.26373
▁lost	-9.26453
▁gave	-9.26534
▁read	-9.26585
5	-9.26619
▁Henry	-9.26746
▁area	-9.26779
▁units	-9.26847
▁absolute	-9.27113
▁thereby	-9.27228
▁throughout	-9.27229
▁evidence	-9.27293
▁five	-9.27305
▁death	-9.27547
▁claims	-9.27618
▁shown	-9.27633
▁larger	-9.27726
▁duty	-9.27788
▁rent	-9.27901
▁except	-9.2791
▁relatively	-9.27954
▁ten	-9.2801
▁goes	-9.28055
▁After	-9.28101
en	-9.28124
▁hard	-9.28142
▁la	-9.28232
▁distribution	-9.28287
▁efforts	-9.28412
▁classical	-9.28444
▁pressure	-9.28464
▁aid	-9.28633
▁cycle	-9.28654
▁ago	-9.28715
▁easily	-9.28822
▁loan	-9.2905
▁body	-9.29066
▁accept	-9.29136
▁re	-9.29225
▁local	-9.29277
▁sold	-9.29306
▁rules	-9.29351
▁purchase	-9.29381
▁outside	-9.29508
▁meaning	-9.29576
▁company	-9.29664
▁T	-9.29828
▁quality	-9.2986
▁sometimes	-9.29925
▁der	-9.30003
▁violence	-9.30071
▁caused	-9.3023
▁young	-9.30289
▁reduced	-9.30299
▁Here	-9.30368
▁practical	-9.30391
which	-9.30394
▁conclusion	-9.30641
▁hundred	-9.30645
▁materials	-9.3068
▁Revolution	-9.30704
▁solution	-9.30784
▁Russia	-9.30795
▁entrepreneur	-9.30805
▁serve	-9.30813
▁follow	-9.30909
▁sciences	-9.30997
▁willing	-9.31026
▁ultimate	-9.31029
▁theoretical	-9.31221
▁operation	-9.31279
▁added	-9.31378
▁reduce	-9.31425
▁conflict	-9.31463
▁demands	-9.31561
▁opportunity	-9.31625
▁plans	-9.31828
▁city	-9.31843
▁member	-9.31993
▁told	-9.32126
▁voluntary	-9.32152
▁behavior	-9.32299
▁immediate	-9.3238
▁Social	-9.32384
▁und	-9.32436
▁gives	-9.32526
▁rich	-9.32528
▁consequence	-9.32541
▁face	-9.32553
▁Since	-9.32689
▁goal	-9.32699
▁hardly	-9.32755
"	-9.32768
▁tried	-9.33234
▁James	-9.33286
▁sufficient	-9.33347
▁written	-9.33548
▁losses	-9.33737
▁ought	-9.33824
▁Japan	-9.33914
▁Secretary	-9.33926
▁opposition	-9.33933
▁acts	-9.34029
▁net	-9.34262
▁source	-9.34292
▁From	-9.34467
▁followed	-9.34642
▁big	-9.34712
▁remains	-9.34892
▁education	-9.34913
▁effective	-9.35006
▁Company	-9.35016
▁largely	-9.35068
▁subjective	-9.35091
man	-9.35255
▁processes	-9.3539
▁definite	-9.35477
▁applied	-9.35588
▁supposed	-9.35662
▁possibility	-9.35784
One	-9.35788
▁planning	-9.35807
▁serious	-9.35851
▁assets	-9.35861
▁Only	-9.35927
▁&	-9.36132
(	-9.36373
▁offered	-9.36382
▁issues	-9.36532
▁easy	-9.36557
▁light	-9.36664
▁West	-9.3667
▁regarded	-9.3678
▁appears	-9.37027
▁Robert	-9.3709
▁useful	-9.37188
▁previous	-9.37202
When	-9.37286
▁reached	-9.37322
▁questions	-9.37392
▁pointed	-9.37447
▁close	-9.37482
▁administration	-9.37502
▁wish	-9.3756
▁knew	-9.3758
▁shows	-9.37624
And	-9.37657
▁head	-9.37706
▁decisions	-9.37711
▁distinction	-9.37726
▁kept	-9.37811
▁hope	-9.38003
▁objective	-9.3805
▁City	-9.38067
▁definition	-9.381
▁scientific	-9.38499
▁turned	-9.38525
▁Murray	-9.38692
▁Department	-9.38775
▁data	-9.38787
▁failed	-9.38893
。	-9.38895
▁nearly	-9.38921
▁using	-9.38985
▁lack	-9.39038
▁sure	-9.39116
▁agreement	-9.39364
▁books	-9.39401
▁depends	-9.39617
▁evil	-9.39659
B	-9.39672
▁house	-9.3975
▁inflationary	-9.39754
▁proper	-9.39845
.1	-9.39985
▁Thomas	-9.40165
▁error	-9.40169
▁raised	-9.40172
market	-9.40308
▁determine	-9.4031
▁uses	-9.40699
▁research	-9.40726
▁expense	-9.40838
▁don	-9.40869
▁bill	-9.41171
▁constant	-9.41335
▁spirit	-9.41387
▁ask	-9.41439
▁transactions	-9.41605
▁realize	-9.41636
▁controls	-9.41794
▁Their	-9.41827
▁believed	-9.4189
▁powerful	-9.41948
▁ability	-9.42013
▁Soviet	-9.42071
▁Now	-9.42112
▁companies	-9.42118
▁alternative	-9.4213
▁assumed	-9.42139
▁passed	-9.42396
▁lives	-9.42438
▁obtain	-9.42577
▁December	-9.4272
▁Fed	-9.42804
▁civilization	-9.42831
▁risk	-9.42868
▁Of	-9.42897
▁Cf	-9.43046
▁object	-9.43056
▁expressed	-9.43071
term	-9.43138
▁First	-9.4327
▁months	-9.43282
▁accepted	-9.43299
▁offer	-9.435
▁Western	-9.43808
▁parts	-9.43829
▁pure	-9.43877
▁stage	-9.43987
▁Market	-9.4406
▁millions	-9.44137
▁proposed	-9.44144
▁Some	-9.44237
▁Menger	-9.444
▁decline	-9.44626
▁4	-9.44643
▁legislation	-9.44649
▁meant	-9.44753
▁ground	-9.44968
▁writers	-9.45003
▁unless	-9.45047
▁begin	-9.45253
for	-9.45288
▁specie	-9.45362
▁carried	-9.45366
▁Socialism	-9.45429
▁necessity	-9.45493
▁notion	-9.45713
▁language	-9.45742
▁Indeed	-9.45869
▁surplus	-9.45892
▁ideal	-9.45899
▁Not	-9.45993
▁judgment	-9.46049
▁job	-9.46195
▁North	-9.46212
▁revolution	-9.46303
▁author	-9.46437
▁concerning	-9.46438
▁successful	-9.46452
Bawerk	-9.4659
▁twenty	-9.46596
▁equally	-9.46596
▁vol	-9.46706
▁May	-9.46712
▁opposed	-9.46768
▁media	-9.46957
▁cooperation	-9.46963
▁politics	-9.46977
▁connection	-9.47131
▁incomes	-9.47183
▁oil	-9.47313
▁chief	-9.47324
▁selling	-9.47431
▁Americans	-9.47498
▁institution	-9.47539
▁June	-9.47571
▁scale	-9.47791
▁Why	-9.47808
▁purely	-9.47834
▁leave	-9.4787
▁described	-9.47932
▁matters	-9.47936
▁hence	-9.48221
▁receive	-9.48245
▁bonds	-9.48256
▁100	-9.48362
▁operations	-9.48376
▁Action	-9.48424
▁While	-9.48449
▁competitive	-9.48479
▁adopted	-9.48594
6	-9.48646
▁stand	-9.48696
▁speak	-9.4882
▁radical	-9.4899
▁remained	-9.49038
▁differences	-9.49071
▁phenomenon	-9.4911
▁preference	-9.49182
at	-9.49228
▁quickly	-9.49296
▁avoid	-9.49298
▁raw	-9.49305
▁relationship	-9.49345
▁exists	-9.49526
▁nineteenth	-9.49671
▁medium	-9.49677
▁responsible	-9.50143
M	-9.50247
▁sent	-9.50519
D	-9.50582
▁sound	-9.5083
▁compared	-9.50871
7	-9.50939
E	-9.5106
▁advance	-9.51102
▁prosperity	-9.51252
▁producing	-9.51266
▁des	-9.5133
▁understood	-9.51466
▁establish	-9.51468
▁Human	-9.51468
▁smaller	-9.51475
▁trying	-9.51489
▁areas	-9.51537
▁Hence	-9.516
▁official	-9.51603
▁vote	-9.51789
▁Union	-9.51805
▁logical	-9.51868
▁You	-9.51958
▁religious	-9.51965
▁acting	-9.52039
▁exactly	-9.52184
▁minimum	-9.52217
▁explained	-9.52264
▁International	-9.52458
▁ready	-9.52663
▁efficient	-9.52666
called	-9.52733
▁1,	-9.5278
▁save	-9.52834
▁changed	-9.52839
▁Man	-9.5285
st	-9.52946
▁seemed	-9.53121
▁choose	-9.53433
▁kinds	-9.5344
Ibid	-9.53523
▁mankind	-9.53525
▁worker	-9.53531
▁cut	-9.53831
▁appeared	-9.53834
▁tradition	-9.53847
R	-9.53866
▁attempts	-9.54019
▁absence	-9.54107
▁masses	-9.54189
▁expect	-9.54195
▁Society	-9.54315
▁consideration	-9.54545
▁5	-9.54589
▁March	-9.54734
▁apply	-9.54748
▁perfect	-9.54802
▁move	-9.54822
▁struggle	-9.54924
▁giving	-9.54941
▁decided	-9.55024
▁leads	-9.55025
▁considerable	-9.55038
▁Massachusetts	-9.55104
▁reasoning	-9.55187
▁allow	-9.55402
P	-9.55582
▁literature	-9.55689
▁rational	-9.55782
▁November	-9.55831
▁Böhm	-9.55885
▁recognized	-9.55907
▁tell	-9.5596
▁care	-9.5623
▁permanent	-9.56261
▁ratio	-9.56342
▁play	-9.56439
▁fear	-9.5646
▁imports	-9.56517
▁sale	-9.56736
▁post	-9.56747
▁spend	-9.56818
▁figures	-9.56954
▁meet	-9.56987
▁spent	-9.57001
▁saying	-9.57023
ist	-9.5706
▁felt	-9.57111
▁buying	-9.57454
▁charge	-9.57472
▁lines	-9.57508
▁belief	-9.57568
▁requires	-9.57603
▁strike	-9.579
▁declared	-9.57975
▁organized	-9.57983
day	-9.5802
▁someone	-9.58103
▁universal	-9.58165
▁limit	-9.58343
l	-9.58359
▁Committee	-9.5842
....	-9.58501
▁Under	-9.5869
▁capacity	-9.58749
▁getting	-9.58771
▁politicians	-9.58961
▁recognize	-9.59142
▁worse	-9.59184
▁letter	-9.59262
▁significant	-9.59263
▁growing	-9.59297
▁limits	-9.59497
▁series	-9.59662
▁concern	-9.59714
▁Moreover	-9.59739
▁coins	-9.59818
▁criticism	-9.59975
▁Party	-9.60015
▁stop	-9.60317
▁arguments	-9.60404
▁establishment	-9.60438
▁Banking	-9.6052
▁model	-9.60551
▁co	-9.60621
▁reduction	-9.60654
▁responsibility	-9.6067
▁securities	-9.60673
▁six	-9.60703
▁met	-9.60714
▁army	-9.60797
▁merchants	-9.60866
▁authorities	-9.60979
▁ourselves	-9.61005
▁pre	-9.61007
▁governmental	-9.61012
▁opposite	-9.61092
▁insurance	-9.61134
▁democratic	-9.612
▁students	-9.61238
▁separate	-9.61247
He	-9.61304
▁Rockefeller	-9.61328
▁abroad	-9.61343
▁inevitable	-9.61416
▁achieve	-9.61432
▁Treasury	-9.61551
us	-9.61656
▁building	-9.61854
▁efficiency	-9.61881
▁granted	-9.62029
▁July	-9.6208
▁exports	-9.62223
▁Virginia	-9.62238
▁water	-9.62318
▁systems	-9.62328
▁highest	-9.62378
▁conception	-9.62418
8	-9.62423
▁Free	-9.62424
▁equality	-9.62424
▁imposed	-9.62441
▁size	-9.62445
▁virtually	-9.62513
▁officials	-9.62617
▁Hitler	-9.62721
▁defined	-9.62809
▁sales	-9.62901
▁liberalism	-9.62978
▁rising	-9.62993
▁essentially	-9.63131
▁revenue	-9.63162
▁standards	-9.63224
▁ultimately	-9.63422
▁East	-9.63435
▁Monetary	-9.6349
▁prove	-9.63616
▁Board	-9.63715
▁Its	-9.63722
▁elements	-9.63732
▁reform	-9.63737
▁behind	-9.63772
▁stated	-9.6383
▁January	-9.64054
▁yield	-9.64085
▁press	-9.64175
able	-9.64203
▁steel	-9.64246
▁occur	-9.64274
▁thousand	-9.64312
▁potential	-9.64393
▁Power	-9.64515
▁bankers	-9.64534
▁deposit	-9.65048
▁capitalists	-9.65126
▁commerce	-9.65307
▁issued	-9.65414
▁included	-9.65506
▁quantities	-9.65602
▁Vol	-9.65656
▁happen	-9.65848
▁numerous	-9.65861
▁Co	-9.66009
▁significance	-9.66016
▁noted	-9.66024
▁Charles	-9.66034
▁difficulties	-9.661
▁edition	-9.66292
▁investments	-9.66303
J	-9.66334
▁police	-9.66464
▁coercion	-9.66469
▁20	-9.6653
▁creation	-9.66537
▁finance	-9.66573
▁equivalent	-9.66594
▁Paris	-9.66881
▁Richard	-9.66882
▁attitude	-9.6689
▁presented	-9.66958
▁hours	-9.67033
▁vast	-9.67158
▁external	-9.67247
▁articles	-9.67375
▁status	-9.67447
▁towards	-9.67537
▁cit	-9.67549
▁movements	-9.67602
▁iron	-9.67704
Mises	-9.67986
▁built	-9.68027
▁maintained	-9.68206
▁none	-9.68283
▁expenditures	-9.68335
▁complex	-9.68349
▁gone	-9.6846
by	-9.68461
▁require	-9.68541
▁element	-9.68594
▁previously	-9.68661
▁Republican	-9.68685
▁V	-9.68866
Now	-9.68869
▁Let	-9.68897
▁lose	-9.68961
▁greatly	-9.68985
run	-9.69007
▁interested	-9.69094
▁schools	-9.69128
▁August	-9.6916
▁fail	-9.69162
London	-9.69346
▁happened	-9.69424
▁October	-9.69488
▁Dr	-9.69558
▁positive	-9.6956
▁reference	-9.69677
▁danger	-9.69704
▁speech	-9.69758
▁expression	-9.69923
▁agree	-9.70025
▁Trade	-9.70053
▁bound	-9.70072
▁stages	-9.70287
▁September	-9.70372
▁achieved	-9.70571
▁threat	-9.70593
▁religion	-9.70753
▁road	-9.70839
▁king	-9.70841
▁protect	-9.70911
▁internal	-9.70926
▁fellow	-9.70929
▁advanced	-9.70987
Let	-9.71057
Thus	-9.71076
▁Paul	-9.71131
▁coming	-9.71171
▁functions	-9.71193
▁aim	-9.71214
▁tends	-9.71301
▁eventually	-9.7131
▁famous	-9.71352
▁agreed	-9.71361
▁content	-9.7149
▁court	-9.71499
▁decades	-9.71525
▁...	-9.7171
▁argued	-9.71711
▁Every	-9.71731
▁decide	-9.71781
▁Our	-9.71791
▁knows	-9.7184
▁exchanges	-9.71898
▁valuable	-9.72111
▁start	-9.72173
▁construction	-9.72176
▁Therefore	-9.72207
▁meeting	-9.72236
▁Policy	-9.72299
▁worked	-9.72315
▁prepared	-9.72323
▁Adam	-9.72328
▁centuries	-9.7236
▁civil	-9.7236
▁Italy	-9.72453
not	-9.72507
▁excess	-9.72681
▁ones	-9.72792
▁places	-9.72813
▁machine	-9.72825
▁wars	-9.72923
▁outcome	-9.72987
▁report	-9.73001
▁sought	-9.73014
▁Austria	-9.73056
▁wheat	-9.73121
▁Foreign	-9.73125
▁collective	-9.73174
▁duties	-9.73175
▁convention	-9.73181
▁Court	-9.73192
9	-9.73454
▁entrepreneurial	-9.735
▁Capital	-9.73516
▁appropriate	-9.73588
▁somewhat	-9.7363
▁desires	-9.7374
▁air	-9.73874
▁suppose	-9.73946
▁fight	-9.74048
▁pro	-9.74111
▁enormous	-9.7413
▁writings	-9.74143
▁discussed	-9.74334
▁mentioned	-9.74403
▁technical	-9.74479
▁realized	-9.74491
▁bought	-9.74551
▁Instead	-9.74614
▁customers	-9.74681
▁conservative	-9.74783
▁crucial	-9.74795
▁currencies	-9.74818
▁Or	-9.74967
▁tariff	-9.74986
▁add	-9.75191
▁derived	-9.7521
▁laissez	-9.75227
▁implies	-9.7535
▁confidence	-9.75403
▁coin	-9.75464
▁6	-9.75495
▁friends	-9.75501
▁obtained	-9.75526
▁record	-9.75537
if	-9.7557
▁include	-9.75657
▁dealing	-9.75697
▁budget	-9.75776
▁evolution	-9.75841
▁constantly	-9.75891
▁System	-9.76006
▁application	-9.76067
▁ethical	-9.76183
▁St	-9.76186
▁gains	-9.76268
▁bills	-9.76337
▁Furthermore	-9.7634
All	-9.76423
▁Central	-9.7647
.2	-9.76495
At	-9.76587
▁April	-9.76679
▁develop	-9.76754
▁doctrines	-9.76887
▁characteristic	-9.7694
▁writing	-9.76993
▁employer	-9.77039
▁authors	-9.77094
▁White	-9.77185
▁cities	-9.77189
▁regarding	-9.77266
▁K	-9.774
▁chance	-9.77408
▁difficulty	-9.77483
▁China	-9.77496
▁story	-9.77805
”—	-9.7788
▁weight	-9.78024
▁depend	-9.78124
▁lies	-9.78128
▁seek	-9.78181
▁owned	-9.78231
▁deficit	-9.78285
▁race	-9.78294
▁jobs	-9.7832
▁carry	-9.78377
▁proved	-9.78414
▁Morgan	-9.78508
▁Russian	-9.78514
▁forth	-9.78561
▁friend	-9.78568
▁rapidly	-9.786
F	-9.78677
▁flow	-9.78747
▁op	-9.78829
▁placed	-9.79062
▁learn	-9.7912
▁shift	-9.79158
▁father	-9.7923
▁figure	-9.79309
▁periods	-9.79333
▁Keynesian	-9.79383
▁capable	-9.79402
▁alleged	-9.79424
▁advantages	-9.79571
▁opportunities	-9.79617
▁Banks	-9.79667
▁everybody	-9.79686
money	-9.79691
▁farmers	-9.79811
▁poverty	-9.79827
▁Germans	-9.79883
▁middle	-9.79888
▁false	-9.79937
▁traditional	-9.79955
▁burden	-9.8
*	-9.80051
▁learned	-9.80091
▁earth	-9.80124
▁occurred	-9.80264
▁faith	-9.80288
▁Mill	-9.80296
▁improvement	-9.80326
▁arbitrary	-9.80406
▁normal	-9.80582
▁Business	-9.80613
▁agents	-9.8064
▁annual	-9.80651
▁pass	-9.80694
▁export	-9.80709
▁provides	-9.80712
▁aggregate	-9.8072
▁profitable	-9.80772
▁eyes	-9.80912
▁top	-9.80997
▁management	-9.81025
▁treatment	-9.81056
▁talk	-9.81191
T	-9.81248
▁exercise	-9.81299
▁considerations	-9.81314
▁town	-9.81361
▁enter	-9.81471
▁regulation	-9.8149
▁directed	-9.81727
▁David	-9.81841
▁frequently	-9.81998
▁Wilson	-9.8203
▁logic	-9.82107
▁drawn	-9.82238
▁possibly	-9.8224
▁producer	-9.82259
▁agricultural	-9.82275
▁Boston	-9.82313
▁interesting	-9.82598
▁represented	-9.82668
le	-9.8268
▁feel	-9.82682
▁title	-9.82694
▁message	-9.82833
▁expenditure	-9.82872
▁scarcity	-9.83012
f	-9.83021
▁wishes	-9.83056
faire	-9.83291
▁February	-9.83295
▁Marshall	-9.83327
▁minds	-9.83569
▁scarce	-9.83596
▁7	-9.83749
▁holding	-9.83749
▁empirical	-9.83811
▁extreme	-9.83869
▁daily	-9.83978
ity	-9.84004
▁satisfy	-9.84067
▁contribution	-9.84103
▁calls	-9.84103
▁employers	-9.84171
▁restrictions	-9.84213
all	-9.84249
L	-9.84326
▁Lord	-9.84364
▁committee	-9.84461
▁lands	-9.84521
▁evident	-9.84531
▁employees	-9.84531
▁O	-9.84586
▁perfectly	-9.84606
▁equipment	-9.84732
▁spite	-9.84845
▁maximum	-9.84851
▁paying	-9.8487
▁scheme	-9.84901
▁Democratic	-9.84934
▁orders	-9.84949
▁secure	-9.84983
▁crime	-9.85004
▁Jefferson	-9.85006
▁section	-9.85007
▁courts	-9.85078
▁brings	-9.85082
▁event	-9.85169
▁Those	-9.85174
▁arise	-9.85212
▁v	-9.85259
he	-9.85308
▁types	-9.8544
▁Many	-9.85527
▁suggested	-9.85541
▁started	-9.8556
▁love	-9.85612
▁critical	-9.85695
▁fell	-9.85793
▁interpretation	-9.85831
▁privilege	-9.85952
▁bear	-9.8599
▁contracts	-9.85999
▁Ricardo	-9.86217
▁shares	-9.86223
▁slavery	-9.86289
▁She	-9.86359
▁base	-9.86359
▁requirements	-9.86414
▁tools	-9.86472
▁stable	-9.86497
▁regime	-9.86557
That	-9.86651
▁superior	-9.86906
▁practically	-9.86993
▁enterprises	-9.86998
▁destruction	-9.87154
▁generation	-9.87155
So	-9.87172
▁consistent	-9.87432
▁obviously	-9.87738
▁conclusions	-9.87746
▁forward	-9.87807
▁Joseph	-9.87842
▁machinery	-9.87849
▁affect	-9.87901
▁namely	-9.88019
▁2,	-9.88082
▁proposal	-9.88144
▁transfer	-9.88191
▁curve	-9.8821
▁balances	-9.88313
▁naturally	-9.88324
▁1920	-9.88803
W	-9.88845
▁numbers	-9.88892
▁response	-9.88945
▁moved	-9.88959
one	-9.8896
ic	-9.88965
▁near	-9.89057
▁consists	-9.89113
No	-9.89254
▁reach	-9.89261
▁Pennsylvania	-9.89309
▁happens	-9.89349
▁increasingly	-9.8939
▁proposition	-9.89396
▁length	-9.8952
See	-9.89533
▁expand	-9.89565
▁changing	-9.89655
▁truly	-9.8967
▁invested	-9.89764
▁amounts	-9.89768
▁progressive	-9.89797
▁drive	-9.89913
economic	-9.89932
▁happiness	-9.90097
▁aware	-9.9012
▁debts	-9.90122
▁colonies	-9.90137
▁essence	-9.90277
▁People	-9.90361
▁origin	-9.9046
▁despite	-9.90462
▁designed	-9.9056
▁railroad	-9.90564
ian	-9.90678
▁minority	-9.90691
▁privileges	-9.9076
These	-9.90802
un	-9.9083
▁keeping	-9.90874
▁Church	-9.91025
▁judgments	-9.91119
▁preferences	-9.91126
▁command	-9.91136
▁possession	-9.9117
▁trouble	-9.91241
▁15	-9.91304
▁acquired	-9.9141
▁corresponding	-9.91476
▁permitted	-9.91482
▁Public	-9.91523
▁dangerous	-9.91615
ation	-9.91654
▁enable	-9.91655
▁communism	-9.91691
▁assumptions	-9.91692
▁check	-9.91815
▁reader	-9.91838
▁employ	-9.91848
but	-9.91986
▁levels	-9.91986
▁subjects	-9.92294
be	-9.92372
▁served	-9.92443
▁Communist	-9.92531
▁goals	-9.92562
▁revolutionary	-9.92615
▁strength	-9.92723
free	-9.92741
no	-9.92866
▁businessmen	-9.92889
▁observed	-9.92914
▁child	-9.92986
▁earn	-9.93016
▁aspect	-9.93022
▁Although	-9.93054
▁refused	-9.93119
▁Christian	-9.93353
▁culture	-9.93362
▁interference	-9.93594
▁write	-9.93669
▁whereas	-9.93916
▁stocks	-9.93947
▁existed	-9.9415
▁Catholic	-9.94181
▁picture	-9.94193
▁mechanism	-9.94222
▁formed	-9.94237
▁8	-9.94261
▁formation	-9.94365
▁stability	-9.944
▁spread	-9.94451
▁aspects	-9.94455
▁active	-9.94455
▁constitutional	-9.94546
▁speaking	-9.94628
▁portion	-9.94675
▁virtue	-9.94771
▁King	-9.94878
——.	-9.94905
▁looked	-9.94925
▁familiar	-9.94935
▁election	-9.94937
▁raising	-9.95036
▁Street	-9.95102
▁energy	-9.95111
▁treated	-9.95228
▁resulting	-9.9523
▁Senate	-9.9531
▁widely	-9.95338
▁emphasis	-9.95343
▁intended	-9.95356
▁farm	-9.95403
▁apart	-9.95446
▁everywhere	-9.95534
▁recently	-9.95542
▁campaign	-9.95559
▁technological	-9.95766
▁falling	-9.95779
▁accumulation	-9.95892
▁expectations	-9.95933
▁territory	-9.95936
▁deflation	-9.9601
▁vital	-9.96055
▁refer	-9.96081
▁compulsory	-9.96095
▁heavy	-9.96097
▁discovered	-9.96161
▁Gold	-9.9619
▁determination	-9.96215
▁Association	-9.96217
▁negative	-9.96264
▁Adams	-9.96268
▁1930	-9.96333
▁build	-9.96412
▁concepts	-9.96412
▁Each	-9.96436
▁rose	-9.96467
▁buyers	-9.96478
▁exclusively	-9.96487
▁fractional	-9.96497
▁relevant	-9.96515
▁demanded	-9.96758
▁Most	-9.96793
▁fund	-9.96802
▁unable	-9.96899
▁socialists	-9.96998
▁room	-9.97046
u	-9.97069
▁consequently	-9.97081
▁date	-9.97123
▁attain	-9.97138
▁pound	-9.97138
▁mark	-9.97201
▁apparently	-9.97248
▁Because	-9.9741
▁improve	-9.97454
▁passage	-9.97531
▁devoted	-9.97534
▁Chapter	-9.97542
▁acquire	-9.97559
▁engaged	-9.976
▁destroy	-9.97673
▁principal	-9.97735
▁Libertarian	-9.97735
▁chosen	-9.97787
▁supported	-9.97823
▁ex	-9.98002
▁50	-9.98044
▁Times	-9.98066
▁Labor	-9.9807
▁apparent	-9.98139
▁Peter	-9.98143
▁thesis	-9.98181
▁leader	-9.98218
▁branches	-9.98229
▁Science	-9.98236
▁According	-9.98265
▁won	-9.98313
▁valid	-9.98402
less	-9.98503
▁involves	-9.98526
▁Interest	-9.9858
▁Credit	-9.98674
▁desired	-9.98714
▁thousands	-9.98714
▁objects	-9.98744
▁usual	-9.9887
ve	-9.98879
▁prohibition	-9.98884
▁break	-9.98935
▁dependent	-9.99019
▁agriculture	-9.99024
▁sector	-9.99024
▁se	-9.99092
▁becoming	-9.99105
▁finds	-9.99127
▁concrete	-9.99253
▁estate	-9.99384
▁debate	-9.99529
▁discount	-9.99558
▁Vienna	-9.99613
nd	-9.99629
▁primary	-9.99647
▁sacrifice	-9.99653
▁hour	-9.99808
▁justified	-9.99836
▁Sir	-9.99964
up	-9.99965
▁Deal	-9.99966
▁primarily	-10.0005
▁week	-10.001
▁essay	-10.0011
▁grant	-10.0011
▁represent	-10.0012
▁range	-10.0017
▁partly	-10.004
▁branch	-10.0044
▁related	-10.0059
▁peaceful	-10.0063
▁extremely	-10.0066
▁mutual	-10.0076
Economic	-10.0084
▁genuine	-10.0091
▁incentive	-10.0091
▁association	-10.0094
▁historian	-10.0101
▁aggression	-10.0113
▁permit	-10.0113
▁admit	-10.0115
▁speculation	-10.0116
▁troops	-10.0116
▁enjoy	-10.0132
▁absolutely	-10.0132
▁Council	-10.0135
▁invest	-10.0136
▁suffer	-10.0138
▁temporary	-10.0148
▁prefer	-10.0167
▁advocates	-10.0175
▁deny	-10.018
▁inherent	-10.0192
▁relief	-10.0193
▁Freedom	-10.0194
war	-10.0197
▁regulations	-10.02
▁exact	-10.02
▁associated	-10.0204
▁accounts	-10.0209
▁competitors	-10.0215
we	-10.0221
▁independence	-10.0224
▁distinguished	-10.0224
▁Hoover	-10.0229
▁grounds	-10.023
▁lay	-10.0233
▁fiscal	-10.0248
):	-10.026
▁impose	-10.0265
▁strictly	-10.0265
▁affected	-10.0265
▁sphere	-10.027
▁proof	-10.0274
An	-10.0275
time	-10.0275
▁altogether	-10.0276
▁die	-10.0281
▁confusion	-10.0291
▁framework	-10.0293
▁sources	-10.0294
H	-10.0295
▁Both	-10.0296
▁decrease	-10.0298
▁Studies	-10.0303
▁enemy	-10.0306
men	-10.0308
How	-10.0313
▁valuation	-10.0317
▁heart	-10.032
”;	-10.032
▁Carolina	-10.0321
▁Is	-10.0328
10	-10.0334
▁environment	-10.0338
▁ruling	-10.0339
▁adjustment	-10.0342
▁uncertainty	-10.0342
▁collapse	-10.0378
▁ordinary	-10.04
▁holds	-10.0406
being	-10.0406
▁cents	-10.041
▁More	-10.0411
de	-10.0417
▁exception	-10.0419
▁student	-10.0421
▁provision	-10.0428
▁seriously	-10.043
▁feeling	-10.0431
▁introduced	-10.0436
▁ideology	-10.0444
▁intellectuals	-10.0448
▁detail	-10.0451
▁piece	-10.0456
Man	-10.0459
▁transaction	-10.0469
▁Empire	-10.0471
▁–	-10.048
▁foundation	-10.0487
▁historians	-10.0488
▁De	-10.0494
um	-10.0494
▁victory	-10.0497
▁primitive	-10.0498
▁Standard	-10.0514
From	-10.0517
▁art	-10.0517
▁preceding	-10.0521
▁typical	-10.0527
▁recession	-10.0534
▁health	-10.0535
▁Fisher	-10.0538
▁properly	-10.0545
▁board	-10.0556
▁Say	-10.0558
▁indirect	-10.0573
▁returns	-10.0574
▁beings	-10.0579
▁era	-10.058
▁Nor	-10.0582
▁succeeded	-10.0583
ll	-10.0584
———.	-10.0585
▁resistance	-10.0586
▁consume	-10.059
▁reading	-10.0592
▁Italian	-10.0611
▁born	-10.0624
▁committed	-10.0627
▁Depression	-10.0627
▁comparison	-10.0634
▁Administration	-10.0653
▁Nations	-10.0661
▁implications	-10.0669
▁writer	-10.0671
▁convinced	-10.0676
▁scope	-10.0677
▁Hull	-10.0677
▁coercive	-10.0678
▁arms	-10.0685
▁programs	-10.0688
▁looking	-10.0696
▁surely	-10.0703
▁key	-10.0716
▁fluctuations	-10.0717
▁earnings	-10.0717
▁examples	-10.0718
▁depreciation	-10.0728
▁statements	-10.0732
▁artificial	-10.0733
▁index	-10.074
▁freely	-10.0743
▁errors	-10.0745
▁planned	-10.0745
▁(2)	-10.0745
▁Second	-10.0747
▁During	-10.075
▁admitted	-10.0761
▁discover	-10.0761
▁statistics	-10.0762
▁month	-10.0762
▁scarcely	-10.0763
est	-10.0765
▁elsewhere	-10.0771
▁pattern	-10.0776
▁adopt	-10.0778
G	-10.0785
century	-10.0802
▁machines	-10.0813
▁fiduciary	-10.0814
▁exploitation	-10.082
▁corporations	-10.0824
are	-10.0843
▁argue	-10.0849
▁purchases	-10.085
▁denied	-10.0853
Y	-10.0854
▁ethics	-10.0858
▁referred	-10.0865
▁judge	-10.0868
▁citizen	-10.087
▁25	-10.0881
▁defend	-10.0885
K	-10.0887
▁draw	-10.0895
▁Harbor	-10.0901
ists	-10.0907
▁reaction	-10.0907
▁test	-10.0911
▁Spanish	-10.0913
with	-10.0922
18	-10.0931
▁agency	-10.0935
▁proceeds	-10.0944
▁fiat	-10.0947
▁sake	-10.0949
Of	-10.0956
▁variety	-10.0977
▁mainly	-10.0985
▁executive	-10.1001
▁closely	-10.101
▁extended	-10.1011
▁absurd	-10.1016
▁en	-10.1028
▁subsistence	-10.1029
▁substitute	-10.1031
▁impact	-10.1033
ff	-10.1034
▁myself	-10.1034
▁brief	-10.104
▁bringing	-10.1042
▁secret	-10.1045
▁explains	-10.1048
▁black	-10.1064
▁constitute	-10.1069
▁slave	-10.1069
▁9	-10.107
▁gets	-10.1078
▁combination	-10.1083
By	-10.1093
▁(1)	-10.1094
▁doesn	-10.1102
▁accordance	-10.1106
▁imagine	-10.1111
▁drop	-10.1112
▁My	-10.1114
▁Commission	-10.1114
▁supplies	-10.1114
k	-10.1115
▁inevitably	-10.1115
▁Berlin	-10.1119
▁trust	-10.112
▁rejected	-10.1134
▁Pearl	-10.1148
▁path	-10.1151
▁writes	-10.1157
▁peoples	-10.1158
▁son	-10.1175
▁reasonable	-10.1175
▁Roman	-10.1184
▁critics	-10.1184
▁contemporary	-10.1185
▁Also	-10.1188
▁excessive	-10.1194
.3	-10.1196
▁controlled	-10.1198
▁gradually	-10.12
▁remember	-10.1203
▁suggest	-10.1206
▁severe	-10.1208
▁creating	-10.1229
▁founded	-10.1231
2.	-10.1234
▁railroads	-10.124
▁played	-10.1241
▁=	-10.1242
▁academic	-10.1244
▁economically	-10.1249
▁League	-10.1252
▁wholly	-10.1255
▁didn	-10.1256
▁practices	-10.1256
▁satisfied	-10.1269
▁recognition	-10.1271
."	-10.1272
▁originally	-10.1272
▁relationships	-10.1275
▁succeed	-10.1275
▁gross	-10.1279
▁western	-10.128
▁30	-10.1281
▁providing	-10.1283
▁continually	-10.1285
▁destroyed	-10.129
▁technology	-10.1291
▁theorists	-10.1291
▁identical	-10.1298
▁Lincoln	-10.1306
▁demonstrated	-10.1313
▁legitimate	-10.1316
▁ancient	-10.133
▁remaining	-10.1331
▁justification	-10.1341
▁applies	-10.1343
▁eighteenth	-10.1344
▁mathematical	-10.1345
▁falls	-10.1349
▁Spain	-10.135
▁solely	-10.1356
▁contributions	-10.1358
▁Republic	-10.1358
▁Schumpeter	-10.1362
interest	-10.1371
▁12	-10.1372
▁produces	-10.1373
▁resource	-10.1384
▁Prices	-10.1389
▁soil	-10.1393
▁Principles	-10.1394
▁huge	-10.1405
▁liberals	-10.1419
▁substantial	-10.1419
▁operate	-10.142
▁aside	-10.1422
▁night	-10.1424
▁heard	-10.1425
▁creates	-10.1425
▁pleasure	-10.1427
▁strongly	-10.1431
▁Once	-10.1438
▁houses	-10.1444
▁returned	-10.1445
▁saved	-10.1461
▁connected	-10.1461
▁prevailing	-10.1463
▁precious	-10.1466
[	-10.1466
▁aims	-10.1466
▁Any	-10.1468
▁represents	-10.1469
▁Civil	-10.1471
▁render	-10.1472
▁lived	-10.1474
1.	-10.1478
▁projects	-10.1501
social	-10.1502
▁mental	-10.1504
!”	-10.1507
▁US	-10.1509
▁distinct	-10.151
▁societies	-10.1523
▁cheap	-10.153
▁replaced	-10.1532
You	-10.1551
With	-10.1552
▁space	-10.1553
▁insight	-10.1565
▁fire	-10.1568
▁desirable	-10.158
▁fair	-10.158
▁par	-10.1581
▁showed	-10.159
▁borrowing	-10.1591
▁(“	-10.1599
▁vice	-10.1599
▁Karl	-10.16
▁psychological	-10.1601
▁thirty	-10.1601
▁violent	-10.1603
▁merchant	-10.1605
▁master	-10.1608
▁helped	-10.1609
▁Old	-10.1618
▁plus	-10.1619
▁cover	-10.1629
▁pages	-10.1632
▁l	-10.1638
▁divided	-10.1645
▁prevented	-10.1652
▁begins	-10.1659
▁across	-10.166
▁armed	-10.1661
3.	-10.1667
▁prior	-10.1668
▁Philadelphia	-10.1671
▁plant	-10.1682
▁concerns	-10.1684
▁older	-10.1691
▁search	-10.1713
▁ideological	-10.1721
▁entitled	-10.1727
▁stood	-10.1734
▁propaganda	-10.1737
▁laid	-10.1757
▁import	-10.1773
▁families	-10.1776
▁suddenly	-10.1789
▁managed	-10.1795
▁Macmillan	-10.1807
▁nationalism	-10.1809
▁investors	-10.181
▁promote	-10.1813
▁Marxian	-10.1817
▁intelligence	-10.1817
▁mid	-10.1819
▁maintenance	-10.1822
▁happy	-10.1822
▁arrived	-10.1823
▁critique	-10.1823
N	-10.183
▁calling	-10.1831
▁factory	-10.1832
▁double	-10.1844
▁towns	-10.1854
▁uniform	-10.186
▁Office	-10.1861
▁combined	-10.1869
▁massive	-10.1875
▁resort	-10.1884
▁gained	-10.1885
▁appointed	-10.1891
▁procedure	-10.1897
▁woman	-10.1899
▁effectively	-10.1913
▁corporate	-10.1916
▁Navy	-10.1926
▁lending	-10.1933
▁instrument	-10.1941
While	-10.1942
▁wide	-10.1942
▁agencies	-10.1944
▁mention	-10.1946
▁X	-10.1963
▁studies	-10.1968
▁feature	-10.1978
▁wisdom	-10.1986
▁proposals	-10.1992
▁exchanged	-10.2007
▁grow	-10.2011
▁list	-10.2017
▁governor	-10.2019
▁preserve	-10.2029
▁formal	-10.2039
▁Cambridge	-10.2042
▁possess	-10.2049
▁rapid	-10.2049
▁La	-10.2061
▁grain	-10.2064
▁appeal	-10.2065
▁morality	-10.2079
▁19	-10.2082
▁rulers	-10.2083
O	-10.2084
▁occasion	-10.2088
▁settlement	-10.2088
▁competing	-10.2092
▁faced	-10.2096
▁unique	-10.2101
ally	-10.2102
▁slaves	-10.2104
▁conclude	-10.2108
▁trend	-10.2112
12	-10.2115
▁lend	-10.2123
▁totally	-10.2124
▁Currency	-10.2125
▁tariffs	-10.2129
▁taught	-10.2135
▁died	-10.2137
▁advocate	-10.2141
▁housing	-10.2141
▁bread	-10.2145
▁setting	-10.2154
▁sellers	-10.216
▁continues	-10.2192
▁justify	-10.2204
▁eager	-10.2205
▁Edward	-10.2209
▁perspective	-10.2223
▁3,	-10.2224
▁offers	-10.2231
▁officers	-10.2233
▁cotton	-10.2234
”)	-10.2235
▁peculiar	-10.2243
Why	-10.2243
▁phrase	-10.2246
▁economies	-10.226
▁Republicans	-10.2261
▁praxeology	-10.2261
▁harm	-10.2265
▁seven	-10.2279
▁attempted	-10.228
▁favorable	-10.2281
▁engage	-10.2292
Rothbard	-10.2305
▁III	-10.2308
▁elected	-10.2326
▁e	-10.2335
▁introduction	-10.2338
▁arises	-10.2341
▁supplied	-10.235
▁Assembly	-10.2354
▁isolated	-10.2361
▁sets	-10.2362
▁taxpayers	-10.2368
▁objection	-10.2373
▁organizations	-10.2375
▁items	-10.2377
▁influenced	-10.2379
▁farmer	-10.2384
rs	-10.2385
▁worst	-10.2387
▁Nature	-10.2388
▁abstract	-10.2398
▁distinguish	-10.2398
▁strict	-10.2406
▁lot	-10.2419
▁Foundation	-10.242
▁white	-10.2421
▁solve	-10.2422
▁deficits	-10.2425
▁Report	-10.2427
▁implied	-10.2433
11	-10.2435
▁Other	-10.2437
▁measured	-10.2437
▁Without	-10.2438
▁project	-10.2444
▁claimed	-10.2444
▁zero	-10.2444
▁d	-10.2449
▁appearance	-10.2449
▁rests	-10.245
▁Finally	-10.2451
▁battle	-10.2452
▁whenever	-10.2459
▁newly	-10.2463
▁fit	-10.2464
▁apparatus	-10.247
▁narrow	-10.2474
▁Right	-10.2475
▁trading	-10.2477
▁conference	-10.2481
▁Essays	-10.2482
▁game	-10.2485
do	-10.2488
z	-10.2499
▁wealthy	-10.25
▁ended	-10.2517
▁seeking	-10.2522
▁operating	-10.2522
▁fifty	-10.2523
▁promise	-10.2529
▁satisfactory	-10.2529
▁institutional	-10.2536
▁evils	-10.2536
Another	-10.2539
price	-10.2542
▁afford	-10.2546
After	-10.2546
▁que	-10.255
see	-10.2562
▁nevertheless	-10.2566
▁category	-10.2569
▁twentieth	-10.257
▁fighting	-10.2571
▁Walter	-10.2571
▁continuing	-10.2572
▁determining	-10.2573
▁colony	-10.2573
▁remarkable	-10.2579
▁prominent	-10.2584
▁Wall	-10.259
▁professor	-10.2594
▁car	-10.2597
▁Exchange	-10.2598
▁regards	-10.2606
▁wife	-10.2608
▁Army	-10.2608
▁thinks	-10.2616
▁indicated	-10.2619
▁Friedman	-10.2633
▁plants	-10.2633
▁dominant	-10.2636
▁excellent	-10.264
▁context	-10.2641
▁specifically	-10.2653
▁coal	-10.2659
▁abandoned	-10.2669
▁express	-10.2674
▁seller	-10.2678
▁occurs	-10.2689
▁grew	-10.2693
▁discipline	-10.2697
▁describe	-10.2702
▁observation	-10.2703
▁priori	-10.2718
▁Democrats	-10.2723
▁adequate	-10.2723
▁parents	-10.2724
▁sufficiently	-10.2732
▁putting	-10.2733
▁roads	-10.2733
▁blame	-10.2733
▁earned	-10.2735
▁discuss	-10.2736
▁discrimination	-10.2737
▁indispensable	-10.2737
▁entered	-10.2737
▁expanded	-10.2745
▁outstanding	-10.2746
▁Jr	-10.275
▁involve	-10.2752
▁regular	-10.2757
▁fine	-10.2761
value	-10.2763
▁statistical	-10.2764
▁reported	-10.2767
▁ill	-10.2769
▁quoted	-10.2769
▁leaving	-10.277
▁marked	-10.2773
▁Island	-10.2777
▁Governor	-10.2779
▁height	-10.278
▁running	-10.278
▁percentage	-10.2788
20	-10.2794
▁valuations	-10.2795
▁perform	-10.2798
▁contraction	-10.28
making	-10.2808
▁ignorance	-10.2815
▁politically	-10.2818
▁exclusive	-10.2819
▁reply	-10.2823
▁subsidies	-10.2836
▁counter	-10.284
▁Before	-10.284
▁determines	-10.2842
▁fields	-10.2842
▁initial	-10.2847
▁proceed	-10.2847
▁settled	-10.2849
▁acceptance	-10.2851
▁send	-10.2854
American	-10.2854
▁OF	-10.2854
▁discovery	-10.2855
▁13	-10.2855
ized	-10.2858
▁eight	-10.2862
▁description	-10.2866
▁differ	-10.2867
▁refers	-10.2867
▁deep	-10.2872
▁metal	-10.2874
▁choices	-10.2883
▁extension	-10.2889
▁businesses	-10.289
▁removed	-10.2891
▁Louis	-10.2896
▁estimate	-10.2901
▁motives	-10.2907
▁disposal	-10.2907
▁marks	-10.2912
▁16	-10.2916
▁Price	-10.2924
▁metals	-10.2933
▁agent	-10.2933
year	-10.2939
.5	-10.2947
▁criminal	-10.295
▁Fund	-10.2958
▁immense	-10.2963
▁imply	-10.2969
▁Minister	-10.2969
▁decade	-10.2971
▁Parliament	-10.2975
▁corporation	-10.2983
▁reducing	-10.2984
▁behalf	-10.2988
▁representatives	-10.2989
▁interventionism	-10.299
▁career	-10.2995
▁store	-10.3007
);	-10.301
▁dealt	-10.3014
▁Austrians	-10.3026
▁conflicts	-10.3026
▁table	-10.303
▁spring	-10.3038
▁professional	-10.3048
▁probability	-10.3057
▁shortage	-10.3074
▁enemies	-10.3078
▁Perhaps	-10.3078
▁communist	-10.3079
▁Industrial	-10.3082
▁positions	-10.3084
▁concluded	-10.3091
▁leadership	-10.3092
.4	-10.3098
▁Historical	-10.31
▁India	-10.3102
▁correctly	-10.3114
▁neutral	-10.312
▁Rome	-10.3123
▁Pacific	-10.3127
▁mode	-10.313
▁Dutch	-10.3131
▁buyer	-10.3134
▁investigation	-10.3137
▁moving	-10.3158
▁f	-10.3177
▁stands	-10.3181
▁Commerce	-10.3184
▁urged	-10.3186
▁safe	-10.3194
▁restricted	-10.3206
▁suffered	-10.3221
▁conscious	-10.3225
▁holdings	-10.3259
▁libertarians	-10.3266
▁heavily	-10.3267
▁representative	-10.327
▁attacked	-10.3276
Even	-10.3276
▁Bastiat	-10.3278
▁insisted	-10.3279
Mr	-10.3292
▁Where	-10.3296
▁restrict	-10.3301
▁Middle	-10.3302
▁obligation	-10.3305
Some	-10.3308
▁11	-10.3312
▁allocation	-10.3323
Yet	-10.3324
▁valued	-10.3325
▁agreements	-10.3326
▁realm	-10.3335
▁eliminate	-10.3341
▁subsequent	-10.3343
▁sign	-10.3354
However	-10.3363
▁influential	-10.3366
▁sole	-10.3368
在	-10.3368
▁waste	-10.337
▁believes	-10.3374
▁beneficial	-10.3375
▁Senator	-10.3375
▁grave	-10.3377
▁entry	-10.3383
▁qualities	-10.3386
h	-10.3389
▁pays	-10.3392
▁features	-10.3397
▁idle	-10.3405
▁Rather	-10.3407
▁Re	-10.3408
▁widespread	-10.3412
▁Socialist	-10.3413
▁successfully	-10.342
▁Nazi	-10.3428
▁Hazlitt	-10.3433
▁preferred	-10.3435
▁Left	-10.3438
▁Value	-10.3445
▁Carl	-10.3453
▁Jones	-10.3455
▁escape	-10.3457
land	-10.3466
▁commonly	-10.3468
▁attained	-10.3473
▁Ambassador	-10.3475
▁consumed	-10.3487
▁remedy	-10.3493
▁compensation	-10.3497
▁accomplished	-10.35
▁categories	-10.3509
▁obligations	-10.351
19	-10.351
▁Hamilton	-10.3516
▁suffering	-10.3517
U	-10.3517
▁starting	-10.3518
▁California	-10.3534
▁liquidity	-10.3545
▁extensive	-10.3547
▁guarantee	-10.3556
▁manufacturers	-10.3559
▁motive	-10.3563
▁restriction	-10.3565
▁recovery	-10.3565
▁ships	-10.3573
▁delivered	-10.3576
▁pricing	-10.3579
▁estimated	-10.3587
▁crises	-10.3587
▁maintaining	-10.3588
▁logically	-10.3589
▁serves	-10.3592
▁continuous	-10.3594
▁shape	-10.3598
▁overall	-10.3601
▁manufacturing	-10.3602
▁sees	-10.3603
▁transportation	-10.3605
▁bond	-10.3607
▁somehow	-10.3609
▁compelled	-10.3613
14	-10.3618
▁favored	-10.3627
▁finished	-10.363
▁regardless	-10.3635
▁Van	-10.3639
out	-10.3643
▁examine	-10.3645
▁constitutes	-10.3646
▁consent	-10.365
▁code	-10.3653
▁mistake	-10.3653
▁Marxism	-10.3655
▁Production	-10.3656
▁indirectly	-10.366
▁sovereignty	-10.3665
▁40	-10.3667
▁empire	-10.3676
▁Suppose	-10.3686
▁characterized	-10.3686
▁barter	-10.3691
▁hear	-10.3696
▁banker	-10.3698
▁cultural	-10.3698
▁propositions	-10.3708
el	-10.3712
▁considering	-10.3719
▁creditors	-10.3726
▁receipts	-10.3727
4.	-10.373
▁expanding	-10.3731
▁mother	-10.3734
▁abolition	-10.3745
▁static	-10.3751
▁standing	-10.3757
▁constitution	-10.3758
▁puts	-10.3758
▁disappear	-10.3763
▁fails	-10.3766
▁Oxford	-10.3766
▁legislature	-10.377
▁church	-10.3772
▁Frank	-10.3789
▁4,	-10.3791
▁charges	-10.3792
▁notice	-10.3802
▁weak	-10.3803
▁brilliant	-10.3805
▁praxeological	-10.3806
▁Y	-10.3812
▁invasion	-10.3819
▁revenues	-10.3823
▁fairly	-10.3824
▁pursue	-10.3835
▁tyranny	-10.3839
Chicago	-10.3843
ization	-10.3847
▁spiritual	-10.3853
▁instruments	-10.3853
▁Ohio	-10.3854
▁Johnson	-10.3856
▁suggests	-10.3859
▁credits	-10.3862
▁joint	-10.3863
▁detailed	-10.3866
▁replace	-10.3869
▁enforcement	-10.3885
▁Modern	-10.3888
▁Whether	-10.3888
▁refuse	-10.3893
▁center	-10.3899
am	-10.3904
▁nobody	-10.3916
▁waiting	-10.3922
▁nominal	-10.3926
rate	-10.3927
▁bit	-10.3933
▁inter	-10.3937
▁broad	-10.3937
▁le	-10.394
▁criterion	-10.3943
▁businessman	-10.3943
▁$1	-10.3957
▁turns	-10.3963
▁Politics	-10.3963
▁factories	-10.3973
▁opponents	-10.3988
▁publication	-10.3988
▁revealed	-10.3994
▁dead	-10.3996
▁charged	-10.4004
▁resulted	-10.4009
▁moreover	-10.4012
▁version	-10.4013
▁summer	-10.4014
15	-10.4016
▁focus	-10.4023
▁Nevertheless	-10.4026
▁compete	-10.4027
te	-10.4029
▁unknown	-10.403
▁enforce	-10.4032
▁Eastern	-10.4033
▁extra	-10.4034
▁18	-10.4037
13	-10.4042
▁assumes	-10.4048
▁weeks	-10.4049
▁teaching	-10.405
–1	-10.4054
▁sharp	-10.4057
▁voluntarily	-10.4058
▁Stalin	-10.4058
▁supreme	-10.406
▁5,	-10.4061
▁animals	-10.4064
natural	-10.4066
▁participants	-10.4068
▁14	-10.4073
▁schemes	-10.4075
▁deals	-10.4075
▁remarks	-10.4082
▁bureaucrats	-10.4085
▁includes	-10.4088
▁Marxist	-10.4096
▁impression	-10.4098
▁begun	-10.4099
▁demonstrate	-10.4105
▁defeat	-10.4112
▁deeply	-10.4114
pp	-10.4121
▁join	-10.4127
▁expenses	-10.413
▁examination	-10.4132
▁fashion	-10.4138
▁accumulated	-10.414
▁traffic	-10.4142
▁arrangement	-10.4156
▁actor	-10.416
▁remote	-10.4171
▁page	-10.4177
▁achievement	-10.4178
▁Hans	-10.4179
▁steps	-10.4185
▁rendered	-10.4191
▁reflect	-10.4195
▁occupation	-10.4197
▁draft	-10.4209
▁driven	-10.4213
.6	-10.4214
▁anticipated	-10.4217
▁performance	-10.4219
▁Truman	-10.4229
▁Hoppe	-10.4236
▁minor	-10.4237
▁observe	-10.4247
▁corn	-10.4247
▁carrying	-10.4252
▁Quarterly	-10.4252
▁easier	-10.426
▁joined	-10.4282
▁precise	-10.429
▁influences	-10.4292
▁accordingly	-10.4305
▁laborers	-10.4308
▁sovereign	-10.4308
▁Harvard	-10.4331
ies	-10.4338
▁careful	-10.4339
▁contributed	-10.4347
▁enjoyed	-10.4351
izing	-10.4353
▁validity	-10.4353
▁ounces	-10.4368
▁pursuit	-10.4374
▁pounds	-10.4385
reserve	-10.4387
ment	-10.4388
▁incentives	-10.4389
é	-10.4391
▁names	-10.4401
▁sums	-10.4403
▁phase	-10.4403
▁rents	-10.4405
▁conceived	-10.4406
▁tells	-10.4411
known	-10.4417
▁printing	-10.4419
▁substitutes	-10.4422
▁margin	-10.4422
so	-10.4424
Here	-10.4425
▁abandon	-10.4433
▁moderate	-10.4434
ion	-10.4443
▁completed	-10.445
▁repeated	-10.4467
▁Indians	-10.4471
▁dynamic	-10.4476
▁ibid	-10.4482
▁Supreme	-10.4482
▁front	-10.4483
▁Chinese	-10.4489
▁causal	-10.4492
▁Africa	-10.4496
▁Wieser	-10.45
▁carefully	-10.45
▁asking	-10.4508
▁horse	-10.4508
▁extend	-10.4512
▁speculative	-10.4515
▁managers	-10.4518
▁totalitarian	-10.4523
▁tender	-10.4527
was	-10.4527
▁voting	-10.454
▁sides	-10.4546
▁Like	-10.4549
five	-10.4552
▁opinions	-10.4557
▁sooner	-10.4559
▁philosophical	-10.4569
▁rank	-10.457
▁passing	-10.4575
▁threatened	-10.4575
▁systematic	-10.4579
like	-10.4582
▁naval	-10.4588
▁director	-10.4588
▁provisions	-10.459
▁mine	-10.4595
▁Kirzner	-10.4598
▁fallacy	-10.4603
▁arrangements	-10.4607
▁weapons	-10.4609
▁complicated	-10.4617
▁Two	-10.4623
▁underlying	-10.4626
▁closed	-10.4628
▁considers	-10.4631
▁probable	-10.4634
▁Morris	-10.4641
▁species	-10.4646
▁Just	-10.4648
▁chaos	-10.4649
▁expensive	-10.4651
▁explicitly	-10.4654
▁attacks	-10.4655
▁win	-10.4659
even	-10.4659
▁dispute	-10.4659
▁named	-10.466
▁lowering	-10.4663
▁followers	-10.4666
▁stay	-10.467
▁cheaper	-10.4672
▁compare	-10.4676
▁feelings	-10.4677
▁Democracy	-10.4679
▁fewer	-10.4689
是	-10.4691
▁THE	-10.4692
▁Franklin	-10.4697
▁reverse	-10.4706
▁Churchill	-10.4714
▁royal	-10.4715
▁consciousness	-10.4719
▁Men	-10.4722
▁Lu	-10.4724
▁Oil	-10.4728
▁emphasized	-10.4733
▁requirement	-10.4736
▁Madison	-10.4742
▁assert	-10.4746
▁bureaucracy	-10.4752
▁arrive	-10.4758
▁philosophers	-10.4759
▁adds	-10.4759
▁bargaining	-10.477
▁unlimited	-10.4773
▁strange	-10.478
▁inferior	-10.4785
▁unemployed	-10.4786
▁speculators	-10.4796
rd	-10.4801
▁circulating	-10.4806
▁harmony	-10.4809
▁contradiction	-10.4817
17	-10.4817
▁department	-10.4818
▁Research	-10.4819
▁Education	-10.4823
▁device	-10.4824
▁protective	-10.4824
▁Bill	-10.4826
▁durable	-10.4836
▁Jersey	-10.4844
▁soldiers	-10.4845
▁illegal	-10.4845
▁fraud	-10.4853
▁Bureau	-10.4873
▁animal	-10.4878
▁characteristics	-10.488
▁contained	-10.4886
▁realization	-10.4892
▁ignored	-10.4892
▁bulk	-10.4896
▁street	-10.4899
▁insist	-10.4903
▁Die	-10.4905
▁establishing	-10.4905
▁emergence	-10.4914
▁access	-10.4921
ar	-10.4922
▁eminent	-10.4923
▁creative	-10.4923
▁region	-10.4924
▁readily	-10.4925
▁quantitative	-10.4925
▁decisive	-10.4926
▁controversy	-10.4926
▁collection	-10.4932
▁encourage	-10.4936
▁presence	-10.4942
▁advances	-10.4942
▁turning	-10.4945
▁supporters	-10.4945
▁borrow	-10.4946
ton	-10.4946
▁Again	-10.4957
▁Mass	-10.4957
▁confused	-10.4958
▁honest	-10.4962
▁formula	-10.4962
▁c	-10.4963
▁Southern	-10.4967
▁colonial	-10.4969
▁largest	-10.4969
il	-10.4975
▁sea	-10.4976
▁news	-10.4982
▁slow	-10.4985
such	-10.4988
16	-10.4988
▁intention	-10.4989
▁forget	-10.4994
government	-10.4995
▁liabilities	-10.4996
▁review	-10.4999
▁Another	-10.5005
▁sugar	-10.5005
▁text	-10.5009
▁experiment	-10.5009
▁aggressive	-10.501
▁performed	-10.5011
▁chap	-10.502
▁forgotten	-10.502
▁leaves	-10.503
▁cartel	-10.5032
▁comparatively	-10.5035
▁vision	-10.5052
▁fought	-10.5059
▁morning	-10.5064
▁readers	-10.5069
▁undoubtedly	-10.5075
▁imported	-10.5075
ary	-10.5079
▁contribute	-10.508
▁Capitalism	-10.5098
▁assuming	-10.5101
▁Who	-10.5109
▁ordered	-10.5114
▁Books	-10.5116
▁imperialism	-10.5116
▁generations	-10.5126
law	-10.5127
▁hire	-10.5138
▁cycles	-10.5138
▁striking	-10.514
▁overcome	-10.5143
▁Herbert	-10.5149
▁considerably	-10.5151
▁urgent	-10.5153
▁wait	-10.5154
▁humanity	-10.5167
▁possibilities	-10.5168
▁lie	-10.517
▁promises	-10.5173
▁indicate	-10.5173
▁leisure	-10.5177
▁protected	-10.5184
▁Do	-10.5185
▁abundance	-10.5187
▁transition	-10.5201
▁privileged	-10.5207
▁cease	-10.5211
▁Plan	-10.5219
em	-10.5221
▁Ala	-10.5227
▁adjust	-10.5238
Our	-10.5238
▁receiving	-10.5242
▁Friedrich	-10.5246
▁y	-10.5255
▁Indian	-10.5255
▁Buchanan	-10.5256
▁Neither	-10.5259
▁useless	-10.5262
▁judges	-10.5264
▁reject	-10.5266
▁Connecticut	-10.5266
▁conquest	-10.527
▁training	-10.5274
▁simultaneously	-10.528
▁alter	-10.528
▁urban	-10.5281
▁Justice	-10.5282
▁vain	-10.5284
有	-10.5284
▁wise	-10.5301
▁Thought	-10.5303
▁artificially	-10.5306
▁purchased	-10.5308
▁treaty	-10.5308
▁round	-10.531
class	-10.5322
▁Ford	-10.5332
▁birth	-10.5337
from	-10.5339
▁improved	-10.534
▁+	-10.534
5.	-10.534
▁enforced	-10.534
▁respective	-10.5341
30	-10.5356
▁stopped	-10.536
ur	-10.5362
▁concentration	-10.5364
▁viewed	-10.5364
▁remove	-10.5369
▁upper	-10.5372
▁17	-10.5379
▁advice	-10.5381
▁comprehensive	-10.5381
▁objections	-10.5387
▁runs	-10.5388
son	-10.54
▁monopolistic	-10.5405
▁obliged	-10.5409
▁sudden	-10.5412
▁wonder	-10.5415
▁ignore	-10.5415
▁cited	-10.542
▁details	-10.5427
▁showing	-10.5436
▁learning	-10.5437
▁permanently	-10.5437
▁assistance	-10.544
▁premium	-10.5442
▁sentiment	-10.5446
▁spoke	-10.5448
▁quarter	-10.545
▁6,	-10.5451
May	-10.5454
▁votes	-10.5455
▁unchanged	-10.5456
▁ounce	-10.5462
▁retain	-10.5464
▁Today	-10.5464
▁improvements	-10.547
▁ff	-10.5474
▁capitalistic	-10.5476
▁blood	-10.5479
▁immigration	-10.5483
▁rare	-10.5494
▁forever	-10.5497
Since	-10.55
▁stronger	-10.55
age	-10.5501
▁advocated	-10.5508
▁fate	-10.5508
▁estimates	-10.5514
▁aimed	-10.5524
▁1.	-10.553
▁hundreds	-10.5532
▁victim	-10.5536
▁unfortunate	-10.5537
▁confined	-10.5566
▁manufacture	-10.5568
▁slowly	-10.5573
▁issuing	-10.5576
▁wished	-10.5576
▁developing	-10.558
▁Princeton	-10.5583
▁define	-10.5585
▁Far	-10.559
▁Samuel	-10.5593
▁Lenin	-10.5594
▁7,	-10.5601
▁college	-10.5603
▁reports	-10.5614
state	-10.5617
▁trial	-10.5634
▁circle	-10.5642
▁grasp	-10.5643
▁translation	-10.5647
▁legally	-10.5651
ch	-10.5655
▁schedule	-10.5656
▁vague	-10.5657
▁Canada	-10.5662
▁punishment	-10.5666
▁Jackson	-10.5667
▁feudal	-10.567
▁reflected	-10.5671
▁distributed	-10.5674
▁individualism	-10.5675
▁accounting	-10.5675
▁informed	-10.5679
▁chapters	-10.5685
▁thoroughly	-10.5686
▁discussions	-10.569
▁comparative	-10.5691
▁Clark	-10.5693
▁tendencies	-10.5699
▁tasks	-10.5703
▁Martin	-10.5709
▁alike	-10.571
os	-10.571
▁inhabitants	-10.5719
scale	-10.572
▁upward	-10.5731
▁tries	-10.5733
▁supposedly	-10.5735
▁Bush	-10.574
▁respects	-10.5742
▁receives	-10.5749
▁announced	-10.5763
▁borrowed	-10.5767
▁finding	-10.5769
▁nine	-10.5774
▁substance	-10.5775
▁associations	-10.5785
▁accompanied	-10.5787
▁fallen	-10.5791
▁opened	-10.5796
▁barriers	-10.5801
▁experienced	-10.5802
▁contains	-10.5803
▁corruption	-10.581
▁warned	-10.5813
23	-10.5813
▁technique	-10.5823
.7	-10.5827
there	-10.5827
▁unfortunately	-10.5831
▁restore	-10.5838
ie	-10.5838
▁warning	-10.5839
▁till	-10.5839
▁monarchy	-10.584
▁regions	-10.5842
▁murder	-10.5847
▁statism	-10.5851
▁ahead	-10.5851
▁ad	-10.5855
▁fourth	-10.5857
▁raises	-10.5862
▁für	-10.5863
▁treat	-10.5868
Hayek	-10.587
▁sharply	-10.5873
▁assigned	-10.5875
Not	-10.5881
▁regulate	-10.5894
▁induce	-10.5897
▁secretary	-10.5899
▁answered	-10.5906
▁redemption	-10.5908
▁alternatives	-10.5909
▁forty	-10.5913
▁strategy	-10.5917
▁fast	-10.5918
▁allows	-10.5919
▁Wealth	-10.5923
25	-10.5928
▁sight	-10.5931
▁asserted	-10.5934
▁redistribution	-10.594
▁1929	-10.594
▁secondary	-10.5941
▁emerge	-10.5942
▁sorts	-10.5948
operation	-10.5955
▁seeks	-10.5957
▁clause	-10.5961
▁possessed	-10.5965
▁warfare	-10.5967
▁address	-10.5968
▁interpreted	-10.5981
6.	-10.5991
June	-10.5995
▁Robbins	-10.5995
▁titles	-10.5998
▁automatically	-10.6002
▁disaster	-10.6003
▁eye	-10.6005
▁legislative	-10.6006
▁safety	-10.6013
▁Arthur	-10.6019
▁instances	-10.6023
▁voted	-10.6028
▁broken	-10.6033
▁conceive	-10.6033
▁medical	-10.6046
▁rises	-10.6047
▁newspapers	-10.6051
▁delegates	-10.6057
et	-10.6059
▁del	-10.6059
▁newspaper	-10.6063
▁voters	-10.6072
▁statist	-10.6074
▁equation	-10.6076
▁Finance	-10.6077
▁guide	-10.6082
▁Though	-10.6083
▁intent	-10.6083
▁conservatives	-10.6103
▁collectivist	-10.611
▁streets	-10.611
▁du	-10.6113
▁adoption	-10.6118
who	-10.6118
▁Alexander	-10.6119
▁plain	-10.6124
▁oppose	-10.6129
▁governed	-10.613
▁conceivable	-10.613
▁Private	-10.6132
▁tool	-10.6136
▁prospect	-10.6139
▁allowing	-10.6141
▁anybody	-10.6149
▁assertion	-10.6151
▁intelligent	-10.6152
▁testimony	-10.6161
▁marriage	-10.6164
▁suitable	-10.6165
x	-10.6176
▁temporarily	-10.6177
▁risks	-10.6177
▁philosopher	-10.6178
ia	-10.6178
▁motion	-10.6178
▁surprising	-10.6187
▁lowest	-10.619
March	-10.6194
▁scholars	-10.6203
▁Benjamin	-10.6204
▁Life	-10.6205
▁curious	-10.6207
–2	-10.6209
▁denounced	-10.6219
com	-10.622
First	-10.6221
▁customs	-10.6225
▁80	-10.6233
▁Harper	-10.6241
▁Brown	-10.6243
▁serving	-10.6246
▁bankruptcy	-10.6249
▁belong	-10.6253
▁Among	-10.6253
▁Part	-10.6259
▁induced	-10.6267
▁profession	-10.6268
▁Order	-10.6278
▁risen	-10.628
▁magnitude	-10.628
ry	-10.6284
▁offset	-10.629
▁destructive	-10.6291
▁commission	-10.6295
ling	-10.6297
▁pretty	-10.63
▁argues	-10.6304
▁mines	-10.6306
▁unnecessary	-10.6309
▁victims	-10.6309
▁fleet	-10.6318
▁Mrs	-10.6319
▁replied	-10.632
▁grown	-10.6332
▁neglected	-10.6334
▁literary	-10.6338
▁approval	-10.6341
▁curves	-10.6342
▁encouraged	-10.6345
21	-10.6348
▁profound	-10.6349
▁monopolies	-10.635
▁foundations	-10.6351
▁universally	-10.6351
▁Clinton	-10.6354
▁ranks	-10.6357
▁scene	-10.636
▁solved	-10.6363
▁chiefly	-10.6367
My	-10.6368
▁wool	-10.6369
▁conventional	-10.6371
▁pieces	-10.6371
▁Engels	-10.6374
▁cure	-10.6379
▁utilities	-10.6382
▁elite	-10.6383
▁yields	-10.6386
▁n	-10.6388
▁interventionist	-10.639
▁Warren	-10.6391
▁foreigners	-10.6394
▁killed	-10.6396
▁invariably	-10.6397
▁door	-10.6399
▁count	-10.6403
▁fruits	-10.6407
▁90	-10.6411
▁slightly	-10.6416
▁ruled	-10.6419
real	-10.6421
▁hypothetical	-10.6426
▁university	-10.6434
▁challenge	-10.6447
▁asset	-10.6449
including	-10.645
▁inner	-10.6461
▁Reich	-10.6461
▁sub	-10.648
▁enjoyment	-10.6486
▁letters	-10.649
▁voice	-10.6491
▁seeing	-10.6492
▁hypothesis	-10.6492
▁Cleveland	-10.6493
▁attached	-10.6497
▁Inflation	-10.6503
▁Rights	-10.6503
▁roundabout	-10.6504
▁partial	-10.6506
▁transferred	-10.6507
▁tended	-10.651
entrepreneurship	-10.6511
▁talking	-10.6514
▁liberties	-10.6523
▁inequality	-10.6525
22	-10.6526
▁County	-10.6539
▁checks	-10.654
▁Short	-10.654
▁interfere	-10.6543
▁financed	-10.6549
▁compulsion	-10.6559
▁attainment	-10.656
▁accomplish	-10.6563
▁seemingly	-10.6575
▁thoughts	-10.6576
▁fish	-10.6578
▁Book	-10.6584
▁surprise	-10.659
▁standpoint	-10.6591
▁Similarly	-10.6591
▁uncertain	-10.6593
▁certainty	-10.6604
▁calculations	-10.6605
▁Consequently	-10.6612
▁m	-10.6613
▁prevail	-10.6616
▁resist	-10.6622
▁guided	-10.6629
They	-10.6632
▁contention	-10.6634
▁College	-10.6634
▁degrees	-10.6636
.8	-10.6637
▁Liberalism	-10.6642
▁Greek	-10.6644
50	-10.6659
▁Weber	-10.6662
▁suggestion	-10.6666
▁knowing	-10.6667
▁disastrous	-10.6667
▁rely	-10.6672
▁editor	-10.6673
▁Columbia	-10.6677
▁Poland	-10.6685
://	-10.6686
▁illustration	-10.6687
▁San	-10.6687
▁sterling	-10.6688
▁grants	-10.6692
▁(18	-10.6692
▁elections	-10.6699
▁copper	-10.6703
▁milk	-10.6707
▁eliminated	-10.6712
▁preservation	-10.6713
▁inquiry	-10.6718
▁root	-10.6719
▁item	-10.6731
▁offering	-10.6735
▁explicit	-10.6736
▁stress	-10.6744
▁approximately	-10.6746
December	-10.6746
▁terminology	-10.675
▁steady	-10.675
▁avoided	-10.6756
Such	-10.6758
ive	-10.6765
▁eds	-10.6767
▁Yale	-10.677
.9	-10.6772
▁idem	-10.6772
▁60	-10.6779
▁reward	-10.6787
▁Jews	-10.6789
▁twice	-10.679
▁ages	-10.6794
good	-10.6795
▁expectation	-10.6796
▁ship	-10.6797
▁developments	-10.6798
▁closer	-10.6798
Although	-10.6802
▁besides	-10.6803
▁negotiations	-10.6807
▁propose	-10.6814
▁meat	-10.6814
▁monopolist	-10.6815
▁transformed	-10.6818
▁abolished	-10.6819
▁Le	-10.6823
▁Conference	-10.683
▁declare	-10.6831
▁studied	-10.6832
▁boundaries	-10.6833
▁push	-10.6834
right	-10.6835
▁conviction	-10.6838
▁rightly	-10.6839
▁staff	-10.6844
▁presents	-10.6845
▁prohibited	-10.685
▁driving	-10.6859
▁dated	-10.6867
▁variations	-10.6868
▁consist	-10.6871
▁pain	-10.6871
▁pursued	-10.6906
over	-10.6907
▁skill	-10.6909
▁financing	-10.6911
ir	-10.6913
▁habit	-10.6913
▁experiences	-10.6916
▁invention	-10.6917
▁representation	-10.6918
▁formerly	-10.6918
▁situations	-10.6921
▁unhampered	-10.6923
▁8,	-10.6928
▁reputation	-10.6931
▁bearing	-10.6942
ter	-10.6943
▁scientists	-10.6943
▁broke	-10.6945
▁chairman	-10.696
0	-10.6964
▁clothing	-10.6972
▁guilty	-10.6976
▁minister	-10.6981
▁miles	-10.6982
Finally	-10.6983
▁proceeded	-10.6985
———	-10.6987
▁courage	-10.6988
▁filled	-10.6993
▁merchandise	-10.6994
▁antitrust	-10.7011
▁exceed	-10.7033
▁approved	-10.7035
▁debtors	-10.7036
▁presumably	-10.7037
▁shoes	-10.7039
▁experts	-10.7043
▁universe	-10.7044
▁utterly	-10.7045
▁deliberately	-10.7046
▁recommended	-10.7047
▁illusion	-10.7053
­	-10.7055
▁superiority	-10.7056
▁conversation	-10.7057
▁calculated	-10.706
▁fundamentally	-10.7063
▁shared	-10.707
▁conscience	-10.708
▁covered	-10.7083
▁9,	-10.7086
▁buildings	-10.7086
▁achievements	-10.7087
▁armies	-10.7088
▁promptly	-10.7089
▁quasi	-10.7098
▁Land	-10.7102
wing	-10.7103
▁wholesale	-10.7106
▁Can	-10.7112
▁mathematics	-10.7115
▁fortune	-10.7118
▁printed	-10.7118
▁offices	-10.7124
▁collectivism	-10.7124
▁bottom	-10.7127
old	-10.713
▁Still	-10.7132
▁explaining	-10.7134
▁feet	-10.7135
▁promised	-10.7138
▁causing	-10.714
▁acquisition	-10.7143
▁damage	-10.7155
▁honor	-10.716
▁teacher	-10.7161
Many	-10.7172
▁twelve	-10.7177
▁violation	-10.7177
▁exposition	-10.7181
▁prime	-10.7185
▁translated	-10.7185
▁anxious	-10.7187
▁bodies	-10.7197
▁losing	-10.7205
▁Atlantic	-10.7205
▁socialistic	-10.7207
▁notions	-10.7223
▁imaginary	-10.7228
▁compromise	-10.7233
▁Ethics	-10.7253
▁theft	-10.7256
▁costly	-10.7262
▁Asia	-10.7266
▁plays	-10.7266
▁Communism	-10.7269
▁rarely	-10.7271
exchange	-10.7273
▁properties	-10.7278
▁undertaken	-10.7282
Austrian	-10.7282
▁survive	-10.7284
▁style	-10.7285
▁typically	-10.7286
▁banknotes	-10.729
▁effected	-10.7296
▁Maryland	-10.7299
▁hatred	-10.7301
▁Turgot	-10.7301
▁obstacles	-10.7303
▁coordination	-10.7309
▁perceived	-10.7313
▁territories	-10.7315
▁dominated	-10.7315
▁granting	-10.7317
▁stressed	-10.7317
▁selected	-10.7325
▁constituted	-10.7328
▁intermediate	-10.7329
▁24	-10.7334
▁irrelevant	-10.7335
▁surface	-10.7335
▁centralized	-10.7337
▁reforms	-10.7338
▁incompatible	-10.7339
▁essays	-10.734
▁condemned	-10.7341
▁Property	-10.7345
▁looks	-10.7348
they	-10.7349
▁assured	-10.7349
liberal	-10.735
▁extraordinary	-10.7356
▁limitations	-10.7358
▁derive	-10.7361
▁redeem	-10.738
▁soul	-10.7385
▁implicit	-10.7388
▁tremendous	-10.7392
▁11,	-10.7394
▁implication	-10.7398
V	-10.7408
▁teachings	-10.7415
▁pushed	-10.742
▁Treatise	-10.7422
▁backed	-10.7427
▁chain	-10.7433
▁Kennedy	-10.7439
ier	-10.7442
▁repeatedly	-10.7442
▁advantageous	-10.7443
▁Analysis	-10.7445
co	-10.7448
▁Are	-10.7448
24	-10.7452
▁drug	-10.7453
▁Post	-10.7453
▁openly	-10.7457
▁borrowers	-10.746
ant	-10.7464
▁occupied	-10.7475
▁Third	-10.7476
off	-10.7483
▁likewise	-10.7484
▁accident	-10.7489
▁ran	-10.7497
▁stabilization	-10.7497
▁Competition	-10.7507
▁poorer	-10.7508
▁protest	-10.7515
▁Block	-10.7516
▁fallacies	-10.7518
▁diminished	-10.7522
▁francs	-10.7523
▁lacking	-10.7525
▁misleading	-10.7527
▁spontaneous	-10.7527
▁Un	-10.7528
▁guaranteed	-10.7538
▁wine	-10.7538
▁gift	-10.7543
▁26	-10.7545
April	-10.7547
▁dictatorship	-10.7551
31	-10.7555
▁privately	-10.7557
▁mostly	-10.7559
▁initiative	-10.756
▁1960	-10.756
gainst	-10.7562
▁judicial	-10.7564
▁declined	-10.7566
▁united	-10.7568
▁male	-10.7568
▁Mussolini	-10.7568
▁fix	-10.7579
▁diminishing	-10.7581
▁repeal	-10.7587
▁Ages	-10.7588
28	-10.7588
▁unity	-10.7589
▁thinkers	-10.7601
▁rid	-10.7601
▁papers	-10.7609
▁Nothing	-10.7609
▁rigid	-10.7614
▁abolish	-10.7618
▁complementary	-10.7623
▁discussing	-10.7624
▁charity	-10.7624
▁alliance	-10.7625
▁variable	-10.7626
▁Anglo	-10.7627
▁insights	-10.7629
▁Salerno	-10.763
▁shifted	-10.7634
▁inclined	-10.7635
▁mistaken	-10.7637
▁psychology	-10.7641
▁advertising	-10.7642
▁membership	-10.7643
會	-10.7644
▁Archive	-10.7645
▁employee	-10.7646
▁reflection	-10.7655
▁ratios	-10.7657
▁concludes	-10.7657
▁background	-10.7658
▁noble	-10.7672
▁earning	-10.768
—“	-10.7682
▁submit	-10.7686
▁elaborate	-10.7686
▁cars	-10.7687
▁River	-10.7693
January	-10.7693
▁neglect	-10.7701
▁unjust	-10.7708
▁adjusted	-10.7713
▁realistic	-10.7715
October	-10.7718
ner	-10.7723
▁Kimmel	-10.7726
November	-10.773
▁Crusoe	-10.7731
▁resolution	-10.7738
▁referring	-10.7739
▁civilized	-10.774
▁genius	-10.7751
September	-10.7755
▁Locke	-10.7757
▁bourgeois	-10.7759
▁injustice	-10.7759
▁Papers	-10.7762
▁coinage	-10.7765
26	-10.7768
▁seq	-10.7772
▁methodological	-10.7775
investment	-10.7777
▁buys	-10.7777
▁deprived	-10.7779
▁defeated	-10.7783
▁via	-10.7793
▁Illinois	-10.7793
▁hostile	-10.7797
▁manufacturer	-10.7799
versus	-10.78
org	-10.7805
this	-10.7807
▁domain	-10.781
▁identified	-10.7812
29	-10.7814
▁faster	-10.7814
▁endeavors	-10.7814
▁Iraq	-10.7818
▁Holland	-10.7819
▁northern	-10.7822
▁mutually	-10.7831
▁steadily	-10.7835
▁survival	-10.7839
▁Time	-10.784
Under	-10.7842
▁Will	-10.7854
▁defended	-10.7857
▁neoclassical	-10.7859
▁suit	-10.7859
▁integrity	-10.7866
▁Saint	-10.7868
▁Hume	-10.7873
▁Federalists	-10.7877
▁arose	-10.7879
▁15,	-10.7881
▁merit	-10.7883
ler	-10.7889
▁depositors	-10.7894
▁grand	-10.7902
▁virtues	-10.791
▁prestige	-10.7914
ro	-10.7915
▁manifest	-10.7916
▁Nazis	-10.7926
▁reduces	-10.7929
▁lesser	-10.7931
▁coffee	-10.7931
▁lesson	-10.7931
▁wartime	-10.7932
▁red	-10.7933
▁restraint	-10.7934
me	-10.7935
27	-10.7935
▁secured	-10.794
▁allegedly	-10.7941
▁regulated	-10.7946
▁dream	-10.7946
goods	-10.7949
▁innovation	-10.7954
▁adding	-10.7956
▁emerged	-10.796
▁teachers	-10.7964
▁obtaining	-10.7974
▁bullion	-10.7981
▁conducted	-10.7982
▁slight	-10.7989
▁Latin	-10.7989
▁venture	-10.7996
▁Prussian	-10.7999
▁strikes	-10.7999
▁(3)	-10.8002
▁hitherto	-10.8004
▁distant	-10.8005
▁Protestant	-10.8011
▁parallel	-10.8016
§	-10.8022
▁1970	-10.8023
▁proportions	-10.8033
▁surrender	-10.8034
▁innocent	-10.8036
▁gradual	-10.8043
▁retained	-10.8047
▁limitation	-10.8051
▁administrative	-10.8056
▁transformation	-10.806
▁Liberal	-10.8062
▁taxpayer	-10.8065
▁mainstream	-10.8067
▁opening	-10.8072
▁exercised	-10.8074
▁anarchist	-10.8076
▁definitely	-10.8079
▁Unfortunately	-10.8079
▁settlers	-10.8082
▁Auburn	-10.8082
▁vary	-10.8082
▁Switzerland	-10.8088
▁billions	-10.8091
▁Affairs	-10.8097
▁Philosophy	-10.8099
▁downward	-10.8102
▁bureaucratic	-10.8102
▁speed	-10.8103
▁frequent	-10.8106
▁personally	-10.8108
▁comment	-10.8113
▁reprinted	-10.8113
▁radio	-10.8115
▁holders	-10.8115
▁excluded	-10.8117
▁bitter	-10.813
▁erroneous	-10.8131
▁ignorant	-10.8133
▁substitution	-10.8134
▁youth	-10.8139
▁shop	-10.8142
40	-10.8143
▁independently	-10.8145
preference	-10.8148
▁struck	-10.8151
▁owe	-10.8153
During	-10.8158
▁acres	-10.8158
ent	-10.816
▁cast	-10.8162
▁imposing	-10.8163
▁settle	-10.8171
labor	-10.8177
▁los	-10.8179
▁Rhode	-10.8182
▁fill	-10.8182
▁southern	-10.8187
Keynes	-10.8196
ting	-10.8198
▁debtor	-10.8198
▁harmful	-10.82
▁integration	-10.82
▁unlike	-10.82
▁universities	-10.82
▁forcing	-10.82
▁indicates	-10.8201
▁1933,	-10.8207
▁inefficient	-10.8211
▁classic	-10.8213
▁fraction	-10.8224
▁22	-10.8225
▁generated	-10.823
▁occupations	-10.8236
▁fallacious	-10.8237
▁headed	-10.8238
▁Christianity	-10.8242
▁substantially	-10.8244
▁12,	-10.8245
▁criticized	-10.8247
▁Stock	-10.8247
▁salaries	-10.825
public	-10.8252
▁arising	-10.8255
▁Cantillon	-10.8257
▁triumph	-10.8259
▁warehouse	-10.826
▁Tucker	-10.8274
▁myth	-10.8275
▁certificates	-10.8277
▁belongs	-10.8278
▁21	-10.8282
can	-10.8282
▁varying	-10.8283
▁throw	-10.8284
Washington	-10.8287
▁location	-10.8287
▁neighbors	-10.8288
▁allies	-10.8291
▁repeat	-10.8291
▁presidential	-10.8293
ate	-10.8294
▁differently	-10.8295
▁bubble	-10.8304
▁homogeneous	-10.8305
capital	-10.8306
▁quick	-10.8314
▁doctor	-10.8321
33	-10.8324
▁hoped	-10.8327
▁failures	-10.8327
▁blind	-10.833
▁lasting	-10.8334
▁collected	-10.8341
▁novel	-10.8343
▁plenty	-10.8344
▁automobile	-10.8345
w	-10.8354
▁married	-10.8359
▁Age	-10.8363
▁borrower	-10.8366
▁predict	-10.8372
Cambridge	-10.8378
▁el	-10.8392
▁remarked	-10.8392
▁dropped	-10.84
▁http	-10.8401
▁23	-10.8401
▁cold	-10.8404
▁involving	-10.841
▁IV	-10.841
▁Texas	-10.8412
▁10,	-10.8413
▁MS	-10.8415
▁embodied	-10.8415
▁wider	-10.8415
▁attributed	-10.8416
▁emphasize	-10.8416
▁preventing	-10.8418
▁brother	-10.8419
▁Crown	-10.8419
▁tobacco	-10.842
▁hopes	-10.8427
▁sin	-10.8428
▁gap	-10.8434
▁traders	-10.8436
istic	-10.8436
national	-10.8436
▁analogy	-10.8438
▁describes	-10.8442
▁treatise	-10.8454
▁acted	-10.8455
▁customary	-10.8462
▁comments	-10.8464
▁definitions	-10.8465
▁adjustments	-10.8465
▁Georgia	-10.847
▁Taft	-10.8473
▁selection	-10.848
▁dangers	-10.848
ities	-10.8483
La	-10.8488
▁abundant	-10.8489
▁mixed	-10.8506
▁satisfying	-10.851
John	-10.8511
▁est	-10.8517
▁observations	-10.8519
▁emergency	-10.8522
▁fixing	-10.8522
will	-10.8524
▁kings	-10.8526
▁outright	-10.8533
our	-10.8538
▁orthodox	-10.8538
THE	-10.854
▁republic	-10.8543
▁separation	-10.8543
▁educational	-10.8546
▁convenient	-10.8546
▁teach	-10.8553
▁27	-10.8556
▁candidate	-10.8556
▁seized	-10.8557
▁habits	-10.8563
▁literally	-10.8568
▁accurate	-10.8569
▁sells	-10.857
▁panic	-10.8572
▁Peace	-10.8575
▁Harry	-10.8576
▁despotism	-10.8576
▁politician	-10.858
▁devote	-10.8594
Ludwig	-10.8604
▁duration	-10.8605
▁Welfare	-10.8605
▁disregard	-10.8608
▁seventeenth	-10.8613
▁communities	-10.8617
would	-10.8618
▁thrown	-10.8621
ite	-10.8623
v	-10.8627
▁wild	-10.863
more	-10.8631
▁sentence	-10.8631
▁tied	-10.8636
▁planners	-10.8637
▁Big	-10.8637
▁weakness	-10.8643
▁indifference	-10.8645
▁contractual	-10.8649
▁successive	-10.8654
▁fatal	-10.8655
▁enthusiasm	-10.8659
▁fault	-10.8661
▁Aristotle	-10.8661
▁disputes	-10.8663
power	-10.8672
▁irrational	-10.8672
▁partially	-10.8674
▁satisfactions	-10.8686
▁Amendment	-10.8686
▁Haven	-10.8697
▁custom	-10.8698
▁print	-10.8705
new	-10.8708
▁Cycle	-10.8709
▁firmly	-10.8709
▁female	-10.8712
▁Francisco	-10.8721
▁camp	-10.8723
just	-10.8727
▁Israel	-10.8729
non	-10.8732
▁touch	-10.8733
▁Century	-10.8735
▁attempting	-10.8739
▁measurement	-10.874
▁employing	-10.8741
▁infinite	-10.8744
▁disease	-10.8745
▁Federalist	-10.8746
▁200	-10.875
▁Development	-10.8752
July	-10.8753
▁transport	-10.8755
▁circles	-10.8756
▁Milton	-10.8757
▁libertarianism	-10.876
▁operated	-10.8764
,"	-10.8765
what	-10.877
per	-10.8775
▁equations	-10.8778
Then	-10.8779
▁prosperous	-10.8782
▁homes	-10.8782
▁declaration	-10.8783
production	-10.8786
▁wherever	-10.8789
▁retail	-10.8789
▁partner	-10.8796
▁overwhelming	-10.8797
▁inspired	-10.8804
▁converted	-10.8817
▁circumstance	-10.8818
▁1950	-10.882
▁signed	-10.8834
▁Forum	-10.8837
▁facilities	-10.8839
▁correspondence	-10.8839
▁composed	-10.884
▁construct	-10.8842
cost	-10.8846
▁bid	-10.8849
▁consistently	-10.8849
▁trans	-10.885
▁prevails	-10.8852
▁briefly	-10.886
▁recall	-10.8872
7.	-10.8875
▁chose	-10.8875
▁Albert	-10.8877
though	-10.8882
▁14,	-10.8885
▁manufactures	-10.8889
▁Malthus	-10.8891
▁design	-10.8892
▁taste	-10.8896
▁fifteen	-10.8904
▁reformers	-10.8906
▁hurt	-10.8909
▁Z	-10.8912
▁Lee	-10.8913
led	-10.8925
ish	-10.8925
August	-10.8932
▁divine	-10.8937
▁techniques	-10.894
▁Misesian	-10.8942
▁territorial	-10.8942
▁decree	-10.8948
▁specialized	-10.895
▁endless	-10.895
▁remark	-10.8952
▁functioning	-10.8955
▁Alfred	-10.8957
▁Later	-10.896
▁drawing	-10.8967
▁lectures	-10.8978
▁Michael	-10.898
▁blow	-10.8986
▁outset	-10.8989
▁ceased	-10.8991
▁compel	-10.8994
▁Statistics	-10.8994
▁deeper	-10.8999
▁criticisms	-10.9001
▁sympathy	-10.9003
▁district	-10.9003
37	-10.9003
▁professors	-10.9005
▁answers	-10.9008
▁prospective	-10.9011
▁Further	-10.9014
▁undertake	-10.9016
▁True	-10.9022
▁similarly	-10.9026
▁permits	-10.9031
▁replacement	-10.9033
▁Continental	-10.9038
不	-10.9038
▁models	-10.904
February	-10.9044
▁lender	-10.9045
▁interventions	-10.9045
▁link	-10.9045
ne	-10.9046
▁Long	-10.905
▁Security	-10.9053
▁merits	-10.9069
▁stream	-10.9069
▁personality	-10.9071
▁abuse	-10.9072
▁expended	-10.9078
38	-10.9078
▁impossibility	-10.908
”?	-10.9081
▁cooperative	-10.9087
▁kill	-10.9087
▁cutting	-10.909
▁1933	-10.9091
▁Knight	-10.9096
▁guns	-10.9102
▁illustrate	-10.9111
▁ruin	-10.9118
▁Jewish	-10.9121
▁distance	-10.9123
▁al	-10.9123
▁fruit	-10.9123
▁races	-10.9131
▁exceptions	-10.9134
▁currently	-10.9134
▁bargain	-10.9143
▁Economists	-10.9145
▁image	-10.9146
▁urge	-10.9146
▁manager	-10.9147
▁confronted	-10.915
▁withdraw	-10.9153
ful	-10.9159
▁imagination	-10.916
▁Steel	-10.9161
▁morally	-10.9166
▁Prussia	-10.9168
▁helps	-10.9171
▁household	-10.9178
▁Hutt	-10.918
▁lecture	-10.9189
▁reveals	-10.919
▁Whatever	-10.919
ce	-10.9191
▁arts	-10.9202
▁outlook	-10.9203
▁hit	-10.9212
▁proportional	-10.9213
▁choosing	-10.9214
▁misery	-10.9216
▁Anti	-10.922
▁Spencer	-10.9222
▁split	-10.9224
▁faculty	-10.9225
▁enabled	-10.9228
▁expert	-10.9231
▁worthy	-10.9233
minded	-10.9248
▁Stuart	-10.9248
▁respectively	-10.9249
▁anywhere	-10.9254
▁con	-10.9256
▁Planning	-10.9258
▁applying	-10.9259
▁35	-10.9267
ra	-10.9268
▁Northern	-10.9269
▁theme	-10.9271
▁applicable	-10.9271
▁mortgage	-10.9275
▁devices	-10.9276
▁Reprinted	-10.9283
Every	-10.9284
www	-10.9285
▁Randolph	-10.9286
▁combinations	-10.9287
▁cyclical	-10.9287
▁diplomatic	-10.9287
ability	-10.9287
level	-10.9287
▁inadequate	-10.9288
▁representing	-10.9307
▁remembered	-10.931
▁$100	-10.9318
▁attractive	-10.9323
▁requiring	-10.9326
▁whatsoever	-10.9328
▁ideals	-10.9331
▁charter	-10.9337
▁Scottish	-10.9339
▁pointing	-10.934
▁generate	-10.9346
▁proves	-10.9346
▁correspond	-10.9351
▁oppression	-10.9362
▁excuse	-10.9366
▁supporting	-10.9369
▁intentions	-10.9371
▁overlooked	-10.9372
▁customer	-10.9376
▁attract	-10.9378
▁sections	-10.9378
8.	-10.938
▁acceptable	-10.9385
▁consequent	-10.9392
▁metallic	-10.9393
▁rival	-10.9396
▁rebellion	-10.9399
▁75	-10.9401
▁friendly	-10.9403
▁physics	-10.9411
▁Communists	-10.9411
▁cattle	-10.942
▁network	-10.9425
▁postwar	-10.9426
▁broader	-10.9427
▁Certainly	-10.9429
▁mechanical	-10.9433
▁specialization	-10.9437
▁sexual	-10.9439
▁landed	-10.9443
▁Be	-10.9443
▁taxed	-10.9444
▁Controversies	-10.9452
▁$2	-10.9454
▁altered	-10.946
▁quo	-10.9462
▁countless	-10.9466
▁nationalist	-10.9478
35	-10.9479
▁shot	-10.948
▁masters	-10.9483
▁fiction	-10.9488
ize	-10.9489
▁Max	-10.9494
▁analyze	-10.9494
Before	-10.9503
▁1914	-10.9505
▁eat	-10.9505
▁consisted	-10.9529
▁proclaimed	-10.9529
▁mill	-10.9532
▁separated	-10.9536
▁actors	-10.9537
▁Stark	-10.9541
▁manage	-10.9542
▁sacrifices	-10.9545
▁$4	-10.9547
▁native	-10.9549
▁contain	-10.955
▁radically	-10.9552
▁Don	-10.9552
▁furthermore	-10.9554
▁physically	-10.9561
ous	-10.9564
▁secession	-10.9565
▁Belgium	-10.9568
▁Robinson	-10.957
▁eternal	-10.9571
▁disappeared	-10.9574
▁aristocracy	-10.9574
▁crop	-10.9574
▁Jevons	-10.9576
▁reflects	-10.9577
▁delay	-10.9579
▁scales	-10.958
▁propensity	-10.9581
▁Well	-10.9584
▁evidently	-10.9585
▁organize	-10.9598
▁calculate	-10.9601
▁vols	-10.9608
▁lowered	-10.961
▁Nation	-10.9613
▁gas	-10.9615
▁sentiments	-10.9619
▁Would	-10.9629
▁chooses	-10.9629
▁remuneration	-10.9636
▁luxury	-10.9639
▁watch	-10.9641
▁Should	-10.9641
▁mistakes	-10.9642
▁evening	-10.9642
▁dark	-10.9644
▁dictator	-10.9647
▁governing	-10.9647
Most	-10.9651
▁contact	-10.9653
▁Geneva	-10.9656
▁telling	-10.9658
▁1980	-10.9658
human	-10.9662
Human	-10.9666
▁records	-10.9668
▁implicitly	-10.9669
▁hired	-10.967
▁29	-10.9671
income	-10.9676
▁restraints	-10.9681
▁subjected	-10.9682
ul	-10.9684
▁neutrality	-10.9684
32	-10.9685
▁contend	-10.9696
▁acknowledged	-10.9696
▁keeps	-10.9698
la	-10.9707
▁launched	-10.971
▁Mexico	-10.971
has	-10.9711
▁praise	-10.9718
▁utilitarian	-10.972
▁combat	-10.9724
▁Williams	-10.9724
▁convertibility	-10.9725
▁heads	-10.9726
▁significantly	-10.9736
▁Irish	-10.9736
▁nonsense	-10.9737
▁pamphlet	-10.9737
▁colleagues	-10.9738
▁Catholics	-10.9742
▁identify	-10.9743
Re	-10.9751
▁experiments	-10.9754
▁restored	-10.9756
▁plunder	-10.9762
rates	-10.9762
▁edited	-10.9763
▁Problem	-10.9763
▁option	-10.9769
▁usefulness	-10.9772
▁regularly	-10.9773
▁inconsistent	-10.9775
▁balanced	-10.9777
▁alive	-10.9778
▁acquiring	-10.978
▁caught	-10.978
▁quote	-10.9785
43	-10.9788
▁70	-10.9791
▁seldom	-10.9794
▁parity	-10.9796
▁achieving	-10.9799
▁obey	-10.9799
▁insufficient	-10.9799
▁breaking	-10.9805
▁reveal	-10.9806
▁x	-10.9806
▁unfair	-10.981
ty	-10.981
▁crimes	-10.9811
Money	-10.9817
▁doubtful	-10.9819
▁roughly	-10.982
▁Ill	-10.9823
▁Francis	-10.9827
▁controlling	-10.9829
▁gun	-10.9829
▁statesmen	-10.9829
▁shortly	-10.9835
▁creditor	-10.9839
▁prevailed	-10.9845
▁loses	-10.9846
Auburn	-10.9847
▁Figure	-10.9855
▁mining	-10.986
▁$10	-10.986
▁$3	-10.9865
▁impulse	-10.9867
▁province	-10.9867
▁global	-10.9869
▁inside	-10.987
▁gifts	-10.9873
▁noticed	-10.9874
▁Lachmann	-10.9874
▁terrible	-10.988
bank	-10.9881
▁theorist	-10.9882
▁laborer	-10.9886
▁insofar	-10.9891
▁Polish	-10.9892
▁specified	-10.9893
▁intense	-10.9894
▁speaks	-10.9905
▁penalty	-10.9906
▁clients	-10.9907
▁lawyer	-10.9908
Paris	-10.9909
▁versa	-10.9913
▁exert	-10.9919
▁beliefs	-10.9921
▁manufactured	-10.9927
▁borders	-10.9927
▁Red	-10.9928
▁16,	-10.993
▁cf	-10.9934
▁deliberate	-10.9935
▁richer	-10.9937
▁les	-10.9939
▁music	-10.9939
▁topic	-10.994
▁appropriation	-10.9947
▁drew	-10.9948
▁train	-10.995
evident	-10.9966
▁Green	-10.9966
▁objectives	-10.9973
▁dividends	-10.9975
▁communication	-10.9977
▁diminish	-10.998
▁route	-10.9982
▁accustomed	-10.9985
▁systematically	-10.9986
▁Allen	-10.9992
▁Corporation	-10.9996
▁Financial	-10.9996
46	-10.9997
▁introduce	-11.0004
▁entity	-11.0015
▁badly	-11.0022
▁core	-11.0024
▁rural	-11.0026
▁*	-11.0026
▁trace	-11.0026
▁Stimson	-11.0029
▁stores	-11.003
▁cloth	-11.003
▁Socialists	-11.0032
▁constructed	-11.0035
▁planes	-11.0038
▁biological	-11.0039
▁renders	-11.004
▁maximize	-11.0042
▁isn	-11.0047
▁Employment	-11.005
▁bears	-11.0054
▁Reagan	-11.0054
▁dedicated	-11.006
▁slightest	-11.006
▁methodology	-11.006
▁march	-11.006
▁accused	-11.006
.*	-11.0063
que	-11.0078
▁viz	-11.0082
▁secular	-11.0084
im	-11.0084
▁Mark	-11.0086
▁proletariat	-11.0088
一	-11.009
▁subsidy	-11.009
▁quotas	-11.0091
▁Freeman	-11.0093
whether	-11.0093
▁“[	-11.0094
▁perpetual	-11.0094
▁dozen	-11.0097
his	-11.0098
▁directors	-11.0099
▁neo	-11.0108
▁defending	-11.0108
ard	-11.011
▁brokers	-11.0112
▁straight	-11.0112
▁concentrated	-11.0113
go	-11.0115
▁midst	-11.0119
▁hostility	-11.0119
▁envy	-11.0119
▁servants	-11.012
▁integrated	-11.0123
▁unlikely	-11.0124
▁crude	-11.0126
▁abilities	-11.0127
•	-11.0134
▁explanations	-11.0136
▁meaningless	-11.0137
▁premises	-11.0142
▁peak	-11.0147
▁attribute	-11.0148
80	-11.015
▁request	-11.0153
▁formulation	-11.0154
▁officer	-11.0165
▁grows	-11.0165
▁composition	-11.0168
「	-11.0168
▁dilemma	-11.017
▁indefinitely	-11.0172
▁Progressive	-11.0175
▁meaningful	-11.0176
▁helping	-11.0179
▁sociology	-11.018
▁sex	-11.0183
tax	-11.0184
▁Anderson	-11.0184
▁incapable	-11.019
His	-11.019
made	-11.0193
▁remind	-11.0198
▁Does	-11.0203
▁automatic	-11.0204
▁30,	-11.0204
▁owing	-11.0206
▁invented	-11.0209
▁host	-11.0211
▁convert	-11.0223
▁perfection	-11.0233
▁instant	-11.0237
▁starts	-11.0238
▁militia	-11.0239
▁futile	-11.024
39	-11.0248
ol	-11.0248
Boston	-11.025
▁liquid	-11.0253
▁removal	-11.0255
▁liable	-11.0255
ine	-11.0256
▁psychic	-11.0258
▁village	-11.0258
▁discounted	-11.0259
ley	-11.0265
▁exclude	-11.0269
▁yourself	-11.0269
▁exposed	-11.0272
▁Tax	-11.028
▁Keynesians	-11.0284
▁examined	-11.0286
▁occasionally	-11.0289
34	-11.0294
▁couldn	-11.0294
▁visible	-11.03
▁lenders	-11.0301
▁refusal	-11.0301
▁permission	-11.0301
▁predicted	-11.0305
▁Woods	-11.0313
▁African	-11.0314
▁amendment	-11.0319
▁execution	-11.0319
▁2.	-11.0327
Moreover	-11.033
▁Hampshire	-11.0331
▁unprecedented	-11.0331
▁1940	-11.0333
人	-11.0335
▁viewpoint	-11.0336
▁somewhere	-11.034
wide	-11.034
▁peasants	-11.0345
▁elementary	-11.0348
▁Reform	-11.0348
▁Her	-11.0348
與	-11.0356
▁Ireland	-11.0357
▁inventions	-11.0359
▁restricting	-11.0362
▁clearing	-11.0369
▁backward	-11.0374
▁restoration	-11.0378
German	-11.0382
▁champions	-11.0383
▁latest	-11.0383
▁attracted	-11.0383
44	-11.0392
而	-11.0399
▁Crisis	-11.04
▁velocity	-11.0401
▁18,	-11.0402
▁Paper	-11.0406
▁inflate	-11.0407
▁wonderful	-11.0407
▁multitude	-11.0412
▁possesses	-11.0412
47	-11.0413
den	-11.0415
60	-11.0416
▁skills	-11.042
▁super	-11.042
▁somebody	-11.0425
▁spot	-11.0427
▁racial	-11.0427
▁contradictory	-11.0428
▁passion	-11.0428
▁authoritarian	-11.0431
▁assure	-11.0431
have	-11.0437
▁mission	-11.0437
ating	-11.0438
ber	-11.0439
▁energies	-11.0439
▁feared	-11.0446
Well	-11.0446
▁pressures	-11.0449
▁absorbed	-11.045
▁boy	-11.0451
▁dis	-11.0453
▁affects	-11.0459
gold	-11.0464
36	-11.0468
▁demonstrates	-11.047
▁trades	-11.0472
▁marketplace	-11.0474
於	-11.0476
▁Admiral	-11.0478
▁Good	-11.0479
▁treasury	-11.048
▁promoting	-11.0482
▁riches	-11.0487
▁commit	-11.0489
▁county	-11.0489
▁healthy	-11.049
42	-11.0493
▁28,	-11.0496
▁17,	-11.0499
▁Mississippi	-11.0502
▁disposition	-11.0503
▁disturbances	-11.0517
▁ensure	-11.0518
▁Strong	-11.0523
▁flat	-11.0527
▁Fetter	-11.0529
▁investigations	-11.0531
political	-11.0533
▁seize	-11.0534
▁foregoing	-11.0535
Is	-11.0538
▁maintains	-11.0546
▁journal	-11.0547
▁axiom	-11.0553
Professor	-11.0556
▁severely	-11.0557
ge	-11.056
▁(17	-11.0562
▁foremost	-11.0564
▁Over	-11.0564
▁imperial	-11.0567
▁fresh	-11.0567
▁socially	-11.0568
▁pace	-11.0568
▁continuously	-11.0571
▁leftist	-11.0571
▁Given	-11.0577
▁Russians	-11.0577
▁1946	-11.058
▁lawyers	-11.058
▁cartels	-11.0583
▁b	-11.0585
▁preserved	-11.0588
▁faculties	-11.0595
▁recourse	-11.0596
▁interpret	-11.0596
▁herself	-11.0597
▁meetings	-11.0609
▁atmosphere	-11.0611
▁collect	-11.0612
▁husband	-11.0615
▁FDR	-11.0622
▁rejection	-11.0628
▁bankrupt	-11.0628
Die	-11.0634
▁vs	-11.0636
▁accepting	-11.064
▁footnote	-11.0648
▁shifting	-11.0651
▁tastes	-11.0652
時	-11.0652
ö	-11.0653
▁climate	-11.0656
productive	-11.0666
▁demonstration	-11.0669
▁Emperor	-11.0669
▁arbitrarily	-11.067
▁asks	-11.0671
▁decides	-11.0673
▁travel	-11.0675
▁Obviously	-11.0676
▁moves	-11.0678
▁jurisdiction	-11.0679
▁28	-11.068
▁liability	-11.0685
▁destined	-11.069
▁vested	-11.0691
▁normally	-11.0693
▁recommend	-11.0699
under	-11.07
▁Kingdom	-11.07
▁fortunes	-11.0701
▁protecting	-11.0705
▁evenly	-11.0712
when	-11.0713
▁elimination	-11.0715
▁creed	-11.072
▁Case	-11.072
▁supremacy	-11.0722
▁remainder	-11.0723
▁sit	-11.0724
▁associate	-11.0725
▁economical	-11.0725
▁isolation	-11.0728
▁loose	-11.0732
▁Tory	-11.0739
▁Jay	-11.0741
▁prohibit	-11.0744
▁crash	-11.0746
▁accord	-11.0747
▁founder	-11.0749
▁hidden	-11.0749
▁appreciate	-11.0751
▁exploit	-11.0753
▁bigger	-11.0755
▁$5	-11.0756
▁sending	-11.0756
▁anticipate	-11.0757
ke	-11.0758
▁ruler	-11.0758
▁willingness	-11.076
▁memory	-11.076
▁favour	-11.0761
ance	-11.0762
▁Luther	-11.0762
▁disequilibrium	-11.0768
▁sixty	-11.0771
▁restrictive	-11.0774
▁Bentham	-11.0775
▁revival	-11.0777
▁copy	-11.0778
▁Rand	-11.0779
▁proprietors	-11.078
▁incorporated	-11.078
only	-11.0786
▁perceive	-11.0789
▁appreciation	-11.079
two	-11.0795
▁signs	-11.0798
▁enormously	-11.08
▁intensity	-11.08
▁stockholders	-11.0803
▁cross	-11.0804
▁pursuing	-11.0807
▁island	-11.0807
▁Surely	-11.0812
▁pleasures	-11.0814
▁survey	-11.0817
▁Fort	-11.0818
▁govern	-11.0825
▁medieval	-11.0827
▁guard	-11.0827
▁cuts	-11.0831
▁depending	-11.0833
▁salary	-11.0834
▁pride	-11.0836
41	-11.0837
70	-11.0839
48	-11.0841
▁selfish	-11.0845
▁Study	-11.085
▁Ricardian	-11.085
▁historically	-11.0852
▁1933.	-11.0854
▁passive	-11.0855
▁deliver	-11.0857
▁elastic	-11.0858
▁entering	-11.0862
▁convince	-11.0863
▁equity	-11.0864
▁cultivation	-11.0867
ig	-11.0868
au	-11.087
▁utilization	-11.088
▁volumes	-11.088
▁20,	-11.0882
▁1941,	-11.0884
▁dismissed	-11.0886
▁dispose	-11.0886
9.	-11.089
▁nearer	-11.089
▁onto	-11.0892
中	-11.0898
▁compatible	-11.0898
▁ideologies	-11.0899
▁deemed	-11.0902
▁stimulate	-11.0903
▁Kentucky	-11.0903
▁prospects	-11.0904
▁visit	-11.0905
▁tomorrow	-11.0908
ship	-11.0911
▁truths	-11.0914
▁21,	-11.0915
▁motivated	-11.0919
▁solid	-11.0919
▁deposited	-11.092
▁im	-11.0923
▁respond	-11.0926
misunderstanding	-11.0926
▁capita	-11.0931
War	-11.0935
▁superficial	-11.0937
▁congressional	-11.0938
ial	-11.094
▁exploited	-11.0945
▁nationalists	-11.0946
▁Works	-11.0947
▁contempt	-11.0948
▁counted	-11.0956
▁Treaty	-11.096
▁differs	-11.0966
▁plausible	-11.0971
▁expropriation	-11.0971
▁playing	-11.0974
▁approaches	-11.0975
▁document	-11.0975
▁revolt	-11.0977
▁Hawaii	-11.0978
▁notable	-11.098
▁egalitarian	-11.0984
[1]	-11.0985
▁flexible	-11.0986
▁nuclear	-11.0986
▁Owen	-11.0987
Princeton	-11.099
▁reasonably	-11.0994
▁Despite	-11.0994
▁Napoleon	-11.0995
▁devotion	-11.0997
▁basically	-11.0998
▁minutes	-11.1001
▁Eisenhower	-11.1005
▁scholar	-11.1006
▁sustained	-11.1009
▁1935.	-11.1009
ors	-11.1012
world	-11.1013
▁feasible	-11.1013
▁analyzed	-11.1017
▁session	-11.1022
美	-11.1025
▁fears	-11.1028
▁immoral	-11.1029
▁incurred	-11.103
▁chances	-11.1045
▁1890	-11.1047
ni	-11.105
▁suffice	-11.1051
▁sequence	-11.1054
▁medicine	-11.1055
▁demanding	-11.1056
▁utmost	-11.1063
▁Hopkins	-11.1064
▁succession	-11.1066
▁shorter	-11.1067
▁accurately	-11.1067
▁endowed	-11.1071
▁undertaking	-11.1074
▁Greece	-11.1077
half	-11.1081
▁1937.	-11.1087
▁prince	-11.1087
ten	-11.1097
▁Natural	-11.11
▁addressed	-11.1104
▁modest	-11.1116
▁Acton	-11.1117
▁expedient	-11.1121
IN	-11.1123
▁winter	-11.1125
▁Chamber	-11.1137
▁presupposes	-11.1148
▁shut	-11.1148
ta	-11.1149
用	-11.115
▁hated	-11.1151
▁north	-11.1155
▁clothes	-11.1156
▁13,	-11.1156
▁farther	-11.1163
▁fulfill	-11.1164
▁redeemable	-11.1165
▁farms	-11.1166
▁prefers	-11.1167
▁linked	-11.1168
▁drugs	-11.1169
▁attitudes	-11.1175
democratic	-11.1178
▁instinct	-11.1181
▁Relations	-11.1184
▁patterns	-11.1187
▁incident	-11.1188
▁Gordon	-11.1189
▁protectionism	-11.1191
▁assault	-11.1192
▁deprive	-11.1192
▁loaned	-11.1193
▁prevents	-11.1194
▁Clearly	-11.1196
▁criteria	-11.12
▁corrupt	-11.1201
▁multiple	-11.1206
▁provinces	-11.1213
mo	-11.1217
▁virtual	-11.1218
▁compensate	-11.122
▁1990	-11.1222
▁please	-11.1222
▁chair	-11.1225
▁empty	-11.1229
seeking	-11.1231
▁confirmed	-11.1232
▁popularity	-11.1233
▁Years	-11.1233
▁critic	-11.1235
▁horses	-11.1239
dis	-11.124
▁Bismarck	-11.1246
▁outbreak	-11.1247
Perhaps	-11.1249
Yes	-11.1251
▁lent	-11.1253
▁radicals	-11.1255
▁favorite	-11.1257
▁seminar	-11.1258
▁stamp	-11.1261
given	-11.1262
monetary	-11.1264
tion	-11.1274
▁Income	-11.1278
▁Labour	-11.1278
▁workmen	-11.1279
66	-11.128
▁frame	-11.1281
▁talked	-11.1281
▁wouldn	-11.1282
▁supplying	-11.1283
▁owns	-11.1284
ma	-11.1287
▁halt	-11.1287
▁withdrawn	-11.1289
▁uniformity	-11.1291
▁absent	-11.1295
▁eastern	-11.1296
▁Samuelson	-11.1297
▁destroying	-11.13
▁participation	-11.1301
75	-11.1302
▁west	-11.1305
▁highway	-11.1307
▁centers	-11.1308
▁declares	-11.131
▁drastic	-11.1313
▁disadvantage	-11.1316
▁comprehend	-11.1319
full	-11.132
▁Problems	-11.1321
▁imagined	-11.1323
▁structures	-11.1325
▁presidency	-11.1325
.10	-11.1327
▁file	-11.1329
▁afraid	-11.133
出	-11.133
According	-11.1333
▁Andrew	-11.1337
▁Norman	-11.1339
▁Inc	-11.1344
▁Hegel	-11.1346
▁resolved	-11.135
▁furnished	-11.1352
▁enters	-11.1352
▁Chief	-11.1353
▁ease	-11.1353
▁acknowledge	-11.1353
demand	-11.1355
id	-11.1359
64	-11.1361
▁thanks	-11.1362
cf	-11.1362
▁attributes	-11.1362
▁levied	-11.1364
45	-11.1365
▁corresponds	-11.1369
▁worry	-11.1373
▁sheer	-11.1387
▁25,	-11.1391
▁striving	-11.1393
▁formulated	-11.1394
▁champion	-11.1394
▁improving	-11.1395
▁Lawrence	-11.1398
▁Grove	-11.14
▁inputs	-11.1401
▁distinguishes	-11.1402
▁judged	-11.1408
▁Wagner	-11.1409
▁welcome	-11.1411
▁butter	-11.1414
were	-11.1418
▁cabinet	-11.142
vis	-11.1425
▁audience	-11.1427
▁temptation	-11.1427
▁Swiss	-11.1428
▁operates	-11.1428
except	-11.1429
▁150	-11.1432
▁taxing	-11.1435
▁doubtless	-11.1435
▁combine	-11.144
▁3.	-11.1446
▁domination	-11.145
▁bourgeoisie	-11.1455
▁depreciated	-11.1456
▁Defense	-11.146
▁instruction	-11.1461
▁navy	-11.1466
▁shipping	-11.1466
▁1931	-11.1468
為	-11.1477
▁trained	-11.1479
▁furnish	-11.1482
▁chronic	-11.1485
▁sat	-11.1489
▁directions	-11.1489
▁45	-11.1501
▁sophisticated	-11.1501
56	-11.1501
▁disposed	-11.1503
▁Publishers	-11.1505
▁crowd	-11.1509
▁19,	-11.151
▁1932,	-11.151
▁presentation	-11.1511
▁Senior	-11.1514
▁Frederick	-11.1516
49	-11.1516
▁corollary	-11.1518
▁Wicksell	-11.1518
line	-11.1518
▁attended	-11.1524
▁thorough	-11.1525
▁orientation	-11.1529
▁passages	-11.1533
▁convertible	-11.1534
▁labourers	-11.1535
▁Roger	-11.1536
▁Industry	-11.1539
▁expressions	-11.154
▁recognizes	-11.1541
▁Little	-11.1542
▁suspension	-11.1544
▁dramatic	-11.1545
▁Irving	-11.1551
▁unsatisfactory	-11.1553
▁impressed	-11.1554
▁surprised	-11.1558
▁continual	-11.1566
▁pains	-11.1567
▁26,	-11.1568
▁1880	-11.1573
▁Rousseau	-11.1574
well	-11.1577
▁fascism	-11.1577
▁inheritance	-11.1577
ownership	-11.1582
ad	-11.1583
51	-11.1587
Those	-11.1587
▁treaties	-11.1588
▁endeavor	-11.1593
▁Prince	-11.1593
▁amounted	-11.1594
pe	-11.1595
▁obedience	-11.1596
▁unequal	-11.16
▁inability	-11.1601
[2]	-11.1607
▁attend	-11.1609
▁obscure	-11.1619
▁handed	-11.1624
▁traced	-11.1626
▁skilled	-11.1633
▁observer	-11.1638
▁1870	-11.164
▁Pareto	-11.1644
▁apt	-11.1645
▁admits	-11.1646
▁Early	-11.1646
▁authorized	-11.1649
▁inherently	-11.1651
▁aiming	-11.1655
▁unused	-11.1657
Do	-11.1661
▁Black	-11.1663
▁proponents	-11.1663
▁tribes	-11.1664
▁asserts	-11.1664
▁ancestors	-11.1669
▁geographical	-11.1671
▁sanctions	-11.1673
▁29,	-11.1674
▁Mary	-11.1682
▁districts	-11.1683
▁obstacle	-11.1688
▁elasticity	-11.1691
▁absurdity	-11.1694
ted	-11.1697
▁fulfilled	-11.1697
▁mighty	-11.1699
▁prejudice	-11.1699
▁emerges	-11.17
▁deserves	-11.1701
76	-11.1703
▁shifts	-11.1703
▁interpersonal	-11.1706
▁classification	-11.1707
▁Inquiry	-11.171
▁efficiently	-11.171
▁assurance	-11.1725
▁Congressional	-11.1726
▁Mason	-11.1727
▁Era	-11.1728
▁distress	-11.1731
▁illustrated	-11.1732
because	-11.1733
sch	-11.1734
▁frontier	-11.1736
▁arguing	-11.1737
▁AND	-11.1737
▁substituted	-11.1737
▁deflationary	-11.1741
▁arm	-11.1744
where	-11.1745
▁suspicion	-11.1746
▁initially	-11.1753
▁organic	-11.1756
ey	-11.1757
▁input	-11.1758
▁27,	-11.1759
▁transfers	-11.1767
▁1953	-11.1768
Furthermore	-11.1769
▁contemporaries	-11.178
▁freight	-11.178
▁refrain	-11.1782
▁conceded	-11.1783
▁Eugen	-11.1789
▁surpluses	-11.1804
▁mercantilist	-11.1805
▁depressions	-11.1806
▁Service	-11.1807
▁killing	-11.1808
▁Sherman	-11.1809
▁Hill	-11.1809
▁accumulate	-11.1809
▁idleness	-11.181
88	-11.1812
▁weapon	-11.1813
▁interaction	-11.1813
▁declining	-11.1816
▁varied	-11.1816
▁nobility	-11.1819
wage	-11.1822
▁22,	-11.1823
Spring	-11.1825
▁encounter	-11.1826
Once	-11.1826
▁arranged	-11.1827
▁witness	-11.1827
▁vicious	-11.1828
▁consisting	-11.1828
ci	-11.1829
De	-11.1829
hand	-11.183
▁Simon	-11.1838
▁educated	-11.1843
▁injury	-11.1851
▁admission	-11.1851
▁procedures	-11.1854
▁presently	-11.1859
▁associates	-11.1862
▁objected	-11.1863
▁participate	-11.1863
▁wood	-11.1864
▁publicly	-11.1865
▁trends	-11.1868
▁opposing	-11.1869
▁parliamentary	-11.1869
▁helpful	-11.1871
▁contradict	-11.1873
▁comparable	-11.1874
▁Sunday	-11.1877
percent	-11.188
▁foresight	-11.1885
▁withdrawal	-11.1886
▁deciding	-11.1887
▁quota	-11.1889
ri	-11.189
▁Marxists	-11.1892
▁Commons	-11.1894
▁31	-11.1895
scientific	-11.1899
▁comparisons	-11.1899
▁o	-11.1904
ex	-11.1905
▁Economist	-11.1911
▁Wisconsin	-11.1914
▁limiting	-11.1914
based	-11.1915
▁unusual	-11.1919
▁suspect	-11.1926
▁vigorous	-11.1927
▁rivals	-11.1928
▁concessions	-11.1929
▁Plato	-11.1931
▁promoted	-11.1933
Suppose	-11.1937
▁younger	-11.1937
▁unsound	-11.194
▁border	-11.1951
▁multiplied	-11.1959
rent	-11.1959
▁submitted	-11.1959
▁stationary	-11.1959
▁revolutions	-11.1962
▁occupy	-11.1965
▁speeches	-11.1966
▁reap	-11.1966
▁Sons	-11.1967
▁Tocqueville	-11.1969
▁neighbor	-11.1969
▁prison	-11.1973
▁theorem	-11.1976
▁wear	-11.1976
▁beautiful	-11.1977
▁summary	-11.1977
Nationalökonomie	-11.1978
▁bust	-11.1982
▁consuming	-11.1982
▁Florida	-11.1992
▁dinner	-11.1993
▁à	-11.1994
▁component	-11.1999
▁documents	-11.2004
▁Michigan	-11.2008
general	-11.2008
▁landowners	-11.2011
▁square	-11.2015
Only	-11.2019
▁rhetoric	-11.202
▁collateral	-11.2029
▁solutions	-11.2032
63	-11.2035
▁persuaded	-11.2035
con	-11.2035
▁movie	-11.2038
▁eggs	-11.204
▁oneself	-11.2049
▁1922	-11.2049
▁abandonment	-11.205
▁dependence	-11.2052
▁patent	-11.2054
▁qualified	-11.2056
▁r	-11.2058
▁ample	-11.2058
▁immigrants	-11.2059
▁diversity	-11.2059
▁persuade	-11.206
▁cry	-11.2061
▁Classical	-11.2063
▁Note	-11.2066
Because	-11.2069
▁located	-11.2069
▁gathered	-11.2071
▁adopting	-11.2073
▁forecast	-11.2074
▁sensible	-11.2077
▁occasions	-11.2085
▁desperate	-11.2089
▁investing	-11.2089
banking	-11.2096
▁ch	-11.2096
▁affecting	-11.2097
▁Scotland	-11.2099
▁claiming	-11.2102
▁criminals	-11.2106
▁delivery	-11.2106
▁1939.	-11.2108
▁Much	-11.2109
▁recipients	-11.2114
▁Philip	-11.2123
▁advocating	-11.2124
▁threats	-11.2127
▁favors	-11.2128
▁Whig	-11.2131
▁IN	-11.2134
▁4.	-11.2147
▁checking	-11.2151
▁necessities	-11.2152
some	-11.2156
most	-11.2156
▁extending	-11.2157
especially	-11.2164
▁decrees	-11.2169
▁Railroad	-11.217
▁neighborhood	-11.2172
▁exceeds	-11.2172
▁prepare	-11.2174
▁imposition	-11.2174
union	-11.2175
Two	-11.2183
▁suppress	-11.2185
▁sur	-11.2186
da	-11.2187
▁Taylor	-11.219
▁superfluous	-11.2196
.”1	-11.2198
▁prolonged	-11.2199
▁24,	-11.2201
▁insure	-11.2206
上	-11.2213
▁Vietnam	-11.2213
▁comparing	-11.2215
▁glance	-11.2215
▁exceptional	-11.2215
▁graduate	-11.2217
‘	-11.2218
▁attach	-11.2225
▁Sea	-11.2228
▁allocate	-11.223
▁amendments	-11.223
▁tree	-11.2232
▁separately	-11.2232
▁princes	-11.2233
▁hoarding	-11.2235
▁tactics	-11.2241
▁estates	-11.2245
▁sun	-11.2249
▁predecessors	-11.225
▁couple	-11.225
▁quiet	-11.2251
▁reign	-11.2251
▁aristocratic	-11.2253
▁anarchism	-11.2268
▁engaging	-11.227
▁breakdown	-11.2271
▁opponent	-11.2271
▁messages	-11.2271
▁textbook	-11.2271
▁Cato	-11.2271
▁Ma	-11.2271
▁frankly	-11.2272
▁Convention	-11.2276
io	-11.2278
▁reserved	-11.2279
▁Common	-11.2279
▁Prime	-11.2288
▁Ch	-11.2289
▁exchanging	-11.2289
▁complexity	-11.2291
▁spoken	-11.2292
▁advancing	-11.2295
▁bar	-11.2298
▁High	-11.2299
▁VI	-11.2299
▁caste	-11.23
▁modified	-11.2302
▁borne	-11.2304
▁Nobody	-11.2304
▁equipped	-11.2304
third	-11.2305
had	-11.2306
▁roots	-11.2307
▁invited	-11.2309
▁mysterious	-11.2311
▁evaluation	-11.2311
▁indifferent	-11.2315
▁defining	-11.2319
▁semi	-11.2321
dollar	-11.2323
▁menace	-11.2324
▁assembly	-11.2326
▁Walker	-11.2326
▁Kelley	-11.2326
▁encouragement	-11.2328
▁95	-11.233
▁select	-11.2333
▁variation	-11.2335
▁receipt	-11.2336
▁conform	-11.2337
▁enacted	-11.2337
▁bias	-11.2339
▁discourage	-11.2341
▁penalties	-11.2345
▁Allies	-11.2349
▁Powers	-11.2351
▁adequately	-11.2354
▁Actually	-11.2357
▁column	-11.2358
▁cooperate	-11.2361
▁station	-11.2363
▁believing	-11.2364
▁describing	-11.2364
▁Der	-11.2365
▁references	-11.2369
▁Moscow	-11.2372
▁Tokyo	-11.2373
▁1938.	-11.2376
▁veto	-11.2376
Nor	-11.2376
▁Through	-11.2377
▁failing	-11.238
▁fifth	-11.2382
▁rotating	-11.2383
▁enthusiastic	-11.2385
90	-11.2387
▁suffrage	-11.2389
53	-11.2391
anti	-11.2394
▁anticipation	-11.2395
▁Chamberlain	-11.2397
Libertarian	-11.24
▁diminution	-11.2401
▁Chase	-11.2403
▁generous	-11.2403
▁sanction	-11.2404
▁originated	-11.2404
sided	-11.2407
▁arbitration	-11.2407
[3]	-11.2408
▁alcohol	-11.2409
▁Royal	-11.2411
▁respected	-11.2411
▁schedules	-11.2414
▁divide	-11.2418
work	-11.2418
▁defects	-11.242
use	-11.242
▁externalities	-11.242
▁notwithstanding	-11.2421
▁McKinley	-11.2425
▁trees	-11.2439
▁Center	-11.244
▁competent	-11.244
▁suppression	-11.244
▁Augustus	-11.2442
▁violated	-11.2443
以	-11.2445
▁instructions	-11.2445
▁nowadays	-11.2446
Hermann	-11.2455
▁optimal	-11.2461
▁permissible	-11.2469
▁wave	-11.247
▁hopeless	-11.2475
▁untenable	-11.2477
▁minorities	-11.2478
▁shock	-11.2479
▁Within	-11.2479
▁decreases	-11.2479
▁expresses	-11.2481
▁nowhere	-11.2481
▁variables	-11.2483
▁consciously	-11.2485
▁discretion	-11.2487
▁strategic	-11.2489
▁ministers	-11.2491
▁Nixon	-11.2492
▁flows	-11.2492
▁refute	-11.2495
▁agitation	-11.2496
field	-11.2497
▁dear	-11.2501
▁passes	-11.2502
▁epistemological	-11.2506
▁refutation	-11.2512
▁Joint	-11.2515
▁peasant	-11.2523
▁maturity	-11.2523
▁reparations	-11.2528
▁affair	-11.2534
▁earliest	-11.2534
▁disintegration	-11.2534
▁exhausted	-11.2537
▁scientist	-11.2537
▁bare	-11.2539
▁block	-11.254
▁doubts	-11.254
▁manuscript	-11.2541
▁files	-11.2542
▁inflated	-11.2544
▁mob	-11.2544
▁transform	-11.2546
berg	-11.2549
▁Sense	-11.2554
▁placing	-11.2556
▁analogous	-11.2563
▁sixteenth	-11.2567
▁Gustav	-11.2569
▁ante	-11.2572
▁Routledge	-11.2572
long	-11.2575
▁Everyone	-11.2575
▁complain	-11.2576
▁attacking	-11.2578
▁salvation	-11.2579
▁Jacob	-11.258
Government	-11.2582
▁starvation	-11.2586
▁behave	-11.2588
pre	-11.2589
▁mobility	-11.2592
▁reaching	-11.2592
▁exported	-11.2594
private	-11.2595
▁investigate	-11.2599
▁Besides	-11.2605
▁Others	-11.2606
▁ending	-11.2606
▁payable	-11.2607
▁usury	-11.2609
▁termed	-11.2611
▁initiated	-11.2613
▁Young	-11.2614
▁Indies	-11.2615
▁condemn	-11.2619
▁display	-11.2621
▁Knox	-11.2621
▁thereafter	-11.2622
▁anyway	-11.2629
▁target	-11.2632
▁forbidden	-11.2634
▁1921	-11.2635
▁reactions	-11.2637
▁magazine	-11.264
▁conversion	-11.2642
les	-11.2643
▁imperfect	-11.2644
▁resorted	-11.2645
▁availability	-11.2645
▁spends	-11.2646
▁1929,	-11.2649
relating	-11.2649
▁securing	-11.2649
▁Colonel	-11.265
▁scholarly	-11.2654
▁painful	-11.2654
▁departments	-11.2656
▁1923	-11.2661
▁Enterprise	-11.2661
▁Kansas	-11.2662
▁worship	-11.2668
▁shortages	-11.2669
▁innovations	-11.2671
▁appointment	-11.2674
gen	-11.2679
▁communists	-11.2682
▁elaborated	-11.2683
▁pretend	-11.2686
ü	-11.2687
▁Utility	-11.2689
▁friendship	-11.2692
▁individualist	-11.2693
say	-11.2694
▁river	-11.2696
▁reversed	-11.2696
▁23,	-11.2698
▁returning	-11.2699
▁anarchy	-11.2702
▁dignity	-11.2703
▁rewards	-11.2705
▁violate	-11.2708
▁busy	-11.2709
marginal	-11.2718
saving	-11.2723
▁Theorie	-11.2729
▁defensive	-11.2731
▁centralization	-11.2733
▁suffers	-11.2734
originary	-11.2734
▁embrace	-11.2736
▁comfort	-11.2737
▁militarism	-11.2737
55	-11.2739
▁paragraph	-11.2741
57	-11.2742
▁continent	-11.2749
▁stimulus	-11.2753
Second	-11.2753
▁cumulative	-11.2756
個	-11.2756
▁Daniel	-11.2758
▁Goods	-11.2758
▁Wilhelm	-11.2761
89	-11.2765
▁fellows	-11.2768
▁conservatism	-11.2772
▁doubled	-11.2777
▁Bretton	-11.2786
▁telephone	-11.2786
▁dealers	-11.2787
▁counterfeiting	-11.279
▁Out	-11.2794
▁unavoidable	-11.2794
▁jail	-11.2797
▁commitment	-11.2799
how	-11.28
ger	-11.2809
▁dare	-11.2809
–17	-11.2816
▁conditioned	-11.2817
▁tickets	-11.2817
▁walk	-11.2819
▁contradictions	-11.282
▁television	-11.2825
▁clarity	-11.2825
▁disturbing	-11.2825
▁rationally	-11.2825
▁Lewis	-11.283
▁subsidized	-11.2832
▁signal	-11.2834
trade	-11.2838
▁usage	-11.2843
▁denial	-11.2847
▁economizing	-11.2848
▁Jean	-11.2852
▁lengthy	-11.2852
ibid	-11.2857
▁Yeager	-11.2863
▁Having	-11.2863
▁tribute	-11.2868
▁amazing	-11.2881
▁pick	-11.2884
▁restrain	-11.2885
▁emotional	-11.289
▁minute	-11.289
▁safely	-11.2894
▁floor	-11.29
▁council	-11.2902
▁churches	-11.2908
▁meantime	-11.2909
▁perception	-11.291
▁protectionist	-11.2911
52	-11.2911
▁innumerable	-11.2913
▁predictions	-11.2914
▁Had	-11.2915
▁modes	-11.2915
▁candidates	-11.2919
▁connections	-11.2922
▁drove	-11.2924
▁whereby	-11.2926
▁subsidize	-11.2926
▁importantly	-11.2933
▁south	-11.2934
▁plane	-11.2935
▁decreased	-11.2936
▁assessment	-11.2943
way	-11.2943
▁regularity	-11.2945
▁Proudhon	-11.2946
▁Missouri	-11.2947
▁languages	-11.2949
▁codes	-11.2952
▁Trust	-11.2959
▁Accordingly	-11.296
▁license	-11.2963
▁boycott	-11.2964
▁confine	-11.2965
▁feels	-11.2965
▁released	-11.2967
too	-11.2968
inflation	-11.2971
▁urging	-11.2973
▁Walras	-11.2981
▁optimum	-11.2985
▁Control	-11.2987
▁theoretically	-11.2989
100	-11.2992
▁Road	-11.2993
lo	-11.2995
▁organizing	-11.2997
▁Prohibition	-11.2999
▁Christ	-11.3002
▁inherited	-11.3005
à	-11.3005
▁stone	-11.3007
▁Leonard	-11.3007
ory	-11.3009
▁sustain	-11.3016
▁aided	-11.3023
▁infinitely	-11.3023
▁Delaware	-11.3031
▁Das	-11.3032
▁textbooks	-11.3043
▁tide	-11.3043
▁metaphysical	-11.3048
或	-11.3051
▁notably	-11.3051
▁foolish	-11.3059
▁1932.	-11.3062
▁Yes	-11.3065
▁facilitate	-11.3067
▁disturbed	-11.3067
83	-11.3067
▁fraudulent	-11.3068
▁reaches	-11.307
▁500	-11.3071
▁makers	-11.3076
▁preserving	-11.3079
▁coalition	-11.3081
ius	-11.3086
▁turnover	-11.3087
▁concentrate	-11.3087
65	-11.3089
▁enjoys	-11.3091
▁Lloyd	-11.3092
▁color	-11.3094
▁catch	-11.3095
▁regional	-11.3098
▁analytical	-11.31
54	-11.3102
▁counties	-11.3105
▁develops	-11.3105
▁insists	-11.3114
▁commander	-11.312
▁editorial	-11.3132
.11	-11.3134
▁earns	-11.3134
▁Galt	-11.3135
▁Method	-11.3142
▁declaring	-11.3145
▁guidance	-11.3145
▁swept	-11.3145
▁carries	-11.3145
▁depended	-11.3148
▁elites	-11.3148
▁conquered	-11.315
her	-11.3154
▁blamed	-11.3155
ka	-11.3155
▁foot	-11.3159
▁relieve	-11.3159
▁earners	-11.3159
its	-11.316
▁hate	-11.3161
▁Establishment	-11.3165
▁reluctant	-11.3167
▁hailed	-11.3167
▁preparation	-11.3173
▁employs	-11.3179
▁sectors	-11.3179
▁forming	-11.3185
▁doomed	-11.3187
到	-11.3188
▁coast	-11.319
▁paradox	-11.3193
▁presidents	-11.3194
.12	-11.3194
▁illegitimate	-11.3202
▁sympathetic	-11.3205
order	-11.3208
▁liked	-11.3209
▁rigorous	-11.3209
▁adverse	-11.3209
▁daughter	-11.3214
business	-11.3215
▁qui	-11.3216
▁Regnery	-11.3221
▁studying	-11.3221
▁1919	-11.3223
▁origins	-11.3223
▁ticket	-11.3225
▁formidable	-11.3226
▁sociological	-11.323
▁strive	-11.323
▁devaluation	-11.3232
▁speculator	-11.3234
▁thin	-11.3235
four	-11.3235
▁Machlup	-11.3245
▁Was	-11.3247
▁subsequently	-11.3256
▁paradigm	-11.3258
▁pushing	-11.3262
▁pernicious	-11.3267
▁feed	-11.327
▁municipal	-11.3273
▁ambition	-11.3276
▁Your	-11.3278
More	-11.328
▁Nazism	-11.3281
▁camps	-11.3282
▁coerced	-11.3284
▁advised	-11.3286
▁ambassador	-11.3286
▁Nostrand	-11.3288
▁resentment	-11.3288
▁wind	-11.3297
▁faces	-11.3298
▁facto	-11.3302
▁unprofitable	-11.3308
▁instructive	-11.3308
▁pronounced	-11.331
▁promotion	-11.3313
▁increment	-11.3316
▁indication	-11.3317
▁importation	-11.3319
ti	-11.332
▁label	-11.332
▁manipulation	-11.3323
▁alert	-11.3323
▁proletarian	-11.3327
ell	-11.3329
▁glory	-11.3329
▁struggles	-11.3333
▁encouraging	-11.3335
84	-11.3335
▁nationality	-11.3342
▁partners	-11.3342
▁react	-11.3346
▁talents	-11.3349
▁flight	-11.3349
▁deduction	-11.3353
▁freed	-11.3354
[4]	-11.3356
▁overthrow	-11.3356
61	-11.3357
▁instability	-11.3358
▁Constitutional	-11.3359
▁Andrews	-11.3363
▁residents	-11.3366
although	-11.3367
▁1939	-11.3368
▁reductions	-11.3371
▁di	-11.3376
▁occasional	-11.3379
▁Chancellor	-11.338
▁guarantees	-11.338
ably	-11.3382
▁suggestions	-11.339
▁unwilling	-11.339
81	-11.3393
▁burdens	-11.3402
▁incorrect	-11.3402
▁nationalization	-11.3402
▁Library	-11.3404
▁legitimacy	-11.3407
▁socialization	-11.3408
▁Day	-11.3414
▁belonging	-11.3416
▁dealings	-11.3417
▁directing	-11.3418
69	-11.342
▁weekly	-11.3422
來	-11.3429
▁doctors	-11.3431
without	-11.3431
▁stems	-11.3432
▁colonists	-11.3437
▁Reason	-11.344
▁farming	-11.3443
j	-11.3445
▁Monopoly	-11.3448
▁pseudo	-11.3449
▁possessions	-11.3449
▁engine	-11.3454
▁1936.	-11.3454
▁counts	-11.3457
▁imposes	-11.3457
▁robbery	-11.346
▁premise	-11.3461
▁fictitious	-11.3468
▁Between	-11.3471
▁sacred	-11.3472
Where	-11.3472
▁regulatory	-11.3474
▁disadvantages	-11.3483
let	-11.3484
▁Real	-11.3486
▁guilt	-11.3487
▁kingdom	-11.349
▁Governments	-11.3505
▁cooperatives	-11.3506
▁prediction	-11.3507
▁confiscation	-11.3512
▁trip	-11.3514
▁Were	-11.3514
▁Theodore	-11.3517
▁decentralized	-11.3517
▁diverse	-11.3518
na	-11.3518
▁weakened	-11.3521
我們	-11.3522
house	-11.3525
▁organism	-11.3527
▁Three	-11.3529
▁enlightened	-11.3533
▁ethnic	-11.3537
▁Magazine	-11.3538
▁officially	-11.354
▁profitability	-11.3542
▁disciples	-11.3543
▁subordinate	-11.3546
▁lying	-11.3547
▁insistence	-11.3551
▁seat	-11.3554
▁Sweden	-11.3555
▁pour	-11.3556
▁1913	-11.3558
▁Stephen	-11.3559
▁programme	-11.3559
▁relevance	-11.3559
▁compelling	-11.356
▁tea	-11.3563
▁crops	-11.3564
▁suspended	-11.3564
▁conspicuous	-11.3565
▁eliminating	-11.3569
▁uneasiness	-11.3569
▁grains	-11.358
▁Q	-11.3584
▁bitterly	-11.3587
99	-11.3597
▁silence	-11.3598
▁convenience	-11.3601
▁brand	-11.3601
▁threatening	-11.3605
Despite	-11.3605
▁wing	-11.3619
▁Ronald	-11.3622
▁proprietor	-11.3622
▁overlook	-11.3623
▁Lange	-11.3623
▁folly	-11.3623
▁Netherlands	-11.3623
▁Tories	-11.3625
▁Röpke	-11.3626
Free	-11.3628
62	-11.3628
▁benefited	-11.3631
85	-11.3634
▁Du	-11.3636
▁brain	-11.3639
▁Work	-11.364
▁Division	-11.3642
▁Baltimore	-11.3644
▁magic	-11.3645
▁vertical	-11.3645
▁1932	-11.3647
▁yielded	-11.3651
▁supports	-11.3655
▁platform	-11.3655
▁bidding	-11.3656
–9	-11.3658
▁Reconstruction	-11.3659
▁concede	-11.3661
▁Africans	-11.3662
▁utilitarianism	-11.3665
▁reconstruction	-11.3666
▁33	-11.3666
▁optimism	-11.3668
▁beauty	-11.3673
▁refuted	-11.3674
▁mail	-11.3677
▁Gen	-11.3677
▁practiced	-11.3682
then	-11.3682
▁ardent	-11.3683
▁Calculation	-11.3685
▁precision	-11.3687
▁Reichsbank	-11.3687
▁expects	-11.3694
▁absorb	-11.3694
classical	-11.3695
op	-11.3698
▁civilian	-11.3703
▁unexpected	-11.3705
▁1936	-11.371
▁captured	-11.3711
▁instincts	-11.3718
▁hot	-11.3718
ated	-11.3721
▁conscription	-11.3722
▁afterwards	-11.3722
▁conspiracy	-11.3722
low	-11.3724
▁liquidation	-11.3724
▁Unemployment	-11.3729
my	-11.3729
▁Kant	-11.3732
」	-11.3735
▁successor	-11.3739
▁tribe	-11.3742
thirds	-11.3744
▁85	-11.3746
▁Ralph	-11.3748
71	-11.3749
▁favourable	-11.3752
▁formally	-11.3752
▁assign	-11.3752
▁deserve	-11.3756
iv	-11.3757
(2)	-11.3762
po	-11.3765
▁terror	-11.3766
68	-11.3766
▁pyramid	-11.3766
capitalist	-11.3767
ung	-11.3778
▁contest	-11.3779
▁counsel	-11.3781
▁differential	-11.3789
▁Ka	-11.3789
▁cardinal	-11.3792
58	-11.3793
▁franc	-11.3793
▁devastating	-11.3795
▁Economica	-11.3797
▁1830	-11.3798
▁regulating	-11.3801
▁touched	-11.3803
▁evolved	-11.3806
▁scholarship	-11.3808
ians	-11.3812
▁1931,	-11.3813
reaching	-11.3814
▁owes	-11.3816
▁recognizing	-11.3816
▁Essay	-11.382
▁recorded	-11.382
▁declines	-11.3827
▁belonged	-11.3827
▁Bar	-11.3828
▁measuring	-11.3829
▁32	-11.383
▁stuff	-11.3831
▁suited	-11.3835
▁subtle	-11.3837
▁hiring	-11.3838
▁permitting	-11.3839
credit	-11.3844
▁Growth	-11.3845
如	-11.3846
59	-11.3847
▁traditions	-11.3847
▁release	-11.3848
▁Read	-11.3849
▁attorney	-11.3851
rights	-11.3855
▁ignores	-11.3857
▁conformity	-11.3861
der	-11.3863
▁rebels	-11.3863
▁smooth	-11.3864
▁Scott	-11.3866
▁pleased	-11.3866
▁Naval	-11.3869
▁1848	-11.387
▁happening	-11.3872
▁Louisiana	-11.3878
73	-11.3879
▁stimulated	-11.3882
▁facing	-11.3882
▁refusing	-11.3882
▁discoveries	-11.3883
▁utter	-11.3886
ium	-11.3886
▁Franz	-11.3887
▁NRA	-11.3887
▁reciprocal	-11.3889
▁celebrated	-11.3889
▁apples	-11.3891
▁odd	-11.3892
▁aggressor	-11.3893
▁catallactic	-11.3894
▁inspiration	-11.3895
%	-11.3896
▁lacked	-11.3897
▁chemical	-11.3899
▁stating	-11.39
要	-11.3903
▁quarters	-11.3904
ns	-11.3904
▁preparing	-11.3904
▁Angeles	-11.3904
▁reactionary	-11.3906
▁intervene	-11.3912
▁worldwide	-11.3913
▁Ward	-11.3918
vo	-11.3918
monopoly	-11.3919
▁migration	-11.392
▁Investment	-11.3922
者	-11.3925
Dr	-11.3926
▁1896	-11.3929
▁tending	-11.3929
▁peacetime	-11.3931
▁Greenspan	-11.394
General	-11.394
those	-11.3945
▁den	-11.3948
▁Table	-11.3949
▁concession	-11.3952
▁promising	-11.3961
▁Tom	-11.3961
▁users	-11.3962
▁Mitchell	-11.3964
▁irregular	-11.3964
▁stories	-11.3965
▁conflicting	-11.3965
▁yes	-11.3965
▁annually	-11.3965
▁Nock	-11.3967
▁republican	-11.3968
▁personnel	-11.397
▁Pope	-11.3971
▁luck	-11.3978
▁criticize	-11.3981
74	-11.3984
ck	-11.399
79	-11.399
▁Peel	-11.3991
▁Club	-11.3992
▁31,	-11.3994
▁traded	-11.3996
▁$8	-11.3997
▁questioned	-11.4001
▁sheet	-11.4003
▁shillings	-11.4014
▁Until	-11.4015
▁ties	-11.4015
▁mentality	-11.4016
▁Demand	-11.4016
這	-11.4017
▁distinctions	-11.4017
▁Origins	-11.4018
▁Mo	-11.4019
▁Howard	-11.4025
▁undesirable	-11.4032
▁stick	-11.4035
▁dates	-11.4035
first	-11.4036
society	-11.4036
▁Ph	-11.4036
▁shops	-11.4037
▁utilized	-11.404
▁TV	-11.4041
▁narrower	-11.4043
▁exaggerated	-11.4044
▁wasn	-11.4044
▁analyzing	-11.4044
▁160	-11.4045
”),	-11.4047
ence	-11.4048
▁stake	-11.4049
▁east	-11.405
▁slogan	-11.4051
now	-11.4053
▁identity	-11.4053
control	-11.4055
▁intellect	-11.4058
▁mercantilism	-11.4062
ho	-11.4062
▁strongest	-11.4062
▁recommendations	-11.4066
▁publications	-11.4069
▁closing	-11.4073
▁rush	-11.4074
▁Commercial	-11.4075
▁Wages	-11.4081
Just	-11.4082
▁renewed	-11.4082
▁Has	-11.4083
▁1957	-11.4085
▁si	-11.4089
▁legislators	-11.409
.15	-11.4093
▁thinker	-11.4093
▁prohibitions	-11.4095
▁convictions	-11.4099
Who	-11.41
▁clean	-11.4104
▁investor	-11.4106
▁channels	-11.4108
▁Sometimes	-11.4108
▁profoundly	-11.4111
▁decreasing	-11.4114
▁giant	-11.4118
▁vessels	-11.4119
▁landlords	-11.4121
▁advent	-11.4125
▁denies	-11.4126
[5]	-11.4126
▁meanwhile	-11.4126
▁compensated	-11.4127
▁Conn	-11.4129
▁Index	-11.4134
▁proportionate	-11.4135
.13	-11.4135
▁wasteful	-11.4137
▁winning	-11.4139
aid	-11.4142
▁capitalization	-11.4145
▁tone	-11.4145
▁Al	-11.4145
▁continuation	-11.4148
▁ultra	-11.4148
National	-11.4149
▁surrounded	-11.415
▁offensive	-11.415
▁assistant	-11.4151
▁disagree	-11.4151
▁covering	-11.4152
▁establishes	-11.4158
▁Versailles	-11.4158
▁39	-11.4161
▁monthly	-11.4161
▁railway	-11.4164
▁exclusion	-11.4166
▁Confederation	-11.417
▁ambitious	-11.417
▁Maynard	-11.417
▁rough	-11.4171
▁stabilize	-11.4171
Menger	-11.4175
▁suppliers	-11.4176
▁drink	-11.4179
67	-11.4181
將	-11.4181
▁approve	-11.4183
▁resolve	-11.4183
▁lifetime	-11.4188
▁appropriated	-11.4189
▁jury	-11.4193
▁Process	-11.4196
▁magnitudes	-11.4197
▁Los	-11.4199
▁defence	-11.4206
▁window	-11.4209
▁draws	-11.421
▁Ron	-11.4214
▁rejects	-11.4215
▁forcibly	-11.4215
Marx	-11.4216
▁1982	-11.4216
▁commonwealth	-11.4216
▁Constant	-11.4219
▁default	-11.4224
▁forecasting	-11.4225
▁Bernard	-11.4227
▁reliable	-11.4231
▁Iron	-11.4232
▁eventual	-11.4234
▁convincing	-11.4234
▁respectable	-11.4234
Capital	-11.4235
▁intrinsic	-11.4235
responsibilities	-11.4238
▁dubious	-11.4238
▁simplicity	-11.4238
▁entities	-11.4238
▁37	-11.4243
96	-11.4244
▁1935,	-11.4245
▁exceeded	-11.4248
▁fashionable	-11.4253
▁shortcomings	-11.4254
▁gambling	-11.4259
▁Laws	-11.426
▁Whigs	-11.4261
▁bother	-11.4267
▁publishing	-11.4268
▁simplest	-11.4269
om	-11.4272
”).	-11.4273
!)	-11.4276
Cf	-11.4276
▁romantic	-11.4277
▁potentially	-11.4282
▁arrival	-11.4283
▁biggest	-11.4283
▁joy	-11.4286
▁weather	-11.4293
▁funding	-11.4294
▁Knowledge	-11.4298
▁conceptions	-11.4299
▁designated	-11.43
▁parent	-11.43
ations	-11.4303
▁oligarchy	-11.4306
▁Sam	-11.4308
▁Declaration	-11.4309
▁Critique	-11.4313
▁famine	-11.4313
▁hearing	-11.4323
▁fruitful	-11.4324
▁persistent	-11.4326
▁asserting	-11.4332
▁Bulletin	-11.4343
State	-11.4343
▁Sciences	-11.4347
▁Otherwise	-11.4348
▁Meyer	-11.4348
owned	-11.435
▁Selgin	-11.435
▁trivial	-11.4351
▁tempted	-11.4353
▁expressing	-11.4353
▁allied	-11.4361
00	-11.4362
fashioned	-11.4364
政府	-11.4365
freedom	-11.4366
▁harvest	-11.4368
▁earthly	-11.437
self	-11.437
▁Hungary	-11.4371
▁imperative	-11.4375
▁salt	-11.4375
▁approached	-11.4378
Economics	-11.4385
▁historic	-11.4385
▁Use	-11.4387
Simon	-11.4388
▁pledge	-11.4389
▁defenders	-11.4392
▁boys	-11.4396
▁marketable	-11.4396
▁Czechoslovakia	-11.4401
pro	-11.4402
ens	-11.4405
下	-11.4408
▁unionism	-11.4408
ca	-11.4413
▁unproductive	-11.4413
▁dogma	-11.4415
▁episode	-11.4416
▁Philippines	-11.4417
▁positivism	-11.4418
▁mechanics	-11.442
▁1914,	-11.442
▁Harold	-11.4421
▁GDP	-11.4422
▁subjectivist	-11.4424
▁worthless	-11.4424
▁labourer	-11.443
▁36	-11.4433
▁Volkswirtschaft	-11.4433
▁endorsed	-11.4435
Figure	-11.4436
▁contracted	-11.4443
▁Publishing	-11.4444
▁occurring	-11.4444
▁denying	-11.445
72	-11.4454
▁patient	-11.4459
▁consistency	-11.4462
▁coherent	-11.4463
▁accidental	-11.4467
side	-11.4468
▁loyalty	-11.4469
▁theology	-11.4469
▁strengthened	-11.4472
▁senses	-11.4475
▁Row	-11.4476
▁fed	-11.4478
▁distrust	-11.448
▁thrift	-11.4481
▁fortunate	-11.4481
▁enforcing	-11.4484
▁1934.	-11.4488
▁debasement	-11.4498
93	-11.4501
▁sensitive	-11.4502
born	-11.4503
ut	-11.4503
▁faire	-11.4504
▁pocket	-11.4504
▁lag	-11.4505
▁statesman	-11.4507
▁troubles	-11.4507
▁rationality	-11.4508
▁committees	-11.4508
equilibrium	-11.4509
▁Edwin	-11.4516
▁Mar	-11.4517
▁Russell	-11.452
▁Fair	-11.452
▁lessons	-11.452
▁strengthen	-11.4524
▁expressly	-11.4525
▁indefinite	-11.4527
▁assist	-11.4529
▁procure	-11.4533
ible	-11.4533
77	-11.4534
▁yesterday	-11.4537
▁disappearance	-11.4537
▁ceases	-11.4537
▁preceded	-11.4538
▁arrested	-11.4541
.”2	-11.4542
▁emerging	-11.4543
und	-11.4545
▁Section	-11.4546
▁embark	-11.4547
▁abuses	-11.4547
▁Australia	-11.4549
▁discharge	-11.4552
▁warrant	-11.4555
▁unfavorable	-11.4562
▁shelter	-11.4567
▁publish	-11.4577
▁outcomes	-11.4577
▁greed	-11.4584
vi	-11.4587
▁trusts	-11.4588
se	-11.4588
tic	-11.4589
▁complained	-11.459
▁tragedy	-11.4591
▁avoiding	-11.4591
▁disciplines	-11.4592
▁brutal	-11.4602
▁harder	-11.4602
▁quotation	-11.4604
▁autonomy	-11.4606
▁conceptual	-11.4607
▁unimportant	-11.4607
▁qua	-11.4608
▁1924	-11.461
▁liquor	-11.4612
▁awareness	-11.4612
▁displayed	-11.4613
▁challenged	-11.4615
other	-11.4623
sh	-11.4623
▁discriminate	-11.4623
▁patriotism	-11.4624
defense	-11.4629
▁pressing	-11.4631
&	-11.4631
▁comfortable	-11.4631
▁rooted	-11.4631
▁dominate	-11.4632
▁praised	-11.4637
▁engineering	-11.4638
▁avail	-11.464
▁navigation	-11.4641
定	-11.4647
▁surrounding	-11.4654
▁norms	-11.4656
▁gaining	-11.4658
▁lord	-11.4659
▁Articles	-11.4664
▁revised	-11.4668
▁threaten	-11.4669
▁lacks	-11.4674
▁fees	-11.4674
▁armaments	-11.4676
▁likelihood	-11.4678
▁negligible	-11.4678
▁scattered	-11.4678
Keynesian	-11.468
▁despotic	-11.4681
▁Fascism	-11.4684
▁65	-11.4687
▁Go	-11.4691
▁morals	-11.4691
▁distinctly	-11.4691
▁tacit	-11.4693
▁Choice	-11.4694
▁savage	-11.4694
利	-11.4695
▁competitor	-11.4699
▁beat	-11.4702
▁testing	-11.4704
▁rendering	-11.4706
▁deductions	-11.4715
▁intend	-11.4715
▁array	-11.472
▁unified	-11.4721
▁multiplier	-11.4723
▁Four	-11.4723
[6]	-11.4724
▁drives	-11.4724
▁relied	-11.4725
▁summed	-11.4726
ham	-11.4728
▁ne	-11.4729
▁convey	-11.4734
li	-11.4736
多	-11.4737
▁gratification	-11.4737
▁Cooke	-11.4739
▁correspondingly	-11.4742
▁ignoring	-11.4745
▁motivation	-11.4745
▁scenario	-11.4746
▁obtains	-11.4748
sen	-11.4752
▁Col	-11.4754
oriented	-11.4762
▁findings	-11.4765
▁rationale	-11.4767
▁ventures	-11.4775
▁altruism	-11.4775
▁approaching	-11.4778
▁equals	-11.4779
▁38	-11.478
▁1949	-11.4782
di	-11.4783
▁engineer	-11.4784
▁conferences	-11.4786
▁Coase	-11.4789
after	-11.4791
▁trusted	-11.4793
▁departure	-11.4794
▁agenda	-11.4797
▁Mc	-11.4804
▁Safford	-11.4804
▁Bay	-11.4805
▁proportionately	-11.4808
▁thank	-11.4811
▁collapsed	-11.4812
▁founding	-11.4813
▁Canadian	-11.4814
▁entail	-11.4814
▁empiricism	-11.4814
▁Providence	-11.4814
any	-11.4815
▁thrust	-11.4821
▁collaboration	-11.4821
▁Puritan	-11.4823
▁prompted	-11.4825
▁bridge	-11.4827
▁regimes	-11.4832
▁justly	-11.4832
▁Czech	-11.4833
▁debates	-11.4834
▁journals	-11.4838
▁materialism	-11.4841
▁questionable	-11.4844
▁copies	-11.4845
▁refined	-11.4845
▁acquainted	-11.4845
▁requisite	-11.4845
▁tiny	-11.4846
▁accessible	-11.485
bad	-11.4852
▁consensus	-11.4853
▁causation	-11.4855
▁decay	-11.4856
▁spreading	-11.4856
cut	-11.4857
▁Rent	-11.4859
▁qualifications	-11.4859
10.	-11.4859
common	-11.4859
▁spurious	-11.4859
▁coincidence	-11.4859
▁circulate	-11.4861
▁grounded	-11.4864
91	-11.4864
_	-11.4864
▁Comte	-11.4865
▁soldier	-11.4867
▁replacing	-11.4869
▁executed	-11.4871
▁norm	-11.4872
▁fitted	-11.4875
▁whilst	-11.4878
▁View	-11.4881
▁handle	-11.4882
78	-11.4893
▁Moral	-11.4893
ett	-11.4895
▁mis	-11.4896
▁purposeful	-11.4897
▁electric	-11.4902
▁pleasant	-11.4904
point	-11.4906
▁petition	-11.4907
▁5.	-11.4908
▁club	-11.4912
▁arrange	-11.4912
▁interval	-11.4916
▁Buren	-11.4918
▁devised	-11.4919
page	-11.492
▁lots	-11.492
▁outlined	-11.4922
▁vis	-11.4922
▁Acts	-11.4928
▁artisans	-11.4928
▁Duke	-11.4931
amount	-11.4937
ze	-11.4937
▁simultaneous	-11.4937
▁tenants	-11.4938
▁mercy	-11.4942
▁inappropriate	-11.4944
▁ridiculous	-11.4946
▁blacks	-11.4947
▁computer	-11.495
ä	-11.4954
Among	-11.4955
▁exhibit	-11.4958
▁distortions	-11.4959
each	-11.4967
▁suspend	-11.4967
▁inconvertible	-11.4971
▁mint	-11.4973
▁arithmetic	-11.4975
▁Korea	-11.4976
▁prohibiting	-11.4978
while	-11.4978
▁stagnation	-11.4983
Socialism	-11.4983
▁dry	-11.4984
▁Democrat	-11.4986
▁automobiles	-11.4987
▁Cabinet	-11.499
▁memorandum	-11.499
▁injured	-11.4993
▁Quoted	-11.4994
97	-11.4994
▁generates	-11.4998
mer	-11.4998
▁illustrates	-11.5001
▁resisted	-11.5002
▁beneficiaries	-11.5002
▁listen	-11.5004
▁conventions	-11.5006
▁macroeconomic	-11.501
▁coincide	-11.5011
▁proposes	-11.5011
▁naive	-11.5011
▁wanting	-11.5011
▁issuance	-11.5013
▁Burke	-11.5014
▁Fischer	-11.5015
▁italics	-11.5016
▁retired	-11.5017
▁sweeping	-11.5019
▁prejudices	-11.502
▁servant	-11.5021
▁encountered	-11.5022
▁owed	-11.5022
▁Present	-11.5022
unconstitutional	-11.5024
▁orderly	-11.5025
▁Women	-11.5031
[7]	-11.5031
mann	-11.5033
ip	-11.5034
moral	-11.5036
▁eleven	-11.5038
▁flood	-11.5039
▁incidentally	-11.5042
▁Bo	-11.5045
▁Notes	-11.505
▁derives	-11.5051
▁Cold	-11.5058
▁1961	-11.5063
▁proceedings	-11.5064
▁1931.	-11.5064
▁Independence	-11.5065
▁prescribed	-11.5065
得	-11.5066
▁deduced	-11.5067
▁responded	-11.5071
▁contended	-11.5072
▁$7	-11.5073
▁34	-11.5073
▁outputs	-11.5073
▁deficiency	-11.5076
▁stupid	-11.5078
▁intimate	-11.5081
▁curtail	-11.5082
▁brothers	-11.5084
▁hoc	-11.5086
▁ports	-11.5087
▁flour	-11.5088
▁disturbance	-11.5089
▁fateful	-11.509
▁Force	-11.509
sufficient	-11.5091
▁1,000	-11.5091
▁$6	-11.5093
,000	-11.5095
▁suppressed	-11.5095
▁None	-11.5097
.16	-11.51
▁1929.	-11.5101
▁interpretations	-11.5103
▁Logic	-11.5106
Unfortunately	-11.5108
three	-11.5108
▁overseas	-11.5113
▁catastrophe	-11.5113
▁proceeding	-11.5115
Today	-11.5115
▁bushels	-11.5116
▁coined	-11.5118
▁1948	-11.5118
must	-11.5119
98	-11.512
▁spontaneously	-11.5121
▁55	-11.5122
▁argumentation	-11.5124
▁backing	-11.5126
▁insisting	-11.5131
▁lasted	-11.5131
▁Introduction	-11.5133
Indeed	-11.5134
▁editions	-11.5136
▁dominance	-11.5138
▁deviation	-11.5138
▁1941.	-11.514
▁sounds	-11.514
ak	-11.5142
ries	-11.5144
主	-11.5145
▁quest	-11.5145
▁routine	-11.5145
▁objectively	-11.5146
▁120	-11.5147
▁accepts	-11.5148
▁broadly	-11.5149
▁environmental	-11.5149
▁box	-11.515
▁verbal	-11.5154
▁Cape	-11.5161
▁temporal	-11.5161
▁defect	-11.5161
▁gentleman	-11.5163
▁entails	-11.5164
▁maybe	-11.5173
.14	-11.5177
82	-11.5182
▁talent	-11.5183
▁adherents	-11.5183
▁picked	-11.5184
▁absolutism	-11.5187
cent	-11.5187
▁stem	-11.5189
▁dreams	-11.519
▁pockets	-11.5192
▁Independent	-11.5192
▁burning	-11.5194
▁Iceland	-11.5203
▁savers	-11.521
▁Cassel	-11.521
▁socialized	-11.5212
▁imminent	-11.5212
▁nonetheless	-11.5212
▁unrealistic	-11.5219
▁adult	-11.522
▁k	-11.5226
▁300	-11.5228
▁repay	-11.5229
▁defines	-11.5231
▁Everything	-11.5236
cycle	-11.5237
▁individually	-11.5238
perhaps	-11.5238
▁monopolized	-11.5239
▁Sheed	-11.5239
▁guess	-11.5241
▁girl	-11.5243
▁Rev	-11.5243
▁1937,	-11.5246
▁complaint	-11.5247
ites	-11.5248
ble	-11.525
▁breaks	-11.5254
▁levy	-11.5255
▁flag	-11.5256
▁Miller	-11.526
▁Very	-11.5261
▁provincial	-11.5262
▁normative	-11.5263
▁motor	-11.5268
▁mortgages	-11.5271
▁bent	-11.5274
▁unite	-11.5279
▁horror	-11.528
▁loved	-11.5281
▁comply	-11.5281
▁Supply	-11.5286
▁armament	-11.5287
▁Wage	-11.5287
▁Profit	-11.5287
▁zur	-11.5288
▁enhanced	-11.529
libertarian	-11.5294
▁corner	-11.5295
:—	-11.5296
▁gratuitous	-11.5296
▁recessions	-11.5308
▁impressive	-11.5309
▁individuality	-11.5314
Summer	-11.5314
▁inflationist	-11.5316
standard	-11.5316
▁Revolutionary	-11.5318
▁Arnold	-11.5319
ow	-11.5319
▁eighty	-11.532
▁Indiana	-11.532
▁Quakers	-11.5321
▁industrious	-11.5322
▁GNP	-11.5324
Z	-11.5326
▁1928	-11.5329
▁shareholders	-11.5329
threw	-11.5331
▁capture	-11.5331
▁fluctuating	-11.5332
▁keen	-11.5334
▁numerical	-11.5335
▁booms	-11.5336
▁grade	-11.5336
▁complaints	-11.5337
▁zeal	-11.5338
▁admiration	-11.5338
▁paribus	-11.5338
▁causality	-11.534
▁cultivated	-11.534
Neither	-11.5343
▁1936,	-11.5347
▁effectiveness	-11.5347
▁Mexican	-11.5352
▁Leipzig	-11.5353
▁sons	-11.5361
▁Rise	-11.5365
▁theorems	-11.5366
normal	-11.5367
▁6.	-11.5371
ED	-11.5373
▁retirement	-11.5376
▁cheaply	-11.5378
fair	-11.538
ise	-11.5384
▁appeals	-11.5388
▁continental	-11.5391
▁teaches	-11.5392
▁1860	-11.5395
Classical	-11.5395
Murray	-11.5396
▁plot	-11.5396
▁characters	-11.5396
▁realizing	-11.54
▁organizational	-11.5404
▁track	-11.5406
▁technically	-11.5408
▁preliminary	-11.5415
pure	-11.5417
▁Conservative	-11.5418
▁dimensions	-11.5422
▁punish	-11.5425
sufficiency	-11.5429
▁steam	-11.5432
▁ocean	-11.5432
87	-11.5434
▁treating	-11.5434
▁legislatures	-11.5447
Liberty	-11.5449
▁81	-11.545
▁tract	-11.5452
▁Pure	-11.5454
▁focused	-11.5456
Q	-11.5459
▁marketing	-11.546
▁instrumental	-11.5464
▁Gary	-11.5468
▁1968	-11.5471
▁communal	-11.5472
▁exerted	-11.5474
▁enjoying	-11.5475
▁containing	-11.5479
▁confident	-11.548
▁Progress	-11.5482
▁proud	-11.5488
lest	-11.549
▁globe	-11.5491
▁sick	-11.5491
▁suits	-11.5495
▁rationing	-11.5496
ring	-11.5499
▁strikers	-11.55
▁port	-11.5501
Smith	-11.5501
▁stimulating	-11.5506
▁charging	-11.5511
▁classified	-11.5511
▁esp	-11.5511
▁pressed	-11.5512
▁fascinating	-11.5517
Hartley	-11.5517
▁Perspective	-11.552
▁token	-11.5525
▁Bankers	-11.5527
People	-11.5529
▁mystery	-11.5529
▁para	-11.5529
▁silent	-11.553
speaking	-11.553
ick	-11.5531
▁Hall	-11.5533
▁Kramer	-11.5534
▁Taxation	-11.5535
▁passions	-11.5537
▁faithful	-11.5539
▁astonishing	-11.5539
▁tolerate	-11.5542
▁illusory	-11.5542
▁seventy	-11.5543
▁51	-11.5545
▁Which	-11.5545
▁imperialist	-11.5552
▁site	-11.5555
▁Thornton	-11.5562
▁tragic	-11.5568
▁irresponsible	-11.5568
▁sheep	-11.5568
▁employments	-11.5569
▁contrasted	-11.5569
▁precedent	-11.5572
▁Allied	-11.5574
▁agrees	-11.5574
down	-11.5575
▁realities	-11.5576
▁Either	-11.558
▁rescue	-11.558
▁everyday	-11.558
▁examining	-11.5581
▁incomplete	-11.5582
▁determinants	-11.5586
▁agrarian	-11.5587
lin	-11.5588
▁1940,	-11.5589
▁1938	-11.5592
▁victorious	-11.5594
stock	-11.5596
▁patents	-11.5596
▁una	-11.5598
▁alteration	-11.56
▁fantastic	-11.5603
▁repayment	-11.5604
dy	-11.5605
▁seizure	-11.5606
▁gods	-11.5609
▁match	-11.561
▁repair	-11.5611
-2	-11.5613
profit	-11.5615
▁bureaucrat	-11.5617
▁inflating	-11.5617
▁locations	-11.5618
▁qualitative	-11.5618
▁blue	-11.5618
▁wake	-11.562
▁sitting	-11.562
▁postulate	-11.5621
▁hunger	-11.5622
▁entrusted	-11.5623
▁48	-11.5624
▁refuses	-11.5624
▁upset	-11.5625
▁reminded	-11.5631
▁revealing	-11.5634
▁1939,	-11.5634
▁adapted	-11.5637
▁phases	-11.5639
▁fee	-11.5641
▁commanders	-11.5642
▁functional	-11.5646
▁intensified	-11.5646
▁Sozialpolitik	-11.5646
▁drastically	-11.5647
▁heaven	-11.5647
▁revision	-11.5649
▁Consider	-11.5652
▁portions	-11.5653
▁organs	-11.5654
▁1918	-11.5659
determination	-11.5664
▁strain	-11.5664
▁disorder	-11.5668
▁Con	-11.5671
▁Agriculture	-11.5676
▁diagram	-11.5677
▁disagreement	-11.5677
▁landlord	-11.5678
▁poured	-11.5679
▁Manifesto	-11.5681
á	-11.5683
▁completion	-11.5685
▁bases	-11.5685
▁accounted	-11.5687
▁optimistic	-11.5691
ily	-11.5692
▁depositor	-11.5692
▁Take	-11.5694
▁Id	-11.5695
▁Patrick	-11.5696
▁Jesus	-11.5697
▁Donald	-11.5698
▁passim	-11.5699
▁anarchists	-11.57
▁presumed	-11.57
▁minus	-11.57
▁ii	-11.5705
▁miracle	-11.5708
ac	-11.5715
▁conversations	-11.5716
▁margins	-11.5717
ire	-11.5719
▁doors	-11.5721
ek	-11.5723
▁evolutionary	-11.5724
▁continuance	-11.5725
▁checked	-11.5725
▁Ely	-11.5725
▁Demsetz	-11.5728
▁43	-11.5728
▁undertakings	-11.5737
▁ordinarily	-11.5738
▁oppressed	-11.5741
end	-11.5743
▁harsh	-11.5744
mp	-11.5745
▁bodily	-11.5751
▁worried	-11.5751
▁1978)	-11.5752
▁textile	-11.5757
▁restrained	-11.5758
▁weaker	-11.5758
0,000,000	-11.576
▁happily	-11.5764
▁1937	-11.5765
▁manners	-11.5765
▁wall	-11.5766
▁actively	-11.5769
▁gentlemen	-11.5769
▁Hart	-11.577
since	-11.5774
▁elaboration	-11.5777
▁vaults	-11.5777
si	-11.5778
▁inefficiency	-11.5782
▁Almost	-11.5784
▁Park	-11.5784
▁highways	-11.5788
▁Distribution	-11.579
▁End	-11.5791
▁despair	-11.5791
▁1945	-11.5792
▁recalled	-11.5795
▁militant	-11.5798
▁boards	-11.5799
▁1938,	-11.58
▁mature	-11.5802
void	-11.5806
▁pervasive	-11.5809
▁Chairman	-11.581
▁ruthless	-11.5812
▁Tennessee	-11.5812
▁Keynesianism	-11.5815
▁Miss	-11.5824
▁pull	-11.5825
▁gathering	-11.5827
▁predictable	-11.5828
▁monies	-11.5831
▁su	-11.5832
=	-11.5834
▁adherence	-11.5834
▁totalitarianism	-11.5834
▁About	-11.5834
▁vehicle	-11.5836
▁qu	-11.5837
▁Dewey	-11.5839
▁Edmund	-11.5841
▁Dis	-11.5843
▁pair	-11.5844
▁inquire	-11.5844
▁alarm	-11.5845
▁multi	-11.5845
▁pollution	-11.5845
▁boundary	-11.5849
▁arrest	-11.585
▁sad	-11.5852
▁weaken	-11.5853
▁Never	-11.5854
▁fertile	-11.5857
▁gigantic	-11.5857
▁hierarchy	-11.5857
▁conferred	-11.5857
▁1934,	-11.586
▁41	-11.5862
▁tangible	-11.5863
▁administered	-11.5865
▁Europeans	-11.5866
▁ban	-11.5867
▁persist	-11.587
▁counterpart	-11.5871
▁ethic	-11.5877
▁67	-11.5877
▁inelastic	-11.588
▁53	-11.5883
ver	-11.5885
▁overvalued	-11.5886
▁Cost	-11.5888
▁7.	-11.5889
▁confer	-11.589
▁dismiss	-11.5894
▁correctness	-11.5894
.17	-11.5901
▁multiply	-11.5903
▁Unless	-11.5903
▁Civilization	-11.5903
people	-11.5906
▁Nicholas	-11.5907
▁epistemology	-11.591
▁contracting	-11.5911
▁Me	-11.5911
▁las	-11.5911
▁performing	-11.5912
________________	-11.5913
Social	-11.5915
▁antagonism	-11.5917
▁Douglas	-11.5918
▁lengthening	-11.5927
▁extends	-11.5927
▁Euro	-11.5932
▁Flynn	-11.5936
▁calculus	-11.5937
▁yielding	-11.5938
Winter	-11.5938
Review	-11.594
▁quotes	-11.594
ification	-11.5943
▁Antifederalists	-11.5945
▁endorse	-11.5947
[8]	-11.5949
▁eagerly	-11.5951
94	-11.5952
▁persuasion	-11.5952
▁mills	-11.5953
▁mouth	-11.5955
▁1941	-11.596
▁100-	-11.596
▁Holy	-11.5963
▁excise	-11.5964
▁dramatically	-11.5965
▁summarized	-11.5966
▁fuel	-11.5967
▁Oliver	-11.5968
▁decreed	-11.5968
▁visited	-11.5972
(1)	-11.5975
▁rewarded	-11.5977
socialist	-11.5977
▁Ideas	-11.5981
▁flaw	-11.5981
▁119	-11.5984
▁intensive	-11.5987
▁instructed	-11.5993
▁confiscated	-11.5993
▁Wicksteed	-11.5994
▁workings	-11.5994
Berlin	-11.5997
▁drinking	-11.5999
hour	-11.6007
▁quod	-11.6008
their	-11.601
▁commands	-11.6012
William	-11.6013
▁quit	-11.6015
11.	-11.6016
▁fascist	-11.6017
▁hypotheses	-11.6018
▁accelerated	-11.602
▁Se	-11.602
▁Eden	-11.6021
▁ERE	-11.6021
▁wasted	-11.6022
▁quotations	-11.6022
controlled	-11.6024
threat	-11.6024
▁Hanna	-11.6029
.20	-11.6031
▁prompt	-11.6032
▁relates	-11.6032
▁annum	-11.6032
▁retreat	-11.6032
▁penny	-11.6035
▁Gresham	-11.6036
hard	-11.6036
▁presenting	-11.6041
▁Non	-11.6041
▁singular	-11.6042
▁excellence	-11.6045
▁invitation	-11.6045
▁Carter	-11.6048
▁possessing	-11.6049
▁Maine	-11.605
present	-11.6051
▁Pa	-11.6053
▁abstinence	-11.6058
▁49	-11.6062
ville	-11.6062
▁pool	-11.6063
▁flowing	-11.6064
▁Ver	-11.6066
▁hunting	-11.6066
equal	-11.6067
▁acquires	-11.6068
▁monarch	-11.6071
▁settlements	-11.6072
▁cognition	-11.6072
▁presumption	-11.6072
supply	-11.6074
▁Mencken	-11.6077
▁statute	-11.608
▁Belgian	-11.608
▁distortion	-11.6081
rich	-11.6087
▁130	-11.6089
▁hearts	-11.6096
▁acute	-11.6097
▁remedies	-11.61
▁experimental	-11.6101
▁condemnation	-11.6102
▁magnificent	-11.6105
▁bounds	-11.6107
▁team	-11.6111
▁ascribed	-11.6113
▁foresee	-11.6115
yn	-11.6115
▁genuinely	-11.6117
▁constructive	-11.6118
▁axioms	-11.6119
▁Kapital	-11.6122
▁Jan	-11.6127
▁Gray	-11.613
▁originate	-11.6133
Saxon	-11.6136
▁Whereas	-11.6136
▁tie	-11.6136
▁Representatives	-11.6138
▁ice	-11.6146
▁listed	-11.6148
▁heroic	-11.6148
▁ingenious	-11.6151
▁Soon	-11.6151
▁horizontal	-11.6153
▁privatization	-11.6154
▁Phillips	-11.6155
▁allocated	-11.616
▁undermine	-11.6163
▁Edition	-11.6163
▁Otto	-11.6165
Inflation	-11.6167
▁0	-11.6167
▁wipe	-11.6167
▁VII	-11.6171
▁Theories	-11.6173
Un	-11.6177
▁drain	-11.6177
▁Joe	-11.6177
▁ratification	-11.6182
▁unskilled	-11.6182
oc	-11.6183
▁burned	-11.6186
▁spheres	-11.6186
▁Anthony	-11.6188
▁signals	-11.6189
▁courses	-11.6196
▁dog	-11.6196
▁fired	-11.6197
▁Negro	-11.6206
▁regret	-11.6209
ever	-11.621
▁Organization	-11.621
ach	-11.6214
▁coordinated	-11.6217
▁observers	-11.6217
▁survived	-11.6218
Le	-11.622
▁toil	-11.6225
▁band	-11.6229
▁cite	-11.6231
▁Egypt	-11.6235
-19	-11.624
▁advancement	-11.624
▁pledged	-11.6241
▁creatures	-11.6243
▁accompanying	-11.6247
ab	-11.6247
Hudson	-11.6252
▁linguistic	-11.6252
▁Galbraith	-11.6254
▁bold	-11.6255
本	-11.626
▁safeguard	-11.6261
▁Community	-11.6262
▁$10,000	-11.6265
you	-11.6267
▁42	-11.627
▁score	-11.6271
cy	-11.6271
▁walked	-11.6272
▁innate	-11.6272
▁maxim	-11.6275
▁smallest	-11.6275
▁accidents	-11.6276
▁Halifax	-11.6279
President	-11.6281
Hence	-11.6282
▁Workers	-11.6286
▁positively	-11.6289
ug	-11.6291
▁Vice	-11.6291
▁offspring	-11.6293
▁topics	-11.6293
▁varies	-11.6296
▁Costs	-11.6298
▁por	-11.6299
▁worn	-11.6301
▁Wirtschaft	-11.6302
▁urgently	-11.6303
hr	-11.6304
▁repealed	-11.6305
▁alien	-11.6308
▁Fourier	-11.631
▁Mont	-11.6315
▁destroys	-11.6316
▁52	-11.6318
▁Positive	-11.6319
▁1951	-11.6319
▁letting	-11.6319
▁monstrous	-11.632
▁distinguishing	-11.6323
ts	-11.6327
▁87	-11.6334
ik	-11.6335
Consider	-11.6336
▁proprietary	-11.6336
▁estimation	-11.6336
property	-11.634
▁voter	-11.6341
▁hero	-11.6346
▁Valley	-11.6348
92	-11.6348
▁prewar	-11.6352
▁discouraged	-11.6353
▁punished	-11.6354
▁speculations	-11.6359
▁petty	-11.6359
▁structural	-11.6362
▁democracies	-11.6364
▁leap	-11.6372
▁unsuccessful	-11.6373
▁binding	-11.6376
▁timber	-11.6376
í	-11.6376
▁resultant	-11.6378
▁Changes	-11.6383
▁emphatically	-11.6384
▁pictures	-11.6385
▁harbor	-11.6386
▁allowance	-11.6388
▁Letter	-11.6392
▁Cycles	-11.6395
▁Truth	-11.6396
▁interview	-11.6396
▁Continent	-11.6399
▁commissioners	-11.64
▁assembled	-11.6406
▁circulated	-11.6408
▁barely	-11.641
▁succeeding	-11.6411
▁dictate	-11.6412
▁cautious	-11.6412
▁green	-11.6412
▁Few	-11.6414
▁gotten	-11.6416
▁insignificant	-11.6416
▁Bryan	-11.6416
▁sober	-11.6426
▁Harcourt	-11.6426
established	-11.6428
▁deaths	-11.6428
Though	-11.6428
▁collectively	-11.6428
▁emotions	-11.6429
dustrialization	-11.643
▁editors	-11.6431
paid	-11.6431
▁illuminating	-11.6432
▁minimal	-11.6433
▁enlarged	-11.6436
▁extract	-11.6438
▁flexibility	-11.644
86	-11.644
▁detrimental	-11.6441
bi	-11.6441
▁correlation	-11.6443
▁Whenever	-11.6445
▁beer	-11.6448
nt	-11.6449
_____________	-11.6458
▁conservation	-11.6459
▁upswing	-11.6461
▁unhappy	-11.6461
之	-11.6461
▁purchasers	-11.6464
▁Up	-11.6464
▁118	-11.6465
▁soft	-11.6468
▁1947	-11.6469
▁notorious	-11.6471
▁ruined	-11.6471
▁Marxians	-11.6472
▁forest	-11.6473
▁manifested	-11.6473
back	-11.6474
▁afterward	-11.6475
▁1923,	-11.6477
▁exploiting	-11.6477
▁delayed	-11.6482
▁library	-11.6484
▁physiological	-11.6484
Monetary	-11.6486
▁74	-11.6487
▁fourteen	-11.6488
Fall	-11.6488
▁foodstuffs	-11.6489
▁Fathers	-11.649
▁invisible	-11.6496
ii	-11.6498
▁Stanley	-11.6503
▁Davis	-11.6505
▁discounts	-11.6506
▁disutility	-11.651
▁fame	-11.6514
▁autonomous	-11.6515
Hill	-11.6516
▁tables	-11.6518
▁163	-11.6519
▁diminishes	-11.652
[9]	-11.6522
▁Meanwhile	-11.6522
Or	-11.6522
▁fulfillment	-11.6523
▁closest	-11.6525
▁1923.	-11.6526
▁crusade	-11.6526
ny	-11.6526
▁Open	-11.6528
▁dissent	-11.653
▁shoe	-11.6531
▁golden	-11.6537
▁Richter	-11.6541
▁emphasizes	-11.6541
▁observing	-11.6546
▁supervision	-11.6546
▁intertemporal	-11.6546
▁helpless	-11.6548
▁erected	-11.655
▁publicity	-11.6551
kin	-11.6551
▁quietly	-11.6551
She	-11.6554
▁ascribe	-11.6554
▁tests	-11.6556
▁arisen	-11.6569
▁reflecting	-11.6572
▁resumption	-11.6575
▁Movement	-11.6575
▁glorious	-11.6575
▁Secondly	-11.6577
red	-11.6578
▁readjustment	-11.6579
▁Failure	-11.6581
▁§	-11.6583
ru	-11.6584
▁rain	-11.6586
▁qualification	-11.6587
Any	-11.6588
▁apartment	-11.6588
progressive	-11.6591
▁nice	-11.6592
▁totality	-11.6593
ron	-11.6593
▁harmonious	-11.6597
▁distinctive	-11.66
▁sixteen	-11.6602
fixing	-11.6602
▁unpopular	-11.6603
▁bore	-11.6603
▁communications	-11.6603
▁hostilities	-11.6603
▁practicable	-11.6603
▁publisher	-11.6604
▁Per	-11.6605
Vienna	-11.6605
▁prize	-11.6606
▁Evolution	-11.6607
▁applications	-11.6608
▁posed	-11.6608
▁liberation	-11.6608
▁expediency	-11.6611
▁elect	-11.6615
▁solidarity	-11.6618
▁Mann	-11.662
▁Nobel	-11.6625
▁Garrison	-11.6625
價格	-11.6626
▁acre	-11.6627
▁plea	-11.6627
.25	-11.6627
▁insured	-11.6629
▁Ho	-11.6631
▁fancy	-11.6632
▁Utopia	-11.6632
▁outlawed	-11.6636
consumption	-11.6636
▁exempt	-11.6637
▁tant	-11.6637
▁performs	-11.6638
▁equalization	-11.6638
▁parliament	-11.6639
▁disappears	-11.664
▁Air	-11.6643
▁attaining	-11.6648
▁Car	-11.6648
▁admittedly	-11.6649
▁Rule	-11.6653
▁Timberlake	-11.6655
6,	-11.6657
▁Ex	-11.6659
makers	-11.666
▁admirable	-11.6661
▁afternoon	-11.6661
▁dissolution	-11.6661
▁contemplated	-11.6664
▁Several	-11.6664
Gold	-11.6665
about	-11.6666
▁trick	-11.6666
▁inflow	-11.6669
▁Schmoller	-11.6671
▁Daily	-11.6673
▁inference	-11.6674
▁oppressive	-11.6675
▁haven	-11.6675
▁livres	-11.6677
▁afforded	-11.6682
▁heirs	-11.6686
▁guiding	-11.669
▁angry	-11.669
▁ceiling	-11.6691
▁clearer	-11.6691
▁solving	-11.6694
▁deem	-11.6695
World	-11.6695
through	-11.6696
▁appreciated	-11.6696
▁Whoever	-11.6699
▁aggregates	-11.6701
▁occurrence	-11.6703
然	-11.6703
▁ceteris	-11.671
▁immaterial	-11.6712
▁gasoline	-11.6719
▁Elgar	-11.6719
▁ninety	-11.6719
▁FEE	-11.6722
▁Apart	-11.6722
▁symbol	-11.6722
▁industrialists	-11.6724
▁irreconcilable	-11.6724
▁preface	-11.6725
▁handful	-11.6725
Nothing	-11.6726
▁47	-11.6729
▁positivist	-11.6729
▁Wells	-11.673
▁deadly	-11.6731
▁inclination	-11.6732
▁formulate	-11.6733
▁Indianapolis	-11.6733
net	-11.6734
▁dealer	-11.6736
▁pen	-11.6737
▁Kenneth	-11.674
▁crown	-11.6744
▁Judge	-11.6747
▁Fleet	-11.6748
▁unto	-11.675
▁partnership	-11.6751
▁tacitly	-11.6752
▁frontiers	-11.6753
▁encourages	-11.6755
▁Hicks	-11.6755
▁impair	-11.6763
.19	-11.6765
▁empirically	-11.677
▁cruel	-11.6775
▁violating	-11.6777
▁hinder	-11.6778
▁aggravated	-11.6779
.18	-11.678
▁incredible	-11.6781
▁engineers	-11.6781
▁instantly	-11.6784
▁relate	-11.6787
▁endure	-11.679
▁1917	-11.679
▁treats	-11.6792
cher	-11.6793
▁drafted	-11.6795
▁abolishing	-11.6796
▁altruistic	-11.6799
mon	-11.6799
▁denouncing	-11.6806
▁submission	-11.6806
▁Commonwealth	-11.6806
▁113	-11.6807
▁sleep	-11.6815
12.	-11.6818
mises	-11.6827
X	-11.6829
▁supplement	-11.6831
▁approximate	-11.6833
▁preclude	-11.6837
▁Penn	-11.6842
▁1976	-11.6842
▁inspection	-11.6845
▁holder	-11.6846
▁differentiation	-11.6846
▁Shaw	-11.685
▁Christians	-11.6851
▁Critical	-11.6854
▁fathers	-11.6855
▁confess	-11.6858
▁proven	-11.6859
▁distorted	-11.6862
▁Brace	-11.6865
▁season	-11.6867
▁exceedingly	-11.6868
▁IMF	-11.6868
▁96	-11.6868
employment	-11.6869
America	-11.687
Be	-11.6871
▁10,000	-11.6873
▁Amsterdam	-11.6873
▁Volume	-11.6873
▁promoters	-11.6874
▁Manhattan	-11.6875
▁Structure	-11.6875
▁obsolete	-11.6875
bourgeois	-11.6877
Making	-11.6877
▁Total	-11.6877
▁frequency	-11.6879
utility	-11.6882
▁q	-11.6882
▁Country	-11.6883
[10]	-11.6885
▁controversial	-11.6886
▁chains	-11.6892
▁contributing	-11.6894
▁Rockwell	-11.6897
▁relieved	-11.6897
0,000	-11.6905
▁whoever	-11.6906
▁1925	-11.6908
▁Enlightenment	-11.6911
▁dictates	-11.6913
▁founders	-11.6914
▁Antitrust	-11.6917
ere	-11.6922
▁Protection	-11.6924
▁viable	-11.6925
▁heat	-11.6929
▁vigorously	-11.693
rational	-11.6932
▁Ge	-11.6934
▁invalid	-11.6934
▁plainly	-11.6934
▁(4)	-11.6936
▁recipient	-11.6939
democracy	-11.6939
va	-11.6941
▁renewal	-11.6944
▁deductive	-11.6946
▁Sombart	-11.6951
▁1986	-11.6952
▁tenets	-11.6952
▁fool	-11.6953
▁appraisal	-11.6953
▁Code	-11.6953
資	-11.6955
▁feudalism	-11.6957
▁liquidated	-11.6957
▁ascertain	-11.696
▁outflow	-11.6964
▁centrally	-11.6966
▁Executive	-11.6967
▁protested	-11.6967
▁Munich	-11.6967
▁patriotic	-11.6968
▁barrier	-11.6969
▁embargo	-11.6982
▁pietist	-11.6984
▁140	-11.6984
▁Captain	-11.6984
▁governors	-11.6985
▁aroused	-11.6986
▁Soviets	-11.6987
▁contributes	-11.6987
▁tight	-11.6991
▁overwhelmingly	-11.6991
▁155	-11.6992
▁Did	-11.6995
能	-11.6996
▁(2	-11.6996
▁1971.	-11.6996
▁escaped	-11.6997
▁Major	-11.6999
▁cling	-11.7
▁abstraction	-11.7
▁manifestation	-11.7
Oxford	-11.7001
Böhm	-11.7001
▁Naturally	-11.7002
▁forests	-11.7004
▁Op	-11.7004
▁smoke	-11.7005
▁tons	-11.7005
▁thereof	-11.7008
▁scorn	-11.7009
▁individualistic	-11.7009
par	-11.7012
▁Haberler	-11.7013
▁petroleum	-11.7013
▁confusing	-11.7013
▁hampered	-11.7016
▁Rate	-11.7017
如果	-11.7018
▁1981)	-11.7018
▁glass	-11.702
▁suggesting	-11.7021
▁Count	-11.7022
these	-11.7023
▁Spooner	-11.7026
▁Nozick	-11.703
▁hair	-11.703
▁adjusting	-11.7033
▁Regulation	-11.7037
▁loyal	-11.7039
95	-11.7039
▁glad	-11.704
gi	-11.7041
pl	-11.7042
▁TO	-11.7042
▁grades	-11.7042
▁deterioration	-11.7043
▁unpleasant	-11.7043
▁misled	-11.7043
▁impulses	-11.7044
▁components	-11.7045
▁hearings	-11.705
▁Tullock	-11.7053
▁crush	-11.7061
▁El	-11.7061
▁curb	-11.7061
▁bomb	-11.7062
▁Individualism	-11.7064
▁blessings	-11.7064
▁Fritz	-11.7066
▁divisions	-11.7067
▁warm	-11.7069
▁vastly	-11.707
▁eighteen	-11.7072
▁destiny	-11.7073
▁lords	-11.7078
Other	-11.7084
▁Sennholz	-11.7084
▁reliance	-11.7084
▁handled	-11.7084
▁trader	-11.7085
▁Home	-11.7086
type	-11.7088
part	-11.7094
▁unconscious	-11.7096
▁Klein	-11.7098
▁rejecting	-11.7098
▁Arlington	-11.7099
▁Adm	-11.7102
▁reluctance	-11.7103
▁straightforward	-11.7103
▁dying	-11.7104
▁Printing	-11.7104
▁invaded	-11.7106
▁1927	-11.7106
▁denounce	-11.7116
-1	-11.7117
▁hotel	-11.7121
may	-11.7123
?)	-11.7123
▁105	-11.7123
▁hyperinflation	-11.7124
▁evaluate	-11.7127
▁1850	-11.7128
▁broker	-11.7131
▁girls	-11.7132
▁springs	-11.7133
▁inescapable	-11.7134
▁prevalent	-11.7134
▁removing	-11.7134
theory	-11.7135
▁Pre	-11.7136
▁revived	-11.7136
▁invent	-11.7138
▁accorded	-11.7143
▁sharing	-11.7146
ney	-11.715
▁distribute	-11.7154
Like	-11.7158
British	-11.7158
▁decent	-11.7159
▁furniture	-11.7164
▁seed	-11.7168
▁ally	-11.7171
▁confirm	-11.7175
▁storm	-11.7176
▁calculating	-11.7177
▁theological	-11.7179
▁rested	-11.7179
▁mixture	-11.718
▁1926	-11.7181
IT	-11.7186
▁clarify	-11.7186
▁1934	-11.7188
▁judging	-11.7189
satisfaction	-11.7189
▁paradoxical	-11.7191
Again	-11.7192
▁intermediary	-11.7194
▁unstable	-11.7195
▁Anyone	-11.7195
▁Norton	-11.7196
▁Austro	-11.7197
▁missing	-11.72
life	-11.7203
▁neighboring	-11.7207
asmuch	-11.7211
▁persecution	-11.7211
▁anew	-11.7212
▁beginnings	-11.7213
▁1940.	-11.7214
”:	-11.7218
▁Profits	-11.7222
所	-11.7223
▁Manchester	-11.7224
▁waged	-11.7225
▁rental	-11.7225
▁dull	-11.7226
▁cheapest	-11.7227
▁Bacon	-11.723
▁Quite	-11.7232
▁breach	-11.7233
▁91	-11.7233
.22	-11.7234
▁autarky	-11.7237
▁Yugoslavia	-11.7241
cit	-11.7241
▁Likewise	-11.7243
AN	-11.7245
▁hat	-11.7252
▁civilizations	-11.7253
▁clergy	-11.7254
▁electricity	-11.7256
▁baby	-11.7256
▁bed	-11.726
▁flourishing	-11.7262
▁surprisingly	-11.7266
▁successors	-11.727
▁traits	-11.7274
▁inform	-11.7275
▁Vermont	-11.7278
▁1971)	-11.7278
▁es	-11.728
▁phrases	-11.728
▁physician	-11.7283
▁Orleans	-11.7286
▁Panic	-11.729
▁tolerated	-11.729
legal	-11.7293
▁clerk	-11.7297
▁clauses	-11.73
▁Attack	-11.7301
▁Iowa	-11.7301
▁divert	-11.7302
▁apple	-11.7303
▁film	-11.7305
▁Alan	-11.7311
▁corrected	-11.7315
▁Grew	-11.7317
▁electoral	-11.7318
▁habitually	-11.7319
tin	-11.732
▁circular	-11.7322
▁embraced	-11.7322
▁sway	-11.7323
▁sincere	-11.7325
▁Tradition	-11.7325
▁Point	-11.7326
post	-11.7326
▁Detroit	-11.7326
▁depth	-11.7333
▁hint	-11.7333
▁Representative	-11.7333
uc	-11.7334
▁legitimately	-11.7334
ran	-11.7335
▁tyrant	-11.7336
▁deeds	-11.7336
▁Pat	-11.7337
▁1945,	-11.7338
ez	-11.734
▁benevolent	-11.7341
▁Th	-11.7346
▁demonstrating	-11.7348
▁introducing	-11.7348
▁remarkably	-11.7348
historical	-11.7348
▁151	-11.7349
Having	-11.7349
▁threatens	-11.7352
▁resorting	-11.7353
▁1840	-11.7353
▁dared	-11.7353
ER	-11.7353
▁Ten	-11.7354
▁subjectivism	-11.7355
pay	-11.7356
▁clever	-11.7363
▁sacrificed	-11.7368
▁postulates	-11.7373
▁hesitate	-11.7375
▁Calhoun	-11.7375
party	-11.7376
▁comprehension	-11.7379
▁announcement	-11.738
▁involvement	-11.7381
▁discusses	-11.7385
▁shadow	-11.739
▁catallactics	-11.739
▁Pittsburgh	-11.7395
▁disturb	-11.7397
▁1927.	-11.7398
▁analyses	-11.7399
▁250	-11.74
▁mercantile	-11.7401
▁infer	-11.7401
▁Population	-11.7403
▁58	-11.7403
▁weights	-11.7406
ions	-11.7409
▁1928,	-11.741
▁Ferguson	-11.741
▁establishments	-11.7412
▁foster	-11.7416
▁honesty	-11.7416
▁cleared	-11.7418
▁Richardson	-11.7419
▁wisely	-11.7422
▁Alabama	-11.7422
▁males	-11.7422
▁nationalized	-11.7423
▁dislike	-11.7426
▁thirteen	-11.7427
▁coordinate	-11.7427
▁battles	-11.7428
▁stayed	-11.7428
▁risky	-11.7429
▁zone	-11.743
▁fishing	-11.7432
▁shrewd	-11.7436
▁mystical	-11.744
ph	-11.744
▁satisfactorily	-11.7441
▁Sumter	-11.7441
▁1919,	-11.7442
▁diverted	-11.7443
▁orthodoxy	-11.7444
▁$1,000	-11.7445
▁agreeable	-11.7446
laws	-11.7446
should	-11.7447
(3)	-11.7447
▁barrels	-11.7449
▁suspected	-11.745
▁advisers	-11.7452
▁Abraham	-11.7454
▁involuntary	-11.7456
step	-11.7458
▁random	-11.7462
▁influencing	-11.7465
▁153	-11.7465
.”3	-11.7467
ker	-11.747
▁conducive	-11.7472
▁impoverishment	-11.7472
▁dictum	-11.7472
▁managerial	-11.7473
▁9.	-11.7474
▁Charleston	-11.7474
▁nomination	-11.7476
Both	-11.748
▁156	-11.7481
▁Class	-11.7487
▁1949)	-11.7488
▁gather	-11.749
▁adviser	-11.7493
▁progressively	-11.7495
▁unanimous	-11.7495
▁joining	-11.7501
▁shipped	-11.7504
▁stopping	-11.7504
▁bright	-11.7506
car	-11.7509
▁modify	-11.7511
行	-11.7511
▁1879	-11.7511
▁159	-11.7511
▁Compare	-11.7511
▁44	-11.7513
▁redeemed	-11.7517
▁civilians	-11.7518
▁prey	-11.7518
▁watching	-11.752
pt	-11.7521
▁unaware	-11.7522
▁epoch	-11.7522
▁prisoners	-11.7523
▁inventor	-11.7524
ud	-11.7525
▁theater	-11.7527
▁indulge	-11.7529
▁400	-11.7531
▁merger	-11.7533
▁expands	-11.7535
▁substituting	-11.7535
▁instituted	-11.7538
▁outline	-11.7539
▁Experience	-11.7542
▁spirits	-11.7543
Whether	-11.7545
Modern	-11.7545
▁suicide	-11.7546
▁affirmative	-11.7548
▁philosophic	-11.7555
▁yearly	-11.7557
▁recommendation	-11.7557
▁Cobden	-11.7559
▁novels	-11.7562
▁constrained	-11.7566
▁allegiance	-11.7566
▁forthcoming	-11.7567
▁intervals	-11.7568
▁recover	-11.7572
gan	-11.7573
Nevertheless	-11.7577
▁schooling	-11.7578
▁dividing	-11.7579
school	-11.7579
▁greatness	-11.758
▁intolerable	-11.7582
trust	-11.7582
▁148	-11.7582
▁131	-11.7587
than	-11.7587
ster	-11.7591
▁1927,	-11.7592
conservative	-11.7592
▁boat	-11.7594
▁eating	-11.7594
CHAPTER	-11.7598
▁beneficence	-11.7598
▁contingent	-11.7598
▁exercising	-11.7598
▁repetition	-11.7598
▁proposing	-11.7598
▁centered	-11.7599
▁humans	-11.7601
▁desperately	-11.7604
_____.	-11.7606
ure	-11.7606
▁PPM	-11.7607
▁Ayn	-11.7608
▁Bauer	-11.7609
▁mountain	-11.7611
▁83	-11.7611
▁caution	-11.7617
▁principally	-11.7619
▁Hayekian	-11.7619
▁dwell	-11.762
▁1979	-11.7626
▁burst	-11.7627
▁senior	-11.7629
▁intercourse	-11.7629
▁McGraw	-11.763
▁irresistible	-11.763
▁$20	-11.763
▁1944	-11.763
▁postponed	-11.7633
▁laboratory	-11.7633
▁munitions	-11.7633
▁78	-11.7634
▁metaphor	-11.7634
▁searching	-11.7636
▁Quaker	-11.7637
▁Cuba	-11.764
Robert	-11.7643
▁111	-11.7643
History	-11.7644
increasing	-11.7645
▁Pigou	-11.765
▁desk	-11.7657
▁capacities	-11.7662
▁injurious	-11.7662
▁rubber	-11.7662
[12]	-11.7663
▁preferable	-11.7665
▁inconceivable	-11.7666
▁Letters	-11.7667
ping	-11.7669
▁Iran	-11.7674
▁Geschichte	-11.7677
▁Woodrow	-11.7684
▁creature	-11.7684
[11]	-11.7687
▁spare	-11.769
▁secondly	-11.7692
▁Legal	-11.7693
▁movies	-11.7695
▁Bible	-11.7697
▁options	-11.7697
▁dimension	-11.7701
▁discriminatory	-11.7702
▁Everybody	-11.7705
▁cope	-11.7706
▁specially	-11.7709
▁100,000	-11.7715
town	-11.7719
▁mild	-11.7719
.’”	-11.7722
▁bombing	-11.7724
▁Jonathan	-11.7725
▁identification	-11.7726
▁wives	-11.7726
▁Turkey	-11.7726
▁concluding	-11.7726
▁expounded	-11.7727
▁characterizes	-11.773
▁mentions	-11.7732
▁infant	-11.7734
▁shocked	-11.7734
▁specialists	-11.7738
▁disputed	-11.7739
▁definitive	-11.7739
▁exporting	-11.774
▁goodness	-11.7741
▁uniformly	-11.7743
induced	-11.7744
▁ambitions	-11.7744
higher	-11.7746
▁unduly	-11.7746
▁£1	-11.7747
▁expedition	-11.7748
▁sentences	-11.7748
▁dividend	-11.7749
▁journey	-11.7754
▁wicked	-11.7757
▁tolerance	-11.7757
▁Gulf	-11.7758
▁testified	-11.7758
▁counterfeit	-11.7759
▁Soto	-11.7759
▁integral	-11.776
▁egalitarianism	-11.776
▁appoint	-11.776
rum	-11.776
▁reservation	-11.7761
▁enact	-11.7761
▁indicating	-11.7762
▁foreseen	-11.7762
▁Wirtschafts	-11.7763
material	-11.7766
▁quarrel	-11.7768
mar	-11.7768
▁duly	-11.7769
▁8.	-11.7771
▁potatoes	-11.7772
.21	-11.7775
Editor	-11.7776
▁Popper	-11.778
▁125	-11.7781
▁sword	-11.7781
▁intact	-11.779
▁noteworthy	-11.779
▁admitting	-11.7791
▁rigidity	-11.7791
▁predominantly	-11.7792
▁1970)	-11.7792
▁exchangeable	-11.7794
▁witnessed	-11.7799
▁Myth	-11.7801
▁outward	-11.7801
▁Harris	-11.7804
▁1953)	-11.7806
Ethics	-11.7811
science	-11.7811
▁artist	-11.7811
ique	-11.7811
▁mentor	-11.7813
ven	-11.7815
▁succeeds	-11.7819
ga	-11.782
▁spectacle	-11.7822
▁Dodd	-11.7823
▁unintended	-11.7823
▁displaced	-11.7824
▁fun	-11.7827
▁exercises	-11.7832
▁understandable	-11.7832
▁implement	-11.7832
▁proclaim	-11.7833
▁narrowly	-11.7839
▁Unlike	-11.7839
OR	-11.7839
▁1956	-11.7842
created	-11.7845
▁intellectually	-11.7845
▁1966)	-11.7846
sel	-11.7847
▁1900	-11.7848
▁ineffective	-11.7849
▁Schwartz	-11.7853
▁participating	-11.7853
▁rivers	-11.7854
▁biography	-11.7855
▁inventories	-11.7855
▁Negroes	-11.7857
▁imputation	-11.7857
▁Jack	-11.7858
▁dictated	-11.7859
loss	-11.786
▁1962)	-11.7861
tro	-11.7861
ery	-11.7861
ual	-11.7862
▁Antifederalist	-11.7862
king	-11.7867
▁Swedish	-11.7868
▁Li	-11.7868
▁uniquely	-11.7872
ba	-11.7874
Don	-11.7875
modern	-11.7878
▁organ	-11.788
▁149	-11.7884
▁Ministry	-11.7887
▁dissertation	-11.7887
▁impetus	-11.7887
▁Reverend	-11.7887
▁inferiority	-11.7889
▁Principle	-11.7891
▁170	-11.7891
▁pamphlets	-11.7891
▁humanitarian	-11.7894
▁abstain	-11.7899
▁Harrison	-11.79
rr	-11.7901
ue	-11.7902
▁star	-11.7904
▁secretly	-11.7907
▁parasitic	-11.7908
▁disciple	-11.7912
system	-11.7914
▁macro	-11.7916
▁loaf	-11.7919
▁diplomacy	-11.792
▁subsidiary	-11.792
ot	-11.7921
▁enlarge	-11.7922
▁reproduction	-11.7922
▁mountains	-11.7925
▁budgets	-11.7927
▁handling	-11.793
St	-11.7931
▁unreasonable	-11.7934
▁steal	-11.7935
▁stance	-11.7938
▁stolen	-11.794
▁71	-11.794
iness	-11.7941
▁parcel	-11.7945
▁Wallace	-11.7948
▁VIII	-11.7949
▁desert	-11.7951
▁Tribune	-11.7952
▁anxiety	-11.7953
▁ensuing	-11.7953
▁reversal	-11.7953
▁accuracy	-11.7957
▁fly	-11.7959
▁barrel	-11.7962
▁discovering	-11.7963
▁prosper	-11.7963
▁delusion	-11.7968
▁1962	-11.7969
▁clash	-11.7971
▁violations	-11.7973
▁IX	-11.7973
▁enhance	-11.7973
▁Future	-11.7974
Meanwhile	-11.798
▁postpone	-11.7982
▁laying	-11.7982
▁dissatisfaction	-11.7986
14.	-11.7987
▁wherein	-11.7989
▁hopelessly	-11.7992
▁1991	-11.7993
ments	-11.7998
▁Ed	-11.8001
▁covers	-11.8003
▁Foundations	-11.8006
val	-11.8007
get	-11.8007
▁Robertson	-11.8008
▁contrasts	-11.8009
unt	-11.8013
▁villages	-11.8014
James	-11.8015
welfare	-11.8015
George	-11.8016
Using	-11.8016
▁stations	-11.8017
▁sports	-11.8017
▁tribal	-11.8018
▁outlay	-11.8018
decentralization	-11.8019
▁curiosity	-11.8019
▁populace	-11.8019
res	-11.8023
▁beforehand	-11.8027
▁continuity	-11.8031
.24	-11.8033
Looking	-11.8036
▁Krupp	-11.8037
▁Making	-11.8039
▁expose	-11.8041
▁renounce	-11.8042
▁pioneer	-11.8047
▁withholding	-11.8049
▁aspirations	-11.8051
▁interior	-11.8052
▁compliance	-11.8052
▁restoring	-11.8052
▁disinterested	-11.8052
arious	-11.8053
▁stroke	-11.8056
▁reads	-11.8056
▁Molinari	-11.806
也	-11.8061
▁rationalism	-11.8061
▁flourish	-11.8071
▁friction	-11.8074
▁fur	-11.8077
▁offense	-11.8078
▁72	-11.8078
▁Wright	-11.808
ft	-11.8081
▁plentiful	-11.8081
▁tracts	-11.8082
▁Jacksonian	-11.8083
Still	-11.8085
▁greenbacks	-11.8085
▁Year	-11.8086
Law	-11.8086
▁startling	-11.8087
▁journalists	-11.8092
▁channel	-11.8093
▁Les	-11.8094
▁adaptation	-11.8095
▁mad	-11.8096
▁adapt	-11.8096
▁influx	-11.8102
don	-11.8103
▁damages	-11.8105
▁1952	-11.8107
▁1959	-11.8108
industrial	-11.8108
▁exaggeration	-11.8111
▁delegation	-11.8111
▁silk	-11.8111
high	-11.8111
▁dispatch	-11.8112
▁exertion	-11.8112
▁Earl	-11.8114
▁Greeks	-11.8117
▁Pro	-11.8118
▁Academy	-11.8118
▁silly	-11.8118
▁Staat	-11.8121
clearing	-11.8121
▁Sumner	-11.8122
▁depressed	-11.8123
▁resolutions	-11.8126
fer	-11.8132
taking	-11.8133
▁subordination	-11.8135
▁seeds	-11.8135
ped	-11.8138
▁82	-11.8139
▁cherished	-11.8139
▁Lionel	-11.8142
ative	-11.8144
both	-11.8144
▁Berkeley	-11.8146
▁walls	-11.8146
▁Verlag	-11.8147
▁wonders	-11.8147
▁ranked	-11.8148
▁communicate	-11.8148
deposit	-11.8148
▁$35	-11.8149
▁conquer	-11.8151
▁Newton	-11.8152
▁poetry	-11.8152
▁Series	-11.8153
▁confirmation	-11.8153
volume	-11.8154
Public	-11.8154
▁1990.	-11.8154
true	-11.8155
▁doubted	-11.8155
nothing	-11.8155
▁constraints	-11.8155
tive	-11.8157
▁Butler	-11.8159
▁plight	-11.8161
▁adventure	-11.8163
▁selfishness	-11.8163
unless	-11.8165
▁protests	-11.8165
head	-11.8171
▁orbit	-11.8172
▁diamonds	-11.8172
▁filling	-11.8173
round	-11.8174
▁180	-11.8175
▁confuse	-11.8175
▁capitalized	-11.8179
lived	-11.8179
▁fond	-11.8181
▁naïve	-11.8182
▁145	-11.8183
▁denominator	-11.8185
ub	-11.8186
ha	-11.8188
▁concert	-11.8188
▁managing	-11.8188
▁likes	-11.8189
▁guilds	-11.8191
▁Geld	-11.8191
▁Queen	-11.8195
▁anger	-11.8195
▁Va	-11.8196
▁Rogers	-11.8196
▁artistic	-11.8202
ING	-11.8202
▁Brazil	-11.8203
▁perish	-11.8203
)—	-11.8209
▁ensue	-11.8209
▁inflicted	-11.8211
▁56	-11.8211
[13]	-11.8213
ado	-11.8215
▁Taxes	-11.8216
maker	-11.8221
▁stops	-11.8222
▁majorities	-11.8222
▁124	-11.8222
▁1971	-11.8225
▁UN	-11.8225
▁79	-11.8226
▁poet	-11.8226
▁NLRB	-11.8227
▁hoard	-11.8232
▁Poverty	-11.8234
▁minimize	-11.8243
very	-11.8245
▁Aldrich	-11.8245
▁enabl	-11.8247
Are	-11.8249
▁revolutionaries	-11.825
▁Christmas	-11.8253
▁Revolt	-11.8253
▁biology	-11.8253
▁readiness	-11.8254
▁coupled	-11.8259
1–	-11.8264
ren	-11.8264
▁cult	-11.8267
▁Ca	-11.827
▁1926,	-11.8271
▁purposive	-11.8273
▁user	-11.8275
▁operative	-11.828
▁ballot	-11.8281
▁Buckley	-11.8282
▁reconcile	-11.8283
▁Throughout	-11.8284
▁traces	-11.8285
▁franchise	-11.8287
▁cartelization	-11.8288
open	-11.8294
▁indebtedness	-11.8296
▁1948)	-11.8296
▁1935	-11.8298
因	-11.8299
▁61	-11.8301
▁warnings	-11.8305
13.	-11.8307
他	-11.8307
▁chart	-11.8307
▁Knies	-11.8308
▁maximization	-11.8308
▁1954	-11.8309
▁Basic	-11.831
▁differed	-11.831
▁attraction	-11.8312
▁tough	-11.8313
▁journalist	-11.8316
▁finances	-11.8316
▁execute	-11.8317
▁maximizing	-11.8318
▁indebted	-11.832
▁additions	-11.832
▁varieties	-11.8321
▁miserable	-11.8321
▁committing	-11.8321
▁decidedly	-11.8322
tes	-11.8322
▁differing	-11.8323
▁dictators	-11.8326
▁institute	-11.8327
▁Mayer	-11.8327
▁Korean	-11.8328
fold	-11.8329
▁accommodate	-11.8329
▁centre	-11.833
internationalism	-11.8332
ement	-11.8333
rather	-11.8334
▁beside	-11.8335
▁1978.	-11.8337
▁souls	-11.8337
▁richest	-11.834
▁susceptible	-11.834
▁guild	-11.834
▁dawn	-11.8342
▁Congressman	-11.8343
▁1820	-11.8345
bu	-11.8347
▁Albany	-11.8347
▁rock	-11.8353
▁beloved	-11.8355
▁deferred	-11.8355
▁heterogeneous	-11.8356
ken	-11.8357
▁mess	-11.8358
▁fostered	-11.836
▁ratified	-11.8363
▁Cannan	-11.8369
za	-11.8372
▁preparations	-11.8376
▁unanimity	-11.8384
▁grace	-11.8388
業	-11.8389
▁impending	-11.8389
▁disappointed	-11.839
▁Sociology	-11.8393
lic	-11.8397
▁rediscount	-11.8399
▁subjection	-11.84
▁spectacular	-11.8401
▁99	-11.8401
Christian	-11.8402
▁chaotic	-11.8404
▁identifying	-11.8407
▁pig	-11.8409
▁god	-11.841
▁colleges	-11.8414
▁presuppose	-11.8415
▁injure	-11.8416
▁retaining	-11.8417
▁computation	-11.8418
▁rebel	-11.842
▁adults	-11.8422
▁XIV	-11.8423
▁Food	-11.8423
▁entrance	-11.8424
▁sites	-11.8426
▁Liberals	-11.8426
▁cards	-11.8427
▁roll	-11.8428
▁revelation	-11.8429
[14]	-11.8431
▁welcomed	-11.8431
▁Mind	-11.8432
▁Kuhn	-11.8433
▁arriving	-11.8434
▁mechanisms	-11.8435
eight	-11.8437
▁Marginal	-11.8437
▁Nelson	-11.8437
▁surrendered	-11.8438
▁Hugh	-11.8446
▁sunk	-11.8448
▁throwing	-11.8451
▁reporting	-11.8453
▁emperor	-11.8453
▁Change	-11.8456
FIGURE	-11.8458
▁Confidential	-11.8458
▁ambiguous	-11.8458
▁Carroll	-11.846
EN	-11.8461
▁drift	-11.8462
fi	-11.8464
▁108	-11.8465
Ed	-11.8466
Schumpeter	-11.8473
▁crippling	-11.8473
9,	-11.8474
ile	-11.8475
▁Gazette	-11.8476
total	-11.8479
▁needless	-11.8481
▁materialistic	-11.8484
▁Statistical	-11.8488
▁unowned	-11.8488
▁legislator	-11.8488
▁colleague	-11.8488
sic	-11.8491
▁Staff	-11.8493
▁117	-11.8495
▁witnesses	-11.8496
▁priority	-11.8496
▁rationalist	-11.8499
▁spell	-11.8499
▁confront	-11.8499
style	-11.8501
▁railways	-11.8502
▁Saddam	-11.8503
▁tested	-11.8504
▁Barnes	-11.8507
Great	-11.8509
▁1800	-11.8515
▁waters	-11.8517
▁Dreadwind	-11.8517
▁Institution	-11.8518
▁46	-11.8518
▁resting	-11.852
▁poorly	-11.8522
▁characterize	-11.8523
▁pretext	-11.8523
▁modification	-11.8523
▁54	-11.8524
▁Bratton	-11.8527
▁utilize	-11.8527
▁autumn	-11.8527
▁heritage	-11.8527
▁hegemonic	-11.8528
▁forecasts	-11.8529
▁cites	-11.853
owners	-11.8536
▁interstate	-11.8537
▁Saturday	-11.854
▁luxuries	-11.854
▁excesses	-11.854
ko	-11.8545
▁ceilings	-11.8547
▁1922,	-11.8547
▁exceeding	-11.8548
▁Thane	-11.8549
▁illusions	-11.8551
.23	-11.8551
▁troubled	-11.8552
經濟	-11.8554
15.	-11.8554
▁115	-11.8555
▁slaughter	-11.8556
▁Survey	-11.8556
▁66	-11.8559
▁indignation	-11.8562
▁Calif	-11.8563
▁rivalry	-11.8563
▁Gates	-11.8563
▁picketing	-11.8567
▁1977.	-11.8567
▁faulty	-11.8567
▁Individual	-11.8568
▁tall	-11.857
▁Inter	-11.8574
▁utopian	-11.8576
▁Brothers	-11.8577
ious	-11.8578
▁Literature	-11.858
Also	-11.8582
▁stamped	-11.8583
▁boost	-11.8584
▁simpler	-11.8584
▁172	-11.8585
▁Trotsky	-11.8586
▁consult	-11.8587
▁malinvestment	-11.8591
▁bushel	-11.8594
▁Building	-11.8594
▁stabilizing	-11.8594
▁lends	-11.8595
bo	-11.8599
▁repercussions	-11.86
▁Carey	-11.86
▁resumed	-11.8601
▁fat	-11.8601
upon	-11.8605
▁Staats	-11.8606
fully	-11.8606
▁constraint	-11.8608
▁pessimism	-11.861
▁weigh	-11.8611
▁Last	-11.8612
▁jointly	-11.8613
▁Wood	-11.8615
▁Hansen	-11.8617
Chapter	-11.8618
▁Franco	-11.8622
take	-11.8623
▁games	-11.8625
▁94	-11.8626
God	-11.8627
▁honour	-11.8629
▁Cole	-11.8632
▁scrutiny	-11.8632
▁robbed	-11.8632
▁emigration	-11.8632
▁Creator	-11.8632
▁Writings	-11.8634
▁1971,	-11.8636
▁trap	-11.8636
▁regression	-11.8636
▁1973.	-11.8639
▁professions	-11.864
▁cake	-11.864
▁excitement	-11.8642
▁preposterous	-11.8643
▁Portugal	-11.8645
▁forbid	-11.8646
▁Beard	-11.8654
ons	-11.8659
▁violates	-11.866
▁Aquinas	-11.8661
5,000	-11.8662
▁grateful	-11.8664
▁evade	-11.8664
mb	-11.8666
▁akin	-11.8667
▁Legislature	-11.8667
▁precarious	-11.8667
▁frustrated	-11.8669
▁cow	-11.867
▁profitably	-11.8671
▁nobles	-11.8672
payments	-11.8672
▁Fox	-11.8673
▁persisted	-11.8674
ang	-11.8677
▁Lake	-11.8683
▁floating	-11.8683
.”4	-11.8684
▁conceal	-11.8684
▁constituting	-11.8684
▁shrink	-11.8692
▁passionate	-11.8694
▁1976.	-11.8702
▁myriad	-11.8703
▁paradise	-11.8703
▁verdict	-11.8703
▁subsidizing	-11.8703
▁residence	-11.8703
▁unrestricted	-11.8703
▁$100,000	-11.8703
▁counting	-11.8703
▁card	-11.8705
▁reinforced	-11.8705
▁moments	-11.8708
▁1928.	-11.8715
▁Roberts	-11.8715
ator	-11.8716
range	-11.8719
▁lawful	-11.8725
Henry	-11.8729
▁qualify	-11.8731
▁negotiate	-11.8734
▁1930,	-11.8735
▁hunter	-11.8737
▁repression	-11.8739
▁synonymous	-11.874
▁appealing	-11.8743
▁Shelley	-11.8745
▁wit	-11.8746
▁Golden	-11.8747
▁talks	-11.8749
▁reckoned	-11.8751
qui	-11.8752
▁households	-11.8753
▁sink	-11.8755
▁links	-11.8756
▁collecting	-11.8756
Note	-11.8756
▁Main	-11.876
great	-11.8761
▁crack	-11.8763
▁über	-11.8764
contradictory	-11.8765
uff	-11.8766
▁observes	-11.8768
▁complications	-11.8773
cha	-11.8775
▁1975.	-11.8775
▁1993	-11.8776
▁manifests	-11.8779
▁grievances	-11.8779
art	-11.8782
▁crushing	-11.8783
▁Raymond	-11.8784
▁descendants	-11.8792
▁Rates	-11.8792
.”—	-11.8792
▁grasped	-11.8793
▁73	-11.8795
▁lumber	-11.8795
▁Anglican	-11.8795
LE	-11.8796
▁trillion	-11.8797
▁peacefully	-11.8798
▁1922.	-11.8803
▁contemplate	-11.8804
▁accrue	-11.8804
collective	-11.8804
▁proving	-11.8804
▁126	-11.8806
tu	-11.8807
▁prerequisite	-11.8807
▁repudiation	-11.881
▁imprisonment	-11.881
▁endorsement	-11.8811
▁1977)	-11.8816
▁successively	-11.8819
▁tale	-11.8823
▁professed	-11.8824
▁commented	-11.8824
▁peculiarly	-11.8828
▁132	-11.8829
▁158	-11.883
prices	-11.8842
▁marvelous	-11.8842
▁fanatical	-11.8842
▁ammunition	-11.8845
▁desirability	-11.8845
▁nonsensical	-11.8845
▁régime	-11.8845
▁Volker	-11.8847
▁attaches	-11.8848
▁assess	-11.8849
這些	-11.8849
▁embarked	-11.8853
▁momentous	-11.886
▁Grand	-11.8865
▁implying	-11.8869
rie	-11.8872
▁1944,	-11.8873
French	-11.8878
▁Leviathan	-11.8881
▁negation	-11.8881
▁aprioristic	-11.8881
▁intersection	-11.8882
▁1947)	-11.8882
▁tired	-11.8882
▁resigned	-11.8886
▁advocacy	-11.8887
▁manual	-11.8889
▁poorest	-11.8889
▁69	-11.8891
ino	-11.8896
▁116	-11.8896
▁manifestations	-11.8899
▁11.	-11.8907
▁62	-11.8907
▁penalize	-11.8915
according	-11.8915
▁Insurance	-11.8915
▁throne	-11.8917
▁overriding	-11.8919
▁entailed	-11.8925
▁das	-11.8928
▁Eugene	-11.893
capitalism	-11.8931
▁Being	-11.8931
substitutes	-11.8931
▁Livingston	-11.8933
ski	-11.8933
▁slump	-11.8935
▁Moore	-11.8935
▁inclusion	-11.8935
▁arch	-11.8937
▁predatory	-11.8938
▁outlaw	-11.8939
▁Greene	-11.8939
▁1964	-11.894
▁prolong	-11.8941
▁Rodbertus	-11.8944
▁explore	-11.8944
▁Military	-11.8946
▁2:	-11.8947
▁auction	-11.8948
▁w	-11.895
▁horrors	-11.8952
▁ingenuity	-11.8954
▁dictatorial	-11.8954
indeed	-11.8954
▁Jacques	-11.8955
▁unanimously	-11.8958
ans	-11.8959
▁conceivably	-11.8967
▁provoked	-11.8967
▁curse	-11.8968
▁kids	-11.8968
▁Imperial	-11.8976
▁1924,	-11.8977
▁Lassalle	-11.8979
▁173	-11.8981
bearing	-11.8987
.[2]	-11.8988
▁dominion	-11.8989
▁167	-11.8989
▁tenure	-11.899
▁discrepancy	-11.899
Kirzner	-11.8991
▁Bell	-11.8991
Similarly	-11.8992
▁heroes	-11.8992
▁scrap	-11.8998
▁progression	-11.9
▁137	-11.9001
▁inducement	-11.9004
▁1926.	-11.9005
voluntary	-11.9007
▁seeming	-11.9007
▁shake	-11.901
▁1917,	-11.9012
▁distort	-11.9012
building	-11.9013
▁statutes	-11.9016
tum	-11.9019
▁Bas	-11.902
che	-11.9023
▁oath	-11.9026
▁Clay	-11.9026
▁leather	-11.9027
▁extraordinarily	-11.9027
▁unpredictable	-11.9027
standing	-11.9028
▁responses	-11.903
wood	-11.9031
▁(16	-11.9032
▁crushed	-11.9033
▁pulled	-11.9034
▁Ru	-11.9034
▁1985)	-11.9038
▁esteem	-11.9039
▁1993)	-11.9039
ford	-11.9041
▁disregarded	-11.9041
▁1957)	-11.9041
▁Kolko	-11.9044
▁ECB	-11.9046
▁Führer	-11.9046
▁guerrilla	-11.9046
▁Apparently	-11.9047
▁dispense	-11.9049
▁frozen	-11.9052
product	-11.9056
▁resume	-11.906
▁controversies	-11.9063
▁judiciary	-11.9063
▁bureau	-11.9064
▁repaid	-11.9064
▁seasonal	-11.9066
meaning	-11.9066
Value	-11.9067
namely	-11.9068
▁Howe	-11.9068
▁concealed	-11.9068
▁Elizabeth	-11.9074
可以	-11.9077
▁transforming	-11.9078
▁Have	-11.9078
▁odds	-11.9078
▁pleases	-11.9079
six	-11.9085
▁heap	-11.9086
▁erect	-11.9087
ward	-11.9087
▁Morgans	-11.9092
▁pension	-11.9092
▁1932)	-11.9095
▁sa	-11.9098
▁averages	-11.91
▁edifice	-11.91
▁settling	-11.91
▁Prize	-11.91
▁defective	-11.91
han	-11.9101
wissenschaften	-11.9103
Liberalism	-11.9114
▁Poor	-11.9117
▁Ind	-11.9118
Oh	-11.912
▁Father	-11.9121
▁intuition	-11.9122
mis	-11.9124
▁initiate	-11.9133
ology	-11.9135
▁1935)	-11.9135
▁adhere	-11.9136
▁142	-11.9136
▁legacy	-11.9137
▁irrespective	-11.9137
▁Selected	-11.9138
▁upheld	-11.9141
▁Calvin	-11.9141
▁1949,	-11.9141
▁bull	-11.9142
▁recovered	-11.9143
▁appearing	-11.9144
Roosevelt	-11.9144
month	-11.9145
▁harmless	-11.9146
▁1974)	-11.9148
▁Recovery	-11.9148
▁reckless	-11.915
▁artists	-11.915
$	-11.9151
▁cigarettes	-11.9152
▁Leland	-11.9154
▁sabotage	-11.9156
▁Transportation	-11.9156
▁boss	-11.9158
▁mayor	-11.9162
▁Management	-11.9162
▁refuge	-11.9166
▁colour	-11.917
▁priests	-11.917
▁bloc	-11.9171
▁Brunswick	-11.9174
▁facility	-11.9174
▁urgency	-11.9174
▁chemistry	-11.9174
▁restaurant	-11.9174
▁recurring	-11.9174
▁unrelated	-11.9175
▁voices	-11.9176
El	-11.9177
▁overnight	-11.9178
▁skyscraper	-11.9178
▁1790	-11.9179
▁Annual	-11.9183
particularly	-11.9183
–15	-11.9184
▁pecuniary	-11.9186
▁84	-11.9186
▁watched	-11.9187
▁meanings	-11.9188
▁enlightenment	-11.9189
▁Fred	-11.919
▁correction	-11.9194
▁Greaves	-11.9198
▁1980)	-11.9199
▁tens	-11.92
ants	-11.9202
▁McCloskey	-11.9203
▁Reformation	-11.9206
▁map	-11.9206
▁Ultimate	-11.9208
▁1959)	-11.9208
ov	-11.9209
▁beneath	-11.9211
▁impracticable	-11.9211
▁multiplication	-11.9211
▁Federation	-11.9211
▁mischief	-11.9211
owner	-11.9213
here	-11.9214
▁phone	-11.9217
▁expansionary	-11.922
▁postal	-11.9223
▁Art	-11.9223
▁Houghton	-11.9226
[15]	-11.9228
▁murdered	-11.923
▁proletarians	-11.9234
▁hourly	-11.9236
▁shoulders	-11.9236
▁dynamics	-11.9236
▁1985.	-11.9236
▁lady	-11.9237
.[1]	-11.924
____.	-11.9241
▁Article	-11.9241
▁Silver	-11.9243
▁calm	-11.9246
▁Stabilization	-11.9248
▁interrupted	-11.925
▁1988.	-11.9252
▁rails	-11.9253
Bank	-11.9255
▁Mediterranean	-11.9255
Der	-11.9256
Federal	-11.9258
▁respecting	-11.9261
▁57	-11.9261
▁deficiencies	-11.9262
▁dress	-11.9263
▁ripe	-11.9263
▁whites	-11.9266
▁irony	-11.9267
air	-11.9269
▁88	-11.927
▁Winston	-11.9271
▁naked	-11.9273
▁females	-11.9274
▁freeze	-11.9275
▁lowers	-11.9278
▁sins	-11.9281
▁revert	-11.9281
▁pertinent	-11.9282
▁delegate	-11.9284
▁201	-11.9285
▁bus	-11.9286
▁appalling	-11.9286
▁transferring	-11.9287
▁161	-11.9287
▁accomplishment	-11.9288
Can	-11.929
▁delighted	-11.9291
chief	-11.9295
▁blocked	-11.9296
▁burn	-11.9296
▁extravagant	-11.9297
▁anonymous	-11.9297
▁106	-11.9297
▁purchaser	-11.9305
▁temper	-11.9307
因為	-11.9307
▁constructing	-11.9308
▁1962.	-11.9311
▁accelerating	-11.9312
▁64	-11.9314
▁flaws	-11.9314
ec	-11.9316
▁reproach	-11.9317
▁Ha	-11.9318
▁premiums	-11.9318
len	-11.9319
▁traditionally	-11.932
▁Antifederal	-11.9321
▁misunderstood	-11.9323
▁defy	-11.9323
▁omitted	-11.9324
▁discarded	-11.9327
pa	-11.9327
▁contends	-11.9328
▁realizes	-11.9331
states	-11.9334
▁similarity	-11.9335
▁willingly	-11.9336
▁138	-11.9336
▁radicalism	-11.9336
▁islands	-11.9338
▁Mifflin	-11.9338
▁59	-11.9338
ag	-11.934
▁lo	-11.934
▁Ta	-11.9342
Communist	-11.9343
ich	-11.9344
▁Following	-11.9345
▁mania	-11.9348
▁blockade	-11.9358
▁drama	-11.9361
▁barbarism	-11.9361
▁skepticism	-11.9361
▁bars	-11.9362
▁dispersed	-11.9362
▁excited	-11.9363
▁inventory	-11.9364
▁admired	-11.9364
▁modifications	-11.9366
▁planters	-11.9368
▁Am	-11.9371
ised	-11.9372
▁manifestly	-11.9372
▁1939)	-11.9374
▁rice	-11.9377
7,	-11.9378
Therefore	-11.9378
Without	-11.9379
▁Wiley	-11.9386
.26	-11.9393
▁1989.	-11.9394
▁1984)	-11.9398
sum	-11.9399
▁coup	-11.94
▁citizenry	-11.9401
▁174	-11.9404
▁stresses	-11.9405
▁Wars	-11.9405
▁Goethe	-11.9406
▁commissions	-11.9407
▁promotes	-11.941
▁185	-11.9411
▁albeit	-11.9414
▁rightful	-11.9417
ee	-11.9422
▁1970.	-11.9423
▁micro	-11.9425
▁sinister	-11.9425
▁Italians	-11.9427
unit	-11.9427
ita	-11.943
▁perpetuate	-11.9434
▁Religion	-11.9436
▁damaging	-11.9437
▁victories	-11.9437
▁patronage	-11.9437
▁Light	-11.9437
▁pact	-11.9438
▁stuck	-11.9438
▁Loan	-11.9438
▁101	-11.9438
▁Chronicle	-11.9439
▁lists	-11.9443
▁mortal	-11.9449
▁homesteading	-11.945
▁1913,	-11.945
▁mal	-11.945
▁1945.	-11.9453
▁Consumers	-11.9455
▁Roy	-11.9456
Indianapolis	-11.9456
▁tyrannical	-11.9456
▁withheld	-11.9457
▁hereditary	-11.9457
Each	-11.9458
mentioned	-11.9458
▁1967.	-11.9459
▁129	-11.9461
▁98	-11.9462
▁treason	-11.9465
▁appealed	-11.9466
▁egoism	-11.9467
▁progressing	-11.9467
uck	-11.9471
▁waves	-11.9472
▁load	-11.9473
▁roles	-11.9474
▁scholastic	-11.9474
▁combining	-11.9475
▁unsatisfied	-11.9475
▁bishops	-11.9476
▁beaten	-11.9477
▁predecessor	-11.9478
▁acceleration	-11.9481
▁ARET	-11.9482
▁1894	-11.9483
▁opera	-11.9485
▁Grant	-11.9486
▁justifiable	-11.9489
▁arrives	-11.949
balance	-11.9491
▁attending	-11.9492
▁Webster	-11.9494
Munich	-11.9496
▁Machiavelli	-11.9496
▁shouldn	-11.9498
▁expend	-11.95
▁Near	-11.9501
▁Baruch	-11.9502
▁quoting	-11.9502
▁impersonal	-11.9505
▁107	-11.9508
▁128	-11.9508
▁Zeitschrift	-11.951
▁abandoning	-11.951
▁Jena	-11.9511
▁moderation	-11.9511
▁cultivate	-11.9512
▁contents	-11.9513
▁energetic	-11.9513
▁metaphysics	-11.9514
▁1776	-11.9515
▁undue	-11.9515
▁invite	-11.9516
ide	-11.9516
▁Above	-11.9516
▁undertook	-11.9516
▁misfortune	-11.9516
▁nonmonetary	-11.9518
▁Next	-11.9518
▁Hermann	-11.9521
工	-11.9522
▁tin	-11.9522
Part	-11.9527
headed	-11.9527
▁1987.	-11.9529
▁Productivity	-11.9535
produced	-11.9536
knowledge	-11.9537
.27	-11.9537
▁heading	-11.954
▁detriment	-11.954
▁announce	-11.954
des	-11.9541
dans	-11.9542
▁poll	-11.9548
▁courageous	-11.9549
▁Colonies	-11.9552
▁storage	-11.9552
▁sustenance	-11.9552
▁Renaissance	-11.9552
▁averaged	-11.9552
▁Speaker	-11.9552
▁pensions	-11.9552
▁worthwhile	-11.9554
▁Gabriel	-11.9555
▁Protestants	-11.9556
▁1925.	-11.9556
ris	-11.9557
▁Pp	-11.9558
▁exporters	-11.9558
▁measurable	-11.9559
▁exhibited	-11.956
▁171	-11.956
▁1944.	-11.9562
8,	-11.9567
▁privacy	-11.9567
▁1973	-11.9569
▁extensively	-11.957
▁Nonetheless	-11.9571
gar	-11.9573
▁generosity	-11.9579
▁fabric	-11.958
▁136	-11.9584
▁invade	-11.9584
▁Specifically	-11.9585
▁posts	-11.9585
▁hide	-11.9588
▁valor	-11.9589
▁Founding	-11.9591
▁conjunction	-11.9591
▁strata	-11.9591
▁vulnerable	-11.9591
▁accumulating	-11.9591
▁emphasizing	-11.9591
▁Proceedings	-11.9591
▁criticizing	-11.9591
▁macroeconomics	-11.9592
▁comprised	-11.9593
▁swiftly	-11.9594
▁inconvenience	-11.9601
▁221	-11.9602
▁charitable	-11.9604
▁Too	-11.9605
▁Lexington	-11.9605
▁walking	-11.9606
▁anticipating	-11.9608
▁uneconomic	-11.9609
▁Hutchinson	-11.961
▁symbols	-11.9612
▁104	-11.9612
▁110	-11.9616
Freedom	-11.9617
▁interfering	-11.9617
▁wrought	-11.9617
▁Sidney	-11.9619
tre	-11.962
▁1972)	-11.9625
▁mitigate	-11.9626
▁ride	-11.9626
▁determinism	-11.963
▁Agreement	-11.9633
▁196	-11.9636
▁inconsistency	-11.9642
▁1973)	-11.9643
▁1981	-11.9644
▁Adolf	-11.9645
▁Heinrich	-11.9645
▁86	-11.9645
▁planet	-11.9645
▁reprint	-11.9646
這個	-11.9648
▁1951)	-11.9649
▁incompetent	-11.9649
▁overproduction	-11.965
▁inverse	-11.9651
▁unconditional	-11.9651
▁Fascist	-11.9652
▁tear	-11.9652
▁reckon	-11.9656
consuming	-11.9657
Richard	-11.9657
breaking	-11.9658
▁commitments	-11.9659
water	-11.9662
tal	-11.9663
▁unlawful	-11.9665
▁ut	-11.9665
▁pet	-11.9667
▁spectrum	-11.9668
▁starving	-11.9668
▁historicism	-11.967
▁furnishes	-11.9672
▁hospital	-11.9672
▁arbitrariness	-11.9672
ari	-11.9674
▁twofold	-11.9676
ott	-11.9677
▁Tariff	-11.9678
every	-11.9678
▁Stigler	-11.9681
▁assertions	-11.9681
▁vaguely	-11.9683
▁Pan	-11.9683
▁114	-11.9683
▁assigns	-11.9685
▁prophet	-11.9685
20.	-11.9686
▁1990)	-11.9686
▁1918,	-11.9688
▁gang	-11.969
▁Fortunately	-11.9692
▁miners	-11.9693
▁Means	-11.9694
▁priest	-11.9695
objective	-11.9695
▁Appendix	-11.9697
II	-11.9697
Business	-11.9698
Thomas	-11.9698
Much	-11.9699
▁bow	-11.97
▁egoistic	-11.97
did	-11.9705
▁Bruce	-11.9705
▁introduces	-11.9707
▁civic	-11.9707
▁devil	-11.9709
▁mood	-11.9711
▁outlawing	-11.9716
▁delicate	-11.9716
▁impartial	-11.9717
▁importing	-11.9719
▁181	-11.972
▁12.	-11.9721
▁driver	-11.9722
▁tyrants	-11.9723
▁Causes	-11.9725
▁Fall	-11.9725
▁Deutsche	-11.9729
▁reviewed	-11.9729
itz	-11.9732
nine	-11.9736
▁Friday	-11.9736
▁occasioned	-11.9737
▁1981.	-11.9738
18.	-11.9739
Say	-11.9745
▁thoughtful	-11.9746
▁deviations	-11.9746
▁Program	-11.9746
▁gratitude	-11.9747
▁imitation	-11.9747
▁severity	-11.9747
▁societal	-11.9747
▁relies	-11.9747
▁Farm	-11.9748
▁enduring	-11.9748
▁Secret	-11.9749
▁Earth	-11.9749
▁1972	-11.9751
▁fl	-11.9752
▁launch	-11.9758
▁Probably	-11.9764
▁acquaintance	-11.9765
left	-11.977
▁Rhodes	-11.9771
▁disguised	-11.9772
▁Conceived	-11.9772
▁Warburg	-11.9773
going	-11.9775
▁143	-11.9775
16.	-11.9776
.[3]	-11.9779
▁casual	-11.9782
▁ominous	-11.9782
ding	-11.9784
aw	-11.9785
▁unnatural	-11.9785
▁emotion	-11.9786
▁Rich	-11.9788
▁embodiment	-11.979
▁Lutheran	-11.9792
inflationary	-11.9792
▁herd	-11.9792
▁weakening	-11.9797
▁constitutions	-11.9798
▁humble	-11.9798
▁relativism	-11.9802
▁realism	-11.9803
▁disrupt	-11.9804
▁variant	-11.9807
▁participant	-11.9817
▁Legislation	-11.982
Madrid	-11.982
dominated	-11.9821
▁workman	-11.9821
emphasis	-11.9821
▁scientifically	-11.9821
▁fled	-11.9822
Instead	-11.9823
▁Academic	-11.9823
▁Lectures	-11.9824
▁servitude	-11.9825
ret	-11.9826
▁harassment	-11.9826
▁provoke	-11.9827
▁parental	-11.9827
ical	-11.9828
▁attendant	-11.9828
▁missed	-11.983
▁sister	-11.9832
▁bloody	-11.9834
▁executives	-11.9834
▁Pol	-11.9837
.50	-11.9837
[16]	-11.9839
▁189	-11.984
▁nationalistic	-11.9844
▁Rudolf	-11.9844
▁Quantity	-11.9845
▁heir	-11.9849
▁$9	-11.9851
▁Jonson	-11.9851
slehre	-11.9854
▁Murphy	-11.9855
▁cool	-11.9855
lar	-11.9856
ki	-11.9856
▁compound	-11.9857
▁understands	-11.9859
▁monopolists	-11.986
▁cons	-11.986
▁Tooke	-11.9861
▁1964,	-11.9862
▁suspicious	-11.9862
▁livelihood	-11.9865
▁buried	-11.9865
▁sorry	-11.9865
▁transmitted	-11.9867
▁priced	-11.9867
▁shooting	-11.9871
▁outgrowth	-11.9871
Toward	-11.9872
▁edge	-11.9873
▁68	-11.9874
▁1819	-11.9879
▁ears	-11.9884
▁affords	-11.9885
▁designs	-11.9887
▁hell	-11.9888
▁supposition	-11.9888
▁supposing	-11.9891
▁Back	-11.9892
▁processing	-11.9897
perfect	-11.9898
其	-11.9899
▁1:	-11.9904
▁Collect	-11.9904
▁Rochelle	-11.9905
▁behaviour	-11.9905
▁thief	-11.9905
▁adversaries	-11.9905
▁preoccupation	-11.9905
▁prone	-11.9907
▁repudiated	-11.9907
▁Ga	-11.9907
▁dissolved	-11.9908
▁campaigns	-11.991
▁enactment	-11.9911
▁lust	-11.9914
▁deception	-11.9914
▁expecting	-11.9914
tz	-11.9915
▁questioning	-11.9916
▁77	-11.9917
▁Concept	-11.9918
▁administer	-11.992
▁93	-11.9922
▁noise	-11.9924
▁incidental	-11.9925
▁Poles	-11.9927
iron	-11.9927
▁abnormal	-11.9928
sighted	-11.9936
▁ha	-11.9937
▁torture	-11.9942
▁unwise	-11.9942
.29	-11.9943
▁intricate	-11.9945
Peter	-11.9946
▁impoverished	-11.9947
▁prudent	-11.9951
▁factual	-11.9951
▁implemented	-11.9951
▁veteran	-11.9951
▁labeled	-11.9955
Price	-11.9956
▁organisation	-11.9956
▁sir	-11.9962
▁brilliantly	-11.9963
▁1949.	-11.9963
▁faction	-11.9968
▁fairness	-11.9969
bust	-11.9969
▁1955	-11.9969
▁meddling	-11.9969
▁equitable	-11.9971
▁Saving	-11.9971
▁consolidation	-11.9972
▁Ko	-11.9972
▁1948.	-11.9972
▁entrenched	-11.9972
▁ranging	-11.9973
capitalistic	-11.9976
ought	-11.998
ev	-11.998
▁Tracy	-11.9985
▁attributable	-11.9985
▁firing	-11.9985
▁Ltd	-11.9985
▁Pitt	-11.9986
▁127	-11.9987
Over	-11.9987
3;	-11.9988
South	-11.9988
▁Walrasian	-11.9988
▁balancing	-11.9989
▁Spirit	-11.9991
▁divergence	-11.9992
▁focuses	-11.9993
▁gr	-11.9993
▁squarely	-11.9993
,000,000,000	-11.9993
paying	-11.9994
▁Unit	-11.9995
▁designate	-11.9998
White	-11.9998
3–4	-11.9998
▁unthinkable	-11.9999
。(	-12.0002
▁lucky	-12.0006
▁cripple	-12.0007
▁1968.	-12.001
▁congestion	-12.0011
▁henceforth	-12.0011
▁Dec	-12.0013
▁profess	-12.0015
▁excludes	-12.0019
▁1999	-12.0019
▁monarchical	-12.002
▁endanger	-12.0021
▁drafts	-12.0021
▁disguise	-12.0022
either	-12.0024
▁inequalities	-12.0025
▁liquidate	-12.0026
▁delight	-12.0027
▁14.	-12.0029
set	-12.0029
▁1780	-12.0029
▁entertained	-12.0029
▁illness	-12.003
▁exportation	-12.0033
▁interfered	-12.0039
▁$50	-12.004
▁Plymouth	-12.0042
politik	-12.0045
▁periodic	-12.0048
▁183	-12.0049
▁pose	-12.0049
▁Generally	-12.0051
▁exhaust	-12.0055
▁relying	-12.0055
Co	-12.0058
▁1963	-12.0061
▁2000	-12.0061
▁fierce	-12.0062
revolution	-12.0063
▁Hobbes	-12.0065
▁treasure	-12.0065
▁depreciating	-12.0066
▁intimidation	-12.0066
▁extravagance	-12.0066
▁1819,	-12.0068
▁187	-12.007
▁hungry	-12.007
▁1982.	-12.0071
▁1815	-12.0073
▁cable	-12.0073
Catholic	-12.0073
▁copyright	-12.0074
▁Beyond	-12.0074
▁141	-12.0075
▁mix	-12.0077
▁hasten	-12.0078
▁1950)	-12.0079
▁prudence	-12.0085
▁tenant	-12.0087
▁generating	-12.0087
▁Cross	-12.0088
▁apologists	-12.0091
▁Ernest	-12.0094
▁1912,	-12.0097
▁critically	-12.0097
▁Estate	-12.01
▁appropriately	-12.01
International	-12.0101
▁Lo	-12.0102
▁210	-12.0104
▁financially	-12.0106
▁losers	-12.0108
▁nearest	-12.011
Political	-12.0111
▁directs	-12.0111
▁169	-12.0113
▁Salamanca	-12.0113
Lesson	-12.0114
▁facilitated	-12.0114
Hungary	-12.0114
▁embarrassment	-12.0114
Take	-12.0114
▁synthesis	-12.0123
▁Small	-12.0123
▁Cairnes	-12.0125
▁organisms	-12.0127
▁1966.	-12.0129
▁informal	-12.0129
▁coupons	-12.013
▁177	-12.0131
▁Self	-12.0133
▁belligerent	-12.0135
▁bail	-12.0137
▁paragraphs	-12.0139
sense	-12.0141
▁shaped	-12.0141
▁unsold	-12.0148
▁bookkeeping	-12.0149
▁commonplace	-12.0149
competitive	-12.0152
▁1960)	-12.0153
ric	-12.0153
▁weighed	-12.0153
▁supplemented	-12.0154
▁narrative	-12.0155
▁proclamation	-12.0155
▁reckoning	-12.0155
▁Baker	-12.0157
ó	-12.0157
Right	-12.0157
Given	-12.0158
▁102	-12.0159
▁Jim	-12.016
▁mobilization	-12.0162
▁Higgs	-12.0164
central	-12.0165
▁1924.	-12.0165
▁Jeffrey	-12.0165
nes	-12.017
▁pragmatic	-12.0172
▁Often	-12.0173
.32	-12.0174
▁clamor	-12.0174
▁resign	-12.0174
▁Working	-12.0175
▁van	-12.0179
▁Florence	-12.0179
▁Laissez	-12.0181
▁Record	-12.0182
▁alterations	-12.0182
▁cancel	-12.0183
▁pipe	-12.0185
▁illustrations	-12.0185
▁intercepts	-12.0186
▁Garden	-12.0186
▁incumbent	-12.0188
▁penetrating	-12.0188
personal	-12.0189
▁Godwin	-12.0189
ou	-12.0189
▁Kohler	-12.0189
▁Aaron	-12.0191
▁precipitate	-12.0193
▁guy	-12.0197
▁pessimistic	-12.02
something	-12.02
▁attendance	-12.0201
家	-12.0203
▁advise	-12.0206
▁Hudson	-12.0208
iz	-12.0222
big	-12.0222
▁Bre	-12.0223
.[4]	-12.0228
▁Enoch	-12.0229
▁polls	-12.0229
▁Dictionary	-12.023
▁antagonistic	-12.0231
Entrepreneurship	-12.0231
▁beef	-12.0231
▁counteract	-12.0235
▁skeptical	-12.0235
▁void	-12.0235
▁intimately	-12.0236
▁graduated	-12.0237
▁unusually	-12.0239
Third	-12.0239
▁exemption	-12.0239
▁rushed	-12.0239
put	-12.024
neutral	-12.0241
economy	-12.0242
productivity	-12.0242
▁monetarists	-12.0244
▁Kaiser	-12.0246
▁honestly	-12.0246
▁owning	-12.0246
▁imputed	-12.025
▁successes	-12.0254
▁resident	-12.0254
AT	-12.0258
▁dread	-12.0261
▁wheel	-12.0262
▁landowner	-12.0265
▁protectionists	-12.0266
▁eloquent	-12.0267
▁eve	-12.027
▁vigor	-12.0271
▁creativity	-12.0271
▁lucrative	-12.0271
▁patience	-12.0271
elle	-12.0271
▁Icelandic	-12.0272
▁1946.	-12.0272
▁speculate	-12.0276
▁politico	-12.0276
▁fluctuate	-12.0276
▁Hungarian	-12.0277
▁Doctrine	-12.028
▁dust	-12.0283
▁216	-12.0284
▁Colorado	-12.0284
producing	-12.0286
could	-12.0286
▁discounting	-12.0288
▁converting	-12.0292
▁cell	-12.0294
imposed	-12.0298
▁wares	-12.0299
▁switch	-12.0299
▁Large	-12.03
mm	-12.03
▁235	-12.03
▁186	-12.0302
▁corrective	-12.0307
▁wretched	-12.0308
▁administrators	-12.0309
▁gravity	-12.0312
▁electorate	-12.0313
html	-12.0313
▁symptoms	-12.0313
▁Sa	-12.0314
▁dominating	-12.0316
▁Conversely	-12.0317
port	-12.0318
▁evolve	-12.0318
▁prop	-12.0318
▁217	-12.032
▁1963,	-12.032
▁1963.	-12.0322
▁Turner	-12.0325
Salerno	-12.0329
Marshall	-12.0329
ideal	-12.0329
▁Carnegie	-12.0331
▁coat	-12.0331
seven	-12.0332
Adam	-12.0333
▁Already	-12.0336
iter	-12.0345
▁Strauss	-12.0346
▁magazines	-12.0347
▁precepts	-12.0348
▁discontent	-12.0349
▁coerce	-12.0351
▁Athens	-12.0352
rat	-12.0352
▁fertility	-12.0354
▁insoluble	-12.0354
▁unforeseen	-12.0354
▁constancy	-12.0354
▁impelled	-12.0354
▁opens	-12.0354
▁229	-12.0355
tur	-12.0355
▁originating	-12.0355
▁Could	-12.0357
▁13.	-12.0358
▁Grey	-12.0359
ates	-12.0359
▁concomitant	-12.036
▁undergo	-12.0361
▁participated	-12.0362
▁mandate	-12.0365
▁Knopf	-12.0365
▁remunerative	-12.0365
▁alliances	-12.0367
▁Origin	-12.0372
Leipzig	-12.0372
Charles	-12.0372
▁Chiang	-12.0374
▁Englishman	-12.0376
▁rev	-12.0378
▁Catholicism	-12.0381
▁atomic	-12.0386
▁Six	-12.0387
▁1925,	-12.0388
▁223	-12.0389
ls	-12.039
▁agreeing	-12.0392
▁Ben	-12.0393
▁aesthetic	-12.0394
▁1920,	-12.0394
▁multiplicity	-12.0396
▁teeth	-12.0396
▁frightened	-12.0397
▁Andros	-12.0399
▁drops	-12.04
▁explored	-12.04
▁contra	-12.0402
▁inspire	-12.0402
▁detect	-12.0403
▁smoothly	-12.0403
▁obtainable	-12.0405
.28	-12.0405
▁Wilkes	-12.0409
▁foreigner	-12.041
mente	-12.0412
Friedman	-12.0416
group	-12.0416
▁denominations	-12.0419
▁Manufacturers	-12.0421
102	-12.0422
▁District	-12.043
▁economize	-12.0433
-17	-12.0434
▁accomplishments	-12.0437
sized	-12.0438
▁interplay	-12.0439
▁despised	-12.044
▁Presidential	-12.0442
ning	-12.0445
▁garden	-12.0449
▁breath	-12.0453
▁1969.	-12.0455
▁Weimar	-12.0456
▁virtuous	-12.0457
cul	-12.0457
▁swing	-12.0457
▁Stamp	-12.0464
▁76	-12.0465
▁Colonial	-12.0465
▁jump	-12.0469
▁stones	-12.047
ois	-12.0473
▁senseless	-12.0477
他們	-12.0477
▁Gilbert	-12.0478
▁disarmament	-12.048
▁ugly	-12.048
▁commanded	-12.0481
▁interdependence	-12.0481
ties	-12.0481
▁factions	-12.0484
▁religions	-12.0484
▁momentary	-12.0485
▁Dean	-12.0486
▁15.	-12.0486
▁texts	-12.0489
▁1958	-12.0489
▁warranted	-12.0489
▁weighing	-12.0489
▁incur	-12.049
▁horizon	-12.049
ade	-12.0496
▁Scientific	-12.0499
▁dwelling	-12.0501
▁violently	-12.0504
policy	-12.0504
▁crazy	-12.0504
▁dialectic	-12.0504
▁discourse	-12.0507
▁Aristotelian	-12.0509
▁Vi	-12.0509
▁Eventually	-12.0509
▁incorporate	-12.051
▁Christopher	-12.0511
▁commentators	-12.0512
▁23.	-12.0513
[17]	-12.0515
▁Address	-12.0517
▁1992.	-12.0519
▁columns	-12.052
▁Agricultural	-12.052
▁Mac	-12.052
▁plate	-12.0521
mus	-12.0522
▁diversion	-12.0523
▁eagerness	-12.0529
mark	-12.0529
▁debased	-12.0532
▁politique	-12.0533
▁1934)	-12.0538
equality	-12.0542
▁compels	-12.0544
▁1979.	-12.0544
▁lately	-12.0545
0,	-12.0546
hy	-12.0547
▁saves	-12.055
▁loot	-12.0552
Does	-12.0552
▁Special	-12.0552
▁1914.	-12.0555
▁aggressors	-12.0557
▁225	-12.0564
▁deficient	-12.0565
▁futility	-12.0566
▁paramount	-12.0566
▁enjoyments	-12.0569
using	-12.0569
▁prevention	-12.0571
▁concerted	-12.0571
▁Upon	-12.0573
▁seas	-12.0574
une	-12.0575
▁apprehension	-12.0576
▁Hand	-12.0576
▁impost	-12.0577
▁composite	-12.0578
▁strengthening	-12.0579
▁1945)	-12.0582
▁Cal	-12.0585
▁Resources	-12.0586
▁superstition	-12.0586
▁AL	-12.0588
▁Newsweek	-12.0589
▁ranking	-12.059
▁wishing	-12.0592
▁152	-12.0595
Germany	-12.0598
▁reformer	-12.0601
▁hospitals	-12.0603
▁anticipations	-12.0604
▁dishonest	-12.0606
ane	-12.0607
▁ministry	-12.0608
▁strife	-12.0608
▁daring	-12.0608
▁Contemporary	-12.0609
▁convicted	-12.0609
▁Story	-12.0609
▁curtailment	-12.061
▁1952.	-12.0611
▁darkness	-12.0611
▁flawed	-12.0616
價	-12.0618
▁segment	-12.062
▁prescription	-12.062
fund	-12.062
light	-12.0622
▁divorce	-12.0623
▁Thompson	-12.0623
▁112	-12.0625
▁193	-12.0626
▁pietists	-12.0629
▁persuasive	-12.0629
uch	-12.0629
▁Mer	-12.0633
▁revenge	-12.0634
▁Protestantism	-12.0636
▁Stability	-12.0637
▁Guild	-12.0638
▁monarchs	-12.0638
ack	-12.0639
sche	-12.064
burg	-12.064
▁Pont	-12.0642
▁1998)	-12.0645
▁1912	-12.0646
▁discredited	-12.0646
▁Honor	-12.0647
.30	-12.0648
cal	-12.0649
▁Avenue	-12.0651
▁Sch	-12.0651
▁1789	-12.0652
▁invoked	-12.0653
▁warn	-12.0654
▁ironic	-12.0655
▁89	-12.0657
▁flowed	-12.0657
▁hoards	-12.0659
era	-12.066
▁answering	-12.0661
▁vessel	-12.0663
▁Lew	-12.0666
▁purity	-12.0667
jo	-12.0668
ks	-12.0668
▁planner	-12.0668
▁Cincinnati	-12.0671
▁1994.	-12.0673
▁Mills	-12.0673
act	-12.0676
▁publishers	-12.0677
▁1956)	-12.0678
▁Brussels	-12.0679
▁auto	-12.0679
▁contrived	-12.068
▁dies	-12.0681
▁consumes	-12.0682
▁authentic	-12.0683
▁1955)	-12.0683
▁1984.	-12.0685
▁222	-12.0687
7;	-12.0688
▁retire	-12.069
▁myths	-12.0691
▁antiquity	-12.0694
▁exciting	-12.0694
▁solvency	-12.0694
▁unfavourable	-12.0694
▁builds	-12.0694
▁inquiries	-12.0694
▁competence	-12.0694
▁justifies	-12.0695
▁207	-12.0696
▁Su	-12.0697
▁compact	-12.0698
▁starve	-12.0699
▁sweet	-12.0699
▁Barry	-12.07
▁natives	-12.0703
▁invasions	-12.0704
▁lifelong	-12.0704
▁connexion	-12.0706
[18]	-12.0707
▁players	-12.0708
▁eligible	-12.0709
▁arena	-12.071
▁receivers	-12.0711
ned	-12.0712
▁authoritative	-12.0722
▁1944)	-12.0724
▁Five	-12.0724
▁restricts	-12.0725
▁Bishop	-12.0725
▁Anne	-12.0728
▁1966,	-12.0728
▁fearful	-12.0729
correct	-12.0729
▁synthetic	-12.0731
_______________	-12.0731
▁conclusive	-12.0734
▁yard	-12.0736
▁Majesty	-12.0737
▁Rebellion	-12.0737
▁benevolence	-12.0737
▁doubling	-12.0737
▁nervous	-12.0737
▁secrecy	-12.0737
▁deputy	-12.0737
▁cement	-12.0738
▁BUS	-12.0739
rule	-12.0742
▁rigorously	-12.0745
▁inadequacy	-12.0746
▁curtailed	-12.0746
▁package	-12.0747
▁deduce	-12.0748
▁Englishmen	-12.0749
▁maker	-12.0749
▁gesture	-12.075
▁appetite	-12.075
▁determinant	-12.075
▁finger	-12.075
▁minting	-12.0751
▁blessing	-12.0752
▁1983.	-12.0755
▁pile	-12.0759
▁residual	-12.076
▁manipulated	-12.0761
▁incidence	-12.0762
▁powerless	-12.0763
▁coercively	-12.0764
-5	-12.0766
▁cared	-12.0768
▁stored	-12.0768
▁Current	-12.0769
▁meets	-12.0771
▁191	-12.0772
05	-12.0773
ei	-12.0774
▁literal	-12.0777
▁Payments	-12.078
▁guise	-12.0781
▁motto	-12.0781
▁entertainment	-12.0782
▁157	-12.0782
▁211	-12.0783
▁contrasting	-12.0785
▁1995.	-12.0786
▁tune	-12.0792
▁indictment	-12.0793
▁underdeveloped	-12.0795
▁Consequences	-12.0795
▁Harriman	-12.0798
商品	-12.0799
17.	-12.08
▁Mint	-12.08
▁1974.	-12.0802
....”	-12.0803
▁Except	-12.081
▁stressing	-12.0812
▁pursuits	-12.0812
▁Raico	-12.0813
▁Hülsmann	-12.0813
▁republics	-12.0814
▁Interventionism	-12.0815
▁marry	-12.0817
Further	-12.0817
▁constructions	-12.0818
paper	-12.0818
▁Utopian	-12.082
▁misrepresent	-12.0821
▁245	-12.0821
▁feeble	-12.0823
▁inexorable	-12.0824
AL	-12.0825
1;	-12.0826
▁sympathies	-12.0826
▁cares	-12.0828
▁Ar	-12.0828
▁internationally	-12.0828
▁malinvestments	-12.0829
▁unitary	-12.0832
Winds	-12.0832
▁struggling	-12.0832
ending	-12.0836
▁prosecution	-12.0837
▁lift	-12.0838
▁1865	-12.0842
▁McCulloch	-12.0849
▁senators	-12.0851
▁Master	-12.0853
.”5	-12.0856
▁1946),	-12.0857
▁Conservatism	-12.086
▁Henderson	-12.086
▁shell	-12.0862
▁needful	-12.0863
▁magistrates	-12.0863
English	-12.0863
Japanese	-12.0863
▁1965.	-12.0864
▁aggravate	-12.0865
▁clearings	-12.0865
▁Attorney	-12.0868
▁hysteria	-12.0868
▁cessation	-12.0868
▁excluding	-12.0869
▁technologies	-12.0871
▁weaknesses	-12.0873
▁truck	-12.0875
▁reasoned	-12.0875
liche	-12.0876
▁investigated	-12.0876
▁spur	-12.0879
0.	-12.0879
▁pretended	-12.088
▁crowded	-12.0882
▁client	-12.0882
Men	-12.0884
▁168	-12.0884
▁retailers	-12.0888
existing	-12.0894
▁extremes	-12.0894
▁Group	-12.0898
▁faults	-12.0899
▁discredit	-12.0899
▁register	-12.0903
▁Unions	-12.0904
▁miss	-12.0906
▁(3	-12.0907
short	-12.0908
Joseph	-12.0909
▁focusing	-12.091
room	-12.091
▁Baron	-12.091
Driscoll	-12.0912
▁Serfdom	-12.0912
▁hoping	-12.0912
▁moon	-12.0912
▁indices	-12.0912
▁regimentation	-12.0912
▁Trans	-12.0913
▁assassination	-12.0913
▁abide	-12.0916
▁248	-12.0918
mes	-12.0918
▁rigidly	-12.0926
▁Scholar	-12.0926
▁slogans	-12.0926
▁hang	-12.0928
▁affection	-12.0929
▁necessaries	-12.093
▁craft	-12.0932
▁adopts	-12.0934
enthusiastically	-12.0934
▁215	-12.0937
▁impel	-12.0938
▁1972.	-12.0938
▁1991.	-12.0941
▁179	-12.0941
▁Dollar	-12.0946
▁swift	-12.0952
▁alleviate	-12.0953
aggression	-12.0953
En	-12.0953
▁academics	-12.0954
David	-12.0955
▁1941)	-12.0955
Whatever	-12.0957
▁elevated	-12.0958
▁seizing	-12.0959
.”6	-12.0959
▁paths	-12.0959
▁brush	-12.0961
101	-12.0963
▁warring	-12.0967
▁197	-12.0967
▁ills	-12.097
▁approximation	-12.0971
▁riding	-12.0975
▁Railway	-12.0976
▁Hamburg	-12.0976
▁syndicalism	-12.0978
▁streams	-12.0978
▁wondered	-12.098
▁diseases	-12.0985
▁contractors	-12.0989
▁Leon	-12.0991
▁throws	-12.0997
▁Gr	-12.0998
▁routes	-12.1001
comparably	-12.1001
▁Alliance	-12.1001
▁calamity	-12.1001
▁irredeemable	-12.1001
▁pretense	-12.1001
▁variance	-12.1001
▁En	-12.1001
▁ridicule	-12.1002
▁198	-12.1003
▁Transaction	-12.1003
▁handsome	-12.1006
▁hazard	-12.1007
▁Welles	-12.1007
▁fits	-12.1007
▁Campbell	-12.1011
▁stealing	-12.1011
tis	-12.1012
.[5]	-12.1013
▁263	-12.1015
▁soundness	-12.1015
Will	-12.1016
▁correspondent	-12.1017
▁statists	-12.1019
Hutt	-12.1024
▁governs	-12.1027
▁Effects	-12.1027
▁1998	-12.1032
▁Philosophical	-12.1036
ient	-12.104
handed	-12.1041
▁Pe	-12.1042
▁congress	-12.1043
▁drivers	-12.1044
▁ob	-12.1044
▁Graham	-12.1045
▁speaker	-12.1045
▁McMeel	-12.1045
▁distributing	-12.1045
▁safekeeping	-12.1046
▁preferring	-12.1047
▁unification	-12.1047
▁computers	-12.1048
sacrifice	-12.1048
▁fuller	-12.1048
president	-12.1048
▁uncompromising	-12.1053
Los	-12.1055
▁constituents	-12.1056
▁224	-12.1057
apart	-12.1058
ación	-12.106
▁bag	-12.1061
q	-12.1061
▁guides	-12.1062
road	-12.1062
later	-12.1062
▁Rizzo	-12.1065
▁gospel	-12.1065
▁Securities	-12.1069
104	-12.1071
▁227	-12.1073
▁breed	-12.1074
▁ring	-12.1074
▁vitally	-12.1076
▁dire	-12.1076
▁Health	-12.1076
▁warlike	-12.1077
▁plague	-12.108
Con	-12.1081
▁marketability	-12.1082
▁Lutherans	-12.1085
品	-12.1089
▁1930.	-12.109
▁intelligible	-12.109
▁Harmony	-12.109
▁stipulated	-12.1092
▁234	-12.1092
▁envisioned	-12.1094
Throughout	-12.1094
▁awarded	-12.1095
▁flourished	-12.1097
▁undertaker	-12.1099
vers	-12.1111
▁1974	-12.1112
▁Countries	-12.1118
106	-12.1119
▁grim	-12.1122
▁populations	-12.1125
▁Budget	-12.1125
▁impart	-12.1128
▁1951.	-12.1129
▁shocks	-12.1131
▁reproduce	-12.1132
▁1961)	-12.1134
▁licensing	-12.1135
▁cooperating	-12.1136
▁inaugurated	-12.1137
▁236	-12.1141
▁Felix	-12.1142
.”7	-12.1142
▁warrants	-12.1143
▁classify	-12.1144
rick	-12.1145
▁perpetually	-12.1146
▁legalized	-12.1147
▁Po	-12.1148
▁257	-12.1148
▁occupies	-12.115
▁span	-12.1153
▁usher	-12.1155
▁vices	-12.116
RE	-12.1161
▁1976)	-12.1161
service	-12.1162
▁Nomura	-12.1163
▁principled	-12.1164
▁absorption	-12.1165
win	-12.1166
▁allocations	-12.1167
chi	-12.1167
▁Frankfurt	-12.1176
103	-12.1176
▁194	-12.1177
▁Kritik	-12.1178
▁Comment	-12.118
▁fever	-12.1181
▁empowered	-12.1181
1)	-12.1181
▁Radical	-12.1182
[19]	-12.1183
liness	-12.1185
▁uphold	-12.1185
liberals	-12.1185
mi	-12.1187
▁1963)	-12.1187
wages	-12.1189
▁materially	-12.1189
▁ration	-12.119
▁144	-12.1191
▁hail	-12.1193
▁Nationalism	-12.1195
▁web	-12.1196
▁sweep	-12.1197
▁disruption	-12.1198
▁edict	-12.1198
▁specialize	-12.1199
.[6]	-12.12
▁maladjustments	-12.1202
▁abstractions	-12.1203
▁1938)	-12.1203
▁confrontation	-12.1205
eminently	-12.1205
▁excessively	-12.1207
▁Bullitt	-12.1208
▁bids	-12.1208
▁1921,	-12.1209
▁Municipal	-12.121
▁Dickinson	-12.1214
▁aged	-12.1214
▁signify	-12.1218
▁1992	-12.1218
▁Chap	-12.1219
▁Miles	-12.122
▁21.	-12.1222
▁Sowell	-12.1225
▁replies	-12.1226
▁substantive	-12.1226
▁yardstick	-12.1226
▁Northwest	-12.1226
▁childhood	-12.1226
▁unjustified	-12.1226
▁philosophies	-12.1227
▁depicted	-12.1231
▁1969	-12.1232
▁1954.	-12.1232
operative	-12.1234
▁wealthier	-12.1236
▁utopia	-12.1237
▁$12	-12.124
▁augmented	-12.1241
▁j	-12.1241
▁betrayed	-12.1242
▁grandfather	-12.1243
▁Heaven	-12.1244
.31	-12.1245
▁overlooks	-12.1247
▁Ro	-12.1248
▁Winthrop	-12.1248
ill	-12.1249
▁Edwards	-12.125
ante	-12.1251
▁confiscate	-12.1252
▁expansionist	-12.1252
▁1898	-12.1253
▁repeating	-12.1254
existent	-12.1254
▁Ba	-12.1254
▁Von	-12.1255
▁sec	-12.1255
▁ear	-12.1256
▁scores	-12.1256
▁discern	-12.1258
▁Gould	-12.1261
▁Industries	-12.1264
+	-12.1265
▁bubbles	-12.1267
▁perceptive	-12.1269
problem	-12.1269
▁angle	-12.1269
▁Contrary	-12.1269
▁happier	-12.1272
▁identifies	-12.1272
▁Blanc	-12.1272
▁1985	-12.1272
▁Geldes	-12.1274
▁1786	-12.1275
▁noticeable	-12.1275
▁crippled	-12.1276
▁objectionable	-12.1276
▁Lesson	-12.128
▁plow	-12.128
▁rape	-12.1283
True	-12.1284
▁trait	-12.1285
▁reflections	-12.1285
▁garbage	-12.1286
▁diamond	-12.129
▁Portuguese	-12.129
▁ostensibly	-12.1294
▁instantaneous	-12.1296
lay	-12.1298
▁ver	-12.13
▁yours	-12.13
▁1895	-12.1302
▁poison	-12.1309
does	-12.1309
▁Edinburgh	-12.1309
▁247	-12.1311
ix	-12.1316
▁retrospect	-12.1317
▁degradation	-12.1318
▁grandiose	-12.1318
▁Duncker	-12.1318
▁transmission	-12.1318
▁appropriations	-12.1318
▁218	-12.1319
▁interferes	-12.1319
▁resignation	-12.132
▁123	-12.132
▁241	-12.1322
▁Charter	-12.1324
▁headquarters	-12.1325
▁Victor	-12.1327
▁Hilferding	-12.1328
▁heights	-12.1328
subjective	-12.1328
defined	-12.133
▁Collective	-12.133
23.	-12.1332
▁mergers	-12.1334
▁1952)	-12.1334
tri	-12.1335
▁assignment	-12.1336
▁senator	-12.1336
▁shippers	-12.1341
105	-12.1342
▁neighbour	-12.1343
▁pence	-12.1344
▁chartered	-12.1345
▁103	-12.1346
▁shed	-12.1346
▁146	-12.1349
▁Way	-12.135
▁projected	-12.1351
▁confers	-12.1353
▁Holmes	-12.1353
▁Parker	-12.1357
▁Prosperity	-12.1357
▁Slavery	-12.1357
▁passengers	-12.1361
stone	-12.1363
▁jargon	-12.1364
▁improbable	-12.1364
▁berries	-12.1364
▁grass	-12.1364
▁baker	-12.1365
liberalism	-12.1365
▁stepped	-12.1365
▁motivations	-12.1368
av	-12.1368
▁consulted	-12.137
▁simplified	-12.1373
▁184	-12.1374
▁reacted	-12.1375
▁injustices	-12.1375
▁requested	-12.1379
Kansas	-12.138
▁adventures	-12.1381
empirical	-12.1381
black	-12.1383
▁wearing	-12.1384
▁concedes	-12.1385
ute	-12.1386
▁Holt	-12.139
▁labels	-12.1391
▁cater	-12.1391
▁ordering	-12.1392
▁Emil	-12.1395
▁yoke	-12.1396
▁Sun	-12.1398
uit	-12.1399
gra	-12.1401
▁saver	-12.1402
▁1909	-12.1405
ah	-12.1406
▁perverse	-12.1408
▁Gottfried	-12.1409
▁Humblot	-12.141
▁descriptive	-12.141
▁spokesman	-12.141
▁bestowed	-12.1412
▁embarrassing	-12.1412
▁1997.	-12.1414
▁lifted	-12.1415
▁fitting	-12.1415
▁empiricist	-12.1416
▁ce	-12.1416
▁laboring	-12.1418
▁locked	-12.1422
▁conveniently	-12.1423
▁Skyscraper	-12.1425
▁annexation	-12.1425
▁fullest	-12.1426
▁aircraft	-12.1427
Buchanan	-12.1428
▁suppressing	-12.1429
provided	-12.143
▁Certain	-12.1431
Hawaiian	-12.1438
▁206	-12.1438
ste	-12.1439
▁Merchants	-12.1441
▁confines	-12.1443
▁Romans	-12.1444
▁Jew	-12.1445
▁misinterpret	-12.1445
▁defender	-12.1446
▁retains	-12.1448
▁fare	-12.1453
▁smile	-12.1455
zi	-12.1455
▁Kluwer	-12.1456
▁exposure	-12.1456
▁prominence	-12.1457
▁persistence	-12.1457
▁Bolshekov	-12.146
▁cows	-12.146
▁unconsciously	-12.1462
▁nationwide	-12.1463
▁MA	-12.1463
▁Individuals	-12.1464
ock	-12.1464
▁poets	-12.1465
▁listened	-12.1466
▁sinking	-12.1467
▁borrows	-12.1468
IC	-12.1469
▁ruinous	-12.1471
▁crossed	-12.1471
▁depreciate	-12.1472
▁cup	-12.1474
▁Longmans	-12.1475
▁telegraph	-12.1475
Lord	-12.1477
positive	-12.1478
▁fulfilling	-12.1478
Me	-12.1479
▁suffices	-12.1479
▁discovers	-12.1481
stitutionalized	-12.1488
▁humane	-12.1488
[21]	-12.149
▁1942)	-12.1492
cra	-12.1492
▁Napoleonic	-12.1494
ese	-12.1494
▁Paine	-12.1494
cio	-12.1495
107	-12.1498
▁injunction	-12.1498
ying	-12.15
▁Debate	-12.15
▁supporter	-12.1501
security	-12.1501
▁earnest	-12.1502
▁Nash	-12.1503
▁heresy	-12.1504
▁Czechs	-12.1507
cu	-12.1507
▁ongoing	-12.1508
▁sincerely	-12.1509
nce	-12.1509
▁manipulate	-12.151
▁Evening	-12.1511
▁213	-12.1512
▁beneficent	-12.1514
▁distorts	-12.1515
▁hoarded	-12.1516
▁Kendall	-12.1516
▁231	-12.1517
▁Policies	-12.1518
▁Suffolk	-12.1518
▁arouse	-12.1519
▁sand	-12.152
▁feeding	-12.1521
▁forgone	-12.1523
▁nominally	-12.1524
Ho	-12.1524
▁Schacht	-12.1524
foreign	-12.1525
Congress	-12.1526
▁interpreting	-12.1526
European	-12.1526
▁sects	-12.1527
▁commanding	-12.1528
▁List	-12.1529
▁Urban	-12.153
▁grab	-12.153
ibus	-12.1532
▁compensating	-12.1532
▁Ferdinand	-12.1533
fe	-12.1538
▁tenth	-12.1544
▁Period	-12.1545
▁Star	-12.1547
▁satisfies	-12.155
▁Midwestern	-12.155
▁bureaus	-12.1551
▁mortality	-12.1551
▁Fichte	-12.1551
[27]	-12.1551
▁clubs	-12.1552
▁blast	-12.1553
▁deed	-12.1554
▁“‘	-12.1555
▁spared	-12.1555
TH	-12.1556
lot	-12.1557
▁adhered	-12.1557
4–5	-12.1557
shop	-12.1558
▁administrations	-12.1559
▁Matthew	-12.1561
▁pioneers	-12.1561
▁outlays	-12.1561
▁Director	-12.1561
▁endeavour	-12.1565
▁refiners	-12.1566
issue	-12.1566
▁exile	-12.1567
Your	-12.1567
ción	-12.1571
▁Intelligence	-12.1571
▁strangers	-12.1572
[20]	-12.1572
8;	-12.1573
Labor	-12.1575
▁seats	-12.1575
▁Pay	-12.1575
▁97	-12.1576
▁ambassadors	-12.1578
▁Imagine	-12.1579
▁mounting	-12.158
lie	-12.158
▁finish	-12.1585
▁sky	-12.1588
▁219	-12.1589
▁192	-12.159
bar	-12.1591
▁10.	-12.1592
▁outer	-12.1593
▁revive	-12.1594
characterization	-12.1595
.”8	-12.1596
▁veritable	-12.1597
▁1955.	-12.1598
▁unconditionally	-12.1602
▁league	-12.1603
▁ascertained	-12.1605
▁countryside	-12.1607
▁assisted	-12.1608
▁thirst	-12.1609
▁electors	-12.161
▁blunder	-12.161
▁233	-12.1611
▁relatives	-12.1612
ram	-12.1612
▁intentional	-12.1613
▁managements	-12.1614
▁1919.	-12.1618
▁Gerald	-12.1622
Private	-12.1623
Time	-12.1624
▁foe	-12.1624
language	-12.1624
Paul	-12.1624
▁1954,	-12.1625
period	-12.1626
▁147	-12.163
▁enrich	-12.1631
economics	-12.1632
▁aversion	-12.1634
▁deserved	-12.1634
▁loc	-12.1635
▁targets	-12.1637
▁intensify	-12.1637
▁phony	-12.1638
▁Reed	-12.164
▁Leo	-12.1641
rt	-12.1643
▁elucidation	-12.1645
▁levies	-12.1645
▁agio	-12.1645
▁Memorandum	-12.1646
▁citizenship	-12.1646
▁nonspecific	-12.1646
▁understandably	-12.1647
▁Conrad	-12.1648
bel	-12.165
.34	-12.165
▁undermined	-12.1651
▁inflict	-12.1652
▁persistently	-12.1652
▁acceptances	-12.1652
▁equilibrating	-12.1656
▁proclaiming	-12.1656
▁139	-12.1656
▁Calvinist	-12.166
4;	-12.1661
▁Taking	-12.1664
▁prisoner	-12.1665
▁sample	-12.1666
eu	-12.1666
▁stark	-12.1667
▁compares	-12.1667
▁defendant	-12.1668
atur	-12.1668
away	-12.1668
also	-12.167
▁credited	-12.167
▁wrongly	-12.1672
▁ordinal	-12.1672
special	-12.1672
▁communistic	-12.1673
些	-12.1677
working	-12.1677
▁Rothbardian	-12.1678
ibility	-12.1678
▁166	-12.1678
▁harmed	-12.168
▁Dan	-12.1683
▁certificate	-12.1683
▁Reisman	-12.1683
▁withhold	-12.1685
▁abortion	-12.1686
▁Historians	-12.1688
▁pause	-12.1689
Mill	-12.1689
.36	-12.1691
▁lottery	-12.1692
▁rampant	-12.1692
▁spiral	-12.1692
▁timing	-12.1692
▁Fluctuations	-12.1693
▁theorizing	-12.1693
▁groundwork	-12.1694
▁abused	-12.1695
make	-12.1697
▁Gesellschaft	-12.1697
eth	-12.1698
▁1962,	-12.1699
▁intervened	-12.17
▁Qd	-12.17
▁reviews	-12.1703
▁ambiguity	-12.1705
▁horrible	-12.1705
ray	-12.1706
▁shipments	-12.1707
▁reservations	-12.1707
▁thrive	-12.171
▁Ross	-12.171
▁restraining	-12.1711
▁denomination	-12.1711
▁Hancock	-12.1711
▁attachment	-12.1714
▁visiting	-12.1715
▁slip	-12.1715
▁ABCT	-12.1716
▁Isaac	-12.1717
discrimination	-12.1718
▁h	-12.1718
▁Argentina	-12.1719
bra	-12.172
white	-12.1721
▁guards	-12.1722
surplus	-12.1722
ux	-12.1722
▁sponsored	-12.1723
▁heed	-12.1723
military	-12.1724
▁amounting	-12.1726
▁267	-12.1726
▁2008	-12.1727
▁scandal	-12.1728
▁estimating	-12.1737
▁insolvent	-12.174
▁unchecked	-12.174
▁$500	-12.174
▁panel	-12.1741
▁brutality	-12.1741
▁differentiated	-12.1743
▁versions	-12.1743
fire	-12.1746
Source	-12.1746
▁fixes	-12.1746
▁carriers	-12.1748
▁impaired	-12.1748
▁explosion	-12.1749
▁onerous	-12.1751
▁rage	-12.1753
▁championed	-12.1754
.[9]	-12.1755
▁212	-12.1757
▁charters	-12.1757
RO	-12.1758
▁1950.	-12.1759
▁decisively	-12.176
▁moneta	-12.176
stein	-12.1761
▁gifted	-12.1761
▁Coolidge	-12.1761
▁biographer	-12.1762
eck	-12.1762
▁holy	-12.1762
▁mold	-12.1764
▁lively	-12.1764
▁comrades	-12.1766
▁Schneider	-12.1767
▁1940)	-12.1767
Comment	-12.1769
▁subjectively	-12.1769
▁Stein	-12.1772
Society	-12.1774
▁licenses	-12.1774
always	-12.1774
ms	-12.1775
.[7]	-12.1775
▁1986.	-12.1777
Lu	-12.1777
▁Chodorov	-12.1779
▁humor	-12.178
▁1828	-12.1782
▁discriminating	-12.1783
▁drag	-12.1785
▁devise	-12.1785
▁avowed	-12.1786
▁rhetorical	-12.1788
▁postponement	-12.1789
▁troublesome	-12.179
ser	-12.179
▁Ab	-12.1791
▁lease	-12.1791
▁intercepted	-12.1791
▁undervalued	-12.1793
▁collector	-12.1793
▁observable	-12.1799
tel	-12.18
▁splendid	-12.1802
▁Viennese	-12.1803
▁depict	-12.1804
▁Brooklyn	-12.1805
▁perishable	-12.1806
▁tanks	-12.181
▁109	-12.1811
▁wagon	-12.1811
▁Personal	-12.1811
▁traveling	-12.1812
▁educate	-12.1814
▁positivists	-12.1815
▁1950,	-12.1818
▁Bailey	-12.182
▁Julius	-12.182
▁theologians	-12.1822
Praxeology	-12.1822
▁202	-12.1827
▁sketch	-12.1828
▁acquiesce	-12.1833
▁incessant	-12.1833
▁habitual	-12.1833
▁scholastics	-12.1834
▁Loeb	-12.1834
.[8]	-12.1836
▁situated	-12.1837
▁Baltic	-12.1837
▁bribery	-12.1837
▁peasantry	-12.1837
▁intervening	-12.1837
▁bienes	-12.1838
06	-12.1838
▁Caesar	-12.1838
wa	-12.1839
ama	-12.1839
▁plunged	-12.184
▁possessor	-12.184
▁Ke	-12.184
▁1994)	-12.1841
▁anarcho	-12.1842
▁$	-12.1842
▁depressing	-12.1843
▁extracted	-12.1845
ves	-12.1848
▁lunch	-12.1852
▁opposes	-12.1853
▁vi	-12.1854
▁1993.	-12.1855
▁defends	-12.1855
▁bien	-12.1856
▁Balance	-12.1858
▁pretensions	-12.186
▁blessed	-12.186
▁legend	-12.1861
▁painting	-12.1868
[...]
